#version: 0.2 - Trained by `huggingface/tokenizers`
e s
Ġ d
e n
Ġ p
Ġd e
o s
Ġ l
e r
a r
q u
Ġ a
Ġ c
c i
Ġ s
o n
qu e
a s
Ġ que
o r
Ġ es
t a
Ġ e
Ġ m
t e
Ġl a
Ã ³
a n
u n
i n
d o
Ġ y
t i
r e
Ġ n
t o
Ġ en
Ã Ń
a l
Ã³ n
Ġe l
t r
Ġ h
d a
Ġs e
Ġ un
i s
Ġp r
i c
Ġc on
a ci
Ã ¡
Ġ v
o m
m os
Ġp ar
e c
en te
Ġ f
Ġn o
Ġ re
Ġl os
Ã ©
Ġp or
Ġh a
o l
Ġ in
Ã ±
b l
Ġc om
Ġde l
da d
Ġpar a
b i
a m
ar i
Ġ P
Ġ o
Ġl as
m p
d i
Ġpr o
d e
Ġ C
t en
t u
Ġa l
tr a
ci Ã³n
c u
p u
aci Ã³n
Ġd i
Ġun a
on es
Ġ g
i en
u e
es i
ÃŃ a
t os
Ġl o
Ġp er
t ar
u s
c h
t er
ti v
r a
d os
i dad
m a
Ġc u
Ġes ta
r es
Ġl e
Ġes te
Ġ 2
l e
Ġ E
Ġs i
Ġ L
ic a
Ġ to
Ġ i
l a
Ã¡ s
Ġ D
Ã º
Ġ A
Ġ N
an do
Ġ Ċ
er a
i l
Ġ b
ta n
pu ta
Ġ qu
Ġ R
Ġes t
Ġm e
ci a
Ġ ti
Ġp o
Ġs u
Ġp a
ari a
e mos
en ta
Ġm u
t es
c a
Ġ ten
g u
er o
Ġe x
i m
Ġd es
Ġcom p
b a
l o
ÃŃ s
Ġ S
Ġcom o
bl e
m ente
Ġm Ã¡s
r o
Ġ M
i r
i ci
Ġest Ã¡
d as
Ã© n
Ġ2 0
o c
Ġn os
a do
g o
en s
t or
i Ã³n
a Ã±
d er
Ġi mp
or d
tr o
Ġse Ã±
Ġa p
u es
Ġ ta
o y
y ec
ien to
on al
Ġa c
Ġpro yec
b re
Ġ res
Ġdi puta
Ġp l
c o
Ġpor que
Ġti en
d u
Ġs er
Ġha c
esi d
ĠD E
i z
m bi
i o
Ġpa ÃŃs
am ente
Ãº bl
Ġ j
Ġ te
Ġs o
ĠseÃ± or
Ġ tra
Ġd is
i v
Ġha y
ci ones
r aci
Ġp ue
Ġ \
g a
ord in
Ġ tr
l ar
ĠP A
mbi Ã©n
Ġta mbiÃ©n
Ġ G
Ġpr esid
g is
t as
Ġproyec to
Ġ 1
m o
E R
Ġcomp aÃ±
g un
Ġcon s
Ġpr es
Ġper o
Ġc os
i er
Ġv a
tr os
r i
Ġm a
raci as
ari o
c es
en cia
c on
pu es
p e
a da
ci al
ti tu
Ġes o
in is
Ġper s
esi Ã³n
i a
Ġ Y
tiv a
Ġm il
f or
Ġp re
Ġs ol
ĠcompaÃ± er
qu ÃŃ
Ġa s
e mp
d es
Ġde ci
Ġm o
Ġs in
Ġm an
ĠE s
Ġmu ch
E F
Ġtien e
Ġpl en
c e
v i
ic o
e z
gis la
Â º
Ġa n
en do
Ġes a
er n
Ġn ues
Ġle y
en to
u l
ordin aria
Ġes e
ÃŃ ti
b r
Ġd on
Ġpers on
Ġplen aria
Ġa quÃŃ
r ic
ĠL e
Ġ I
Ġa Ã±
j o
tiv o
r an
Ġde b
a c
Ġ us
Ġhac er
Ġs on
ĠPA G
T oc
bi l
or es
Ġ _
ER EF
ĠPAG EREF
i do
u en
al es
E s
ol ÃŃti
Ġ F
e l
Ġy o
Ġpresid ente
Ġc re
Ġe mp
l os
Ġy a
Ġin s
Ġh oy
Ġes to
Ġin ter
Ã© s
c ciÃ³n
or a
Ġp Ãºbl
ue v
p on
Ġs us
Ġv er
C I
Ġte ma
g ar
aci onal
Ġimp or
ĠC os
E N
i puta
v er
Ġh an
m i
cu r
D iputa
ta do
s e
Ġ T
Ġ ar
o bi
Ġto dos
t on
Ġ20 1
Ġs al
aci ones
os i
Ġ20 2
Ã¡ n
Ġ r
obi ern
ric ens
tar ricens
m as
Ġso bre
Ġd ic
j a
Â ¿
Ġp as
Ġimpor tan
Ġtra ba
ĠestÃ¡ n
Ġf in
Ġre al
Ġn ec
t re
ĠR ica
Ġ H
Ġperson as
bil idad
Ġp olÃŃti
Ġmu y
Ġc as
ĠCos ta
an te
l es
Ġc a
Ġv o
obiern o
Ãº n
Ġpo der
Ġa h
m e
i g
f er
v en
Ġf or
z a
Ġ J
Ġesta mos
du c
Ġ V
u ch
S esiÃ³n
â Ģ
is iÃ³n
ĠcompaÃ±er os
ton ces
ĠA s
Ġm i
u m
Ġten emos
Ġa g
p or
O R
cur s
Ġcos tarricens
Ġdeci r
Ġn i
Ġcu ando
Ġap ro
l am
Ġqu i
ĠC on
Ġm en
Ġg en
Ġdiputa dos
b er
Ġg racias
ti r
ĠR e
Ġl le
Ġha bl
Ġ ordinaria
Ġdon de
Ġus te
ĠG obierno
Ġqu Ã©
Ġc or
en tes
g an
u r
Ġma y
ec h
Ġme di
f ici
Ġe j
Ġl es
p er
Ġse gu
Ã ĵ
u pues
ta l
Ġal gun
s iÃ³n
Ġto do
Ġin c
idad es
ĠL A
d r
Ġv i
tu ra
e m
c tor
Ġv e
ec u
ien do
c al
ari os
d en
Ġm is
O N
E n
Ġdis cu
Ġpres upues
g r
Ġc iento
Ġd os
D I
Ġb uen
Ġ tan
Ġcon tra
Ġ Â¿
en tos
Ġp osi
Ġ bi
am ble
ti do
Ġf un
f ec
Ġtien en
s i
ch o
Ġten er
amble a
o tros
Ġc am
Ġv en
t ÃŃ
ci onal
ĠAs amblea
p i
ci on
ar r
u er
A R
ĠaÃ± os
Ġbi en
ec e
Ġe con
gisla tiva
Ġh emos
Ġre curs
a b
f ic
tr as
tr u
G racias
Ġm ar
Ġs ÃŃ
Ġgen er
Ġpue de
Ġ B
t in
j e
Ġa b
m iento
M uch
s a
Ġde re
de m
Ãĵ N
l en
Diputa do
Ġnos otros
Ġmil l
Ãºbl ica
Ġex tra
Ġc ol
Ġdes de
I C
Ġin for
E S
ar a
Ġnec esi
Ġimportan te
Ġins titu
Â °
an a
Ġn uev
Ġa d
m in
Ġpar te
Ġd ar
z o
Ġrecurs os
ci as
Ã³ m
Ġm om
Ġf ue
Ġg ran
ĠLe gislativa
Ġmo ciÃ³n
Ġes p
u da
R A
u d
Ġc an
Much as
j er
Ġes tos
c as
Ġmill ones
p o
Ġf is
Ġle gisla
a mos
mp l
Ġo b
Ġme j
Ġc in
r u
Ġes tu
Ġun o
Ġsol o
EN T
es ti
un to
ĠseÃ±or a
arr ol
ari as
Ġpr im
Ã© r
Ġqui ero
Ã³ mo
ic os
Ġc lar
Ġdiputa do
Ġa ten
Ġre c
Ġcostarricens es
tr ol
p Ãºblica
O S
ĠRe pÃºblica
en da
Ġhac e
ĠEs tado
Ġti emp
Ġp on
tu r
r im
is te
Ġse ctor
ta ciÃ³n
âĢ ¦
Ġfis cal
Ġes os
Ġ U
ter io
Ġa u
is i
Ġpresid enta
C on
ĠI n
Ġes tar
ÃŃ as
al mente
ta mente
Ġso cial
ter i
b ar
Ġpro ble
Ġmom ento
Ġtr an
ic as
d ores
al a
ÃŃ an
Ġcu al
Ġc o
Ġd ÃŃa
Ġp la
Ġc ar
ĠLe y
ĠcompaÃ±er as
ci p
Ġa cu
Ġ tar
Ġde f
iz ar
tÃŃ cu
Ġnues tro
Ġh aci
j ar
Ġto das
Ġpresupues to
pon sa
P ero
i b
Ġas ÃŃ
ĠaÃ± o
Ġfin an
l as
Ġ 3
Ġen tre
Ġf ra
Ġpar ti
Ġse a
Ġmay or
CI ÃĵN
Ġc i
ĠD e
as ta
Ġm inis
m ar
Ġva mos
am iento
Ġ ter
Ġman era
d or
Ġsi do
Ġdes arrol
v an
qu i
Ġ201 9
Ġp e
. Â°
Ġen tonces
Ġper mi
Ġfor ma
Ġ202 0
de mos
ĠC om
ci o
Ġdeb e
d ar
Ġ O
di ente
cu p
u dad
Ġ2 1
Ġsin o
r en
Ġh ech
Ġtr es
z ar
le o
Ġtiemp o
Ġc Ã³mo
dem Ã¡s
Ġinc l
Ġuste d
m inis
s titu
Ġecon Ã³m
Ã¡ l
Ġah ÃŃ
t un
Ġpar ece
al ta
a dos
Ġcre o
Ġ202 1
re c
tan do
g Ãºn
Ġestu di
l ic
P or
ĠP len
a tro
Ġmej or
Ġex p
ÃŃ o
Ġmu jer
v ar
Ġs en
Ġar tÃŃcu
Ġv an
Ġre g
u y
Ġde m
Ġ ra
Ġproyec tos
ien tos
Ġc r
Ġest as
Ġdic e
c ol
m enta
Ġes as
ĠN acional
ĠL a
p ar
E l
Ġ or
ĠPlen ario
g n
Ġo tros
ces o
duc aciÃ³n
Ġde c
v ici
Ġdi fer
Ġres ponsa
ĠP ar
Ġre for
Ġm un
v e
Ġsi tu
t Ã³
Ġd a
Ġmen os
Ġacu er
Ġcas o
i f
c ar
Ġc ada
em bre
Ġextra ordinaria
bl es
ĠC a
Ġp ues
Ġd en
P E
a v
Ġg ente
Ã± o
Ġtran s
o ci
Ġ t
am il
Ġtraba jo
Ġv ez
Ġg as
Ġdiscu siÃ³n
ĠM inis
Ġm es
Ġap oy
Ġnues tra
d an
Ġp ens
l aciÃ³n
Y o
i mos
Ġv al
ar ÃŃa
ĠpolÃŃti co
ENT E
ĠMinis terio
Ġl lam
Ġn e
Ġa demÃ¡s
ĠL E
Ġre ci
Ġc al
Ġhech o
qu ier
S e
Ġalgun os
ta mos
Ġpo dr
Ġv iv
Ġej emp
Ġpl an
Ã į
ĠS e
tiv os
Ġf amil
ĠC ar
Ġe m
p ec
c os
Diputa da
ue l
ĠartÃŃcu lo
Ġqu er
O L
v o
g res
Ġf u
ti l
por tun
c n
Ġn acional
A L
Ġto da
Ġn or
AR I
Ġcam bi
Ġuste des
Ġpo demos
Ġemp res
Ġo portun
Ġi r
un es
g ue
ĠCom isiÃ³n
Ġre p
Ġpro duc
Ġimp ues
v a
Ġmuch o
DI ENTE
E X
Ġp unto
iz aciÃ³n
PE DIENTE
Ġc ier
ĠDE L
Ã± a
Ġdiputa da
Ġfinan ci
ch os
ĠE l
m aciÃ³n
pe diente
Ġin v
EX PEDIENTE
n a
d ic
Ġdiputa das
ci entos
Ġh asta
ĠP o
er r
Ġejemp lo
ti ca
Ġcu atro
Ġl u
Ġes cu
is ta
i os
esi ones
o cup
Ġpr in
Ġsitu aciÃ³n
Ġcos as
Ġd u
ĠE L
P rim
Ġci udad
tiv as
Ġqu ier
Ġ u
ol u
ord en
Ġreal mente
Ġde ba
Ġser vici
ĠpÃºbl ico
iv er
Ġpre ocup
Ġmujer es
ec er
Ġcon di
Ġn in
Ġre con
Ġn ada
Ġcom un
Ġcin co
Ġmuch os
an os
us ti
uev es
Ġf av
ga mos
Ġ201 8
Ġvi da
ib u
Ġdesarrol lo
Ġacuer do
âĢ¦ ,
Ġnec es
Ġa y
? ,
n os
Ġdere cho
Ġin ver
an o
dad es
en tar
on a
ÃŃ n
tr al
p aÃ±
Ġ 4
Q u
ecu tivo
Ġac tu
Ġah ora
Ġmuch as
Ġl i
ĠPo der
Ġdere chos
Ġb us
ĠLE Y
Ġ orden
ĠCon stitu
er on
ĠE j
il l
L a
en e
ĠpÃºbl ica
Ġcomp r
Ġdeb er
Ġpl ante
ens a
tru c
Ġe ducaciÃ³n
Ġ era
ĠE n
Ġe fec
l ti
Ġha b
T A
u di
Ġh e
Ġ1 9
Ġtar des
Ġf uer
Ġve in
Ġcostarricens e
Ġper ÃŃo
Ġcol ones
Ġo tro
ÃŃa mos
p aci
Ġsegu ir
Ġo tra
ul ta
Ġfra cciÃ³n
IC A
En tonces
si ones
Ġd ÃŃas
Ġqu ien
Ġtan to
i as
Ġhaci endo
tiv amente
Ġs ab
Ġs esiÃ³n
Ġo tras
ĠCa ja
re z
Ġproble ma
Ġp es
te g
Ġh um
er os
Ġmis mo
im o
Ġd o
gu al
ĠseÃ±or es
Ġposi bilidad
Ġv ien
ĠEj ecutivo
ar an
is mo
Ġel los
Ġra z
Ġaten ciÃ³n
ĠperÃŃo do
ci l
Ġa fec
ĠR o
i da
Ġm er
N o
Ġfav or
Ġ 9
c an
r idad
bl o
Ġa van
Ġh u
Ġclar o
Ġcon c
r esid
Ġb a
lam ento
Ġs a
Ġv oy
ĠU n
om ÃŃa
gun do
is is
Con trol
Ġrefor ma
ĠpolÃŃti ca
Ġver dad
Ġpo bl
Ġpr iv
Ġo p
i cia
z as
ar on
Ġn a
Ġdic h
Ġs esiones
in a
teri or
iver s
Ġde uda
Ġdi ci
col es
i ones
on do
Ġad minis
Ġrep res
Ãº lti
di do
p a
Ġti po
e te
Ġ ri
Ġcom isiÃ³n
ĠA l
Ġemp leo
Ġresponsa bilidad
Ġtraba ja
ci s
Ġs iste
i d
Ġres pe
Ġcons tru
A D
Ġbuen as
Ġ 5
Ġo bl
pu Ã©s
Ġan te
Ġ tu
ĠN o
Ġ Ã©
t ario
ĠseÃ± al
Ġdeba te
Ġinstitu ciones
Ġte mas
Ã© cn
ĠG u
Ġcon f
b an
Ġpue den
Ġpres enta
an tes
Ã©r coles
ĠM arÃŃa
ĠJ os
pues ta
Ġperson a
Ġminis tro
e dad
di r
Ġfun cion
ĠJos Ã©
Ġal go
ĠP a
pues to
aci enda
I S
Ġ 7
Ġcu mpl
Ġre f
Ġg ra
Ġha ber
Ġse is
Ġapro b
or ÃŃa
tor ia
Ġre v
Ġprin cip
ĠH acienda
ĠPA RA
Ġfun da
Ġes pe
Ġsal ud
tr aciÃ³n
ĠI N
A S
t aria
v in
Ġvi ol
Ġ2 2
Ġcons titu
IC O
b o
ĠP R
Ġdes puÃ©s
Ġ Ãºlti
Ġc en
Ġg aran
m en
Ġ tre
Ġ Ãºn
Ġvo tar
or te
Ġcon tr
n acional
Ġla b
Ġescu ch
Ġb an
p al
ven ciÃ³n
ordin arias
Ġau tor
Ġn om
ec es
n o
T R
Ġin d
Ġhabl ar
Ġ 8
us o
Ġsol amente
Ġel ec
ĠpÃºbl icas
Ġpue da
Ġlegisla tura
Ġin gres
Ġe vi
ĠR E
T I
Ġb as
Ġdifer entes
B L
Ġesto y
Ġo cho
Ġj un
a y
Ġprim er
Ġin f
ĠeconÃ³m ica
lar es
p re
iv el
A CIÃĵN
Ġpro ceso
ca do
om o
Ġreal idad
Ġpre gun
c ta
ĠS ala
Ã³ g
Ġv ol
m an
emp re
Ġinfor maciÃ³n
ĠV ill
Ġinfor me
Ġcondi ciones
a das
Ġpon er
Ġh is
Ġb ene
Ġn ivel
Ġu til
ti endo
cu enta
Ġ z
ĠVill alta
Ġm al
ci miento
x to
Ġa que
ĠC ON
ran te
Ġde jar
en cias
Ġm on
ĠPar tido
Ġma ter
Ġm in
Ġcon trol
Ġta l
Ġcin cuenta
Ġc ri
Ġni Ã±
p en
de l
ta d
Ġsi empre
D e
Ġl unes
Ã¡ c
Ġlu gar
Ġpro f
Ġinstitu ciÃ³n
Ġd Ã©
Ġaque l
Ġmar tes
Ġto tal
de z
ce di
Ġt Ã©cn
Ġhab ÃŃa
in ta
Ġsiste ma
Ġre ac
br as
Ġgas to
Ġservici os
Ġespe cial
I N
Ġd in
Ġab s
Ġfunda menta
g os
ARI A
Ġto mar
l ica
Ġinter es
Ġpue dan
gr am
Ġinv esti
Ġac tiv
t Ã³n
Ġcompr om
Ġmater ia
Ġposi ble
C ON
ĠP ero
Ġmedi o
Ġhabl ando
Ġre fer
Ġi gual
Ġbuen o
A cta
Ġob je
er g
Ġvo to
j os
Ġpobl aciÃ³n
ar se
Ġf r
Ġ 6
Ġtr as
le g
Ġimpues tos
Ġpa gar
A N
Ġnor ma
Ġecon omÃŃa
Ġalgun as
Ġf al
Prim era
Ġa f
Ġne go
gu a
Ġex is
Ġtre inta
Ġlab or
Ġa br
Ġnues tros
c en
om paÃ±
E x
paci dad
i or
Ġesta bl
fic aciÃ³n
Ġgener ar
Ġes f
mp le
da mos
Ġapro bar
Ġdich o
Ġp an
Ġesf uer
Ġm ÃŃ
ĠP olÃŃti
ic amente
Ġj ur
Ġmes es
I D
Ġj ueves
ĠCar los
Ġlo gr
ĠB an
oc er
e a
an za
Ġf alta
Ġempres as
tra da
Ġten ido
Ġpue blo
Ġin icia
Ġs an
ten ido
Ġbene fici
Ġfin al
c tu
g e
Ġres pec
Ġdi rec
Ġen f
e g
Ġor gan
ta dos
Ġesta do
Ġen ten
Ġsol ici
Ġes per
âĢ Ķ
Ġmay o
Ġej er
im iento
Ġvien e
Ġsu puesto
du ci
Ġp u
Ġ OR
Ġj usti
en as
2 0
Ġa un
ti co
Ġa del
Ġv eces
ru p
Ġcu l
Ġdem oc
Ġqu in
Ġcor res
Ġhay a
ĠS o
Ġfamil ias
ĠP ro
Ġpro vin
Ġc er
Ġsi gu
Ġpo bre
Ġdu rante
if ica
truc tura
i dos
Ġap lic
Ġmen cion
ĠM u
DI N
Ġre gu
di endo
du cciÃ³n
is o
Ġag ra
Ġsegu ridad
Ex pediente
Ġpro p
Ġcorres pon
Ġr en
iz o
Ġpla zo
Ġreac tiv
Ġso ci
Ġd Ã³
B uen
te gr
ici pal
ĠPA C
Ġp os
Ġdeci siones
Ġoportun idad
Ġem bar
Ġapro ba
Ġf e
ier on
ĠSe gu
tan tes
Ġp i
Ġpas ado
Ġconstitu cional
Ġun ivers
Ġpo co
Ġan terior
g ado
Ġcr isis
Ġgaran ti
Ġcu ar
es ta
ra mos
Ġpodr ÃŃa
Ġvein ti
Ġlle gar
Ġs om
Ã ļ
en a
Ġpro gram
ĠM on
Ġe v
Ġapoy o
Ġ ur
Ġmo ciones
ĠS an
Ġan tes
Ġmuch ÃŃs
un tos
ĠseÃ±or as
Ġmedi das
Ġabs olu
Ġf ir
ĠF l
du ca
Ġsi ete
Ġesp aci
Ġparti cip
Ġsen tido
1 9
Ġa um
Ġcomp le
v Ã©s
Ã© di
ĠdÃ³ lares
Ġ ordinarias
Ġnecesi dad
Ġgran des
tor io
Ġinter Ã©s
Ġdes emp
OR M
Ġter min
Ġsu per
Ġtra vÃ©s
Ġcual quier
O C
Ġlegisla tivo
Ġh izo
Ġpr Ã¡c
Ġmis ma
isi era
qui era
is tas
ce p
ctu bre
Ġa mpl
ten cia
Ġsector es
Ġadel ante
Ġre quier
Ġc l
Ġl uch
Ġproble mas
Ġe duca
dem ia
Ġb Ã¡s
Ġf i
Ġsol u
i ta
Ġr u
ĠpÃºbl icos
i ber
ble mente
Ġnin gun
osi ciÃ³n
ĠSo cial
U L
ti dad
Ġf ondo
Ġden tro
ĠC h
ci os
Ġo ctubre
Ġten go
Ġej ecu
Ġinver siÃ³n
i ma
Ġcomp e
Ġman if
Ġdeb emos
Ġmun do
un ca
tor es
tr ar
Ġcu enta
Ġcier to
Ġalgun a
Ġlo g
Ġreci bi
Ġesta ba
Ġcas os
Ġembar go
Ġs iendo
Ġdef in
oc o
Ġus o
Ġdar le
in o
Ġquien es
f ica
Ġle g
Ãº m
Ġ Ã¡
Ġs Ã©
3 6
Ġde j
Ã³ r
tan te
Ãļ BL
Ġse gundo
is to
Ġquier e
en tas
Ã ģ
Ġimportan tes
c er
Ġraz Ã³n
Ġpre ten
Ġs os
Ġincl uso
Ġ1 4
ÃŃ d
Ã© g
Ġrec or
e ci
Ġsocial es
ic e
Ġdi jo
Ġpobre za
ĠpaÃŃs es
c un
Ġven ido
ĠConstitu ciÃ³n
Ġcon ven
Ġa mbi
di e
Ġdi ez
u ar
Ġha bi
Ġcu Ã¡l
iz a
Ġdis tin
c l
im en
Ġhaci a
i ero
gis tra
Ġ tur
ver s
ĠC as
c ri
Ġi de
Ġdeb en
fic ar
Ġ W
Ġmayor ÃŃa
udi cial
T O
R E
Ġnuev o
Ġpla ta
I n
Ġg esti
Ġa gua
Ġc e
Ġsoci edad
ĠL u
Ġtrans par
Ġcon tin
fici ente
Ã±o z
Ġtr Ã¡
ĠMu Ã±oz
ĠS ol
d encia
Ġquer emos
ten er
Ġprovin cia
2 3
Ġobl ig
Ġsi gn
Ġd oc
Ġac ciones
al idad
Ġmi Ã©rcoles
ĠBan co
Ġser i
Ġnin gÃºn
v ech
Ġse m
os to
ĠD i
Ġdo Ã±a
H oy
en cial
ci cio
ol ver
Ġrespec to
di a
Ġcuar enta
Ġag osto
v ÃŃa
ra es
i ar
Ġn Ãºm
Ġqu isiera
Ġesta ble
Ġimp ac
0 4
A s
ĠP OL
iz ado
Ġn unca
Ġinter nacional
Ġte xto
Ġneces ario
Ġpan demia
raes tructura
on os
Ġex pediente
Ġac Ã¡
ti cas
Ġden un
m ento
Ġdi go
Ġin ten
ĠP resid
Ġ (
ĠP or
Ġj u
Ġsi mple
Ġdef en
Ãį T
Ġjun io
Ġres ulta
br ero
b res
Ġciudad an
Ġe qu
la do
Ġin ici
Ġpas ar
T RA
Ġaun que
Ġna die
on as
ĠÃ© l
am ientos
Ġ Q
Ġten ga
ra do
Ġlle var
Ġaten der
Ġpr Ã³
am bi
o g
Ġpro cedi
Ġpo damos
oci miento
b e
Ġh ici
gue z
Ġ1 1
Ġhac en
Ġmo di
Ġfundamenta l
Ã³n de
ÃŃ guez
dr ÃŃguez
ti embre
ĠRo drÃŃguez
Ġ1 0
ĠIn ter
dor as
Ġrev is
i ter
ĠPOL ÃįT
Ġ Z
Ġningun a
Ġre laciÃ³n
Ã³ rez
ĠE N
Ġingres os
Ġh om
Ġtrabaja dores
ĠFl Ã³rez
i to
Ġin de
Ġjur ÃŃd
Es te
ĠA d
Ġs ac
Ġque da
Ġle gis
Ġa ca
Ġfuer on
te l
s o
Ġpa tr
Ġcomp ar
Ġcon v
Ġ "
ĠConstitu cional
ul io
Ġinf raestructura
Ġ tas
Ġp al
Ġse tiembre
Ġdeci siÃ³n
Ġquier en
z os
Es trada
Ġminis tra
Ġfe brero
Ġsi quiera
Ġd ado
Ġgen era
ĠtrÃ¡ mi
Ġma gistra
Ġmin u
. Â¿
Ġimpues to
Ġpas a
e gu
a p
Ġrepres enta
Ġri es
Ġpres en
2 8
Ġc ien
er an
Ġpre cis
Ġnues tras
ari dad
Ġex iste
ĠL im
Ġgener al
Ġcr Ã©di
ĠS u
A M
Ġal l
raci a
Ġprim era
Ġtra ta
ĠAd minis
i ga
Ġda tos
im as
ĠprÃ³ x
Ġdin ero
ĠC en
Ġciudadan ÃŃa
Ġag enda
As ÃŃ
5 0
Ġdici endo
d ente
S i
Ġpers onal
Ã¡n do
Ġesfuer zo
re g
Ġo fici
Ġto ma
ĠT OC
Ġestudi antes
Ġin tegr
Ġre iter
Ġac ceso
Ġj ulio
ĠLim Ã³n
as te
Ġen cu
Ġviol encia
Ġpro pi
Ġapro vech
TR OL
Ġhis toria
Ġdis curs
Ġdec lar
Ġhu bi
Ġen ero
ĠniÃ± os
Ġre qu
I ÃĵN
Ġ1 3
Es ta
di o
ordin ario
Ġmejor ar
c ciones
Ġl ar
Ġdic en
Ġtraba j
tur al
Ġabsolu tamente
Ġh i
Ġpe que
Ġtoda vÃŃa
4 9
Ġse an
pi tal
ĠR EF
Ġur g
ch a
i ente
Ġsu b
ĠpolÃŃti cas
Ġqui Ã©n
ĠPar lamento
Ġunivers idades
u al
1 8
CI ON
Ġllam ado
Ġpro puesta
Ġal can
Ġnecesi ta
Ġsom os
7 6
g as
os o
te cciÃ³n
Ġcons i
Ġtraba jar
r as
f ico
Ġrespe to
CON TROL
i ble
Ġimportan cia
Ġinc or
Ġcal idad
Ã©g imen
Ġter ri
Ġreactiv aciÃ³n
i Ã³
Ġval or
ĠS al
Ġman e
Ġsign ifica
er as
tarricens e
en er
ar tes
Ġfu era
Se Ã±
or as
Ġcambi o
Ġref le
ĠL iber
Ġinvesti g
cu lar
Ġten dr
Ġesp ec
ten ta
Ġestable ci
Ġcom er
ĠP Ãºbl
ĠA L
di da
Ġdes tin
ĠREF ORM
Ġre l
Ġmar zo
Ġfra cciones
Ã¡ les
m ientos
ĠLu is
Ġla do
ti s
Ġpr ior
Ġ1 2
var ado
tr an
Ġcor rec
Ġejer cicio
M e
ĠPOLÃįT ICO
E C
ĠcompaÃ± ero
Ġemp ez
Ġac lar
vi embre
ĠSol ÃŃs
ĠAl varado
Ġta mp
Ġtamp oco
Ġgesti Ã³n
Ġac ompaÃ±
Ġhum anos
Ġadminis tra
Ġ err
Ġcon te
Ġdec ÃŃa
Ġall Ã¡
ĠCos tarricense
Ġten gan
Ġmer cado
Ġdeber ÃŃa
Ġd ando
ĠP L
Ġmun icipal
duci r
Ġaprob aciÃ³n
Ġp en
Ġtr ibu
ci ar
Ġno viembre
Ġdesemp leo
V A
Ġal gÃºn
u ra
us iÃ³n
Ġpro teg
Ġsem ana
Ġs es
Ġru ta
Ġten ÃŃa
ambi Ã©n
Ġpermi tir
Ġa m
ĠG ener
Ġen con
Ġd Ã³nde
tu d
Ġefec tivamente
2 6
g en
Ġres olver
Ġincl uy
Ġz onas
Ġinteres es
Ġconsi der
ĠL OS
Ġpar tir
Ġfamil ia
ĠAdminis traciÃ³n
ue go
Ġr Ã©gimen
Ġob s
Ġd uda
m Ã¡
ĠeconÃ³m ico
ÃļBL ICA
Ġbus ca
on ar
Ġpes ar
Ġex cl
Ġj us
Ġay er
ĠGener al
Ġinstitu cional
R T
ic aciÃ³n
enta l
y a
Ġcos a
C u
Ġinicia tiva
Ġrequier e
Ġa du
Ġse gÃºn
Ġlogr ar
f ÃŃ
Ġdici embre
ĠY o
Ġa Ãºn
Ġm ec
O M
Ġhabl a
Ġmay ores
Ġcan tidad
Ġpr on
Ġcu an
ARI O
re cciÃ³n
Ġ1 5
ab ra
Ġespaci o
Ġ ol
Ġpro pon
pues tas
Ġh o
in ar
Ġnuev e
t Ã©
Qu iero
Ġcas i
U S
Ġoportun idades
Ġv ig
Ã¡ r
Ġprecis amente
Ġfinan zas
ter a
Ġses enta
us iv
Ġavan zar
Ġpresenta do
Ġseri e
Ġpal abra
Ġun os
Ġes ti
Ġpr om
Ġnom br
Ġap or
Ãį C
Ġabr il
Ġespec ÃŃ
Ġservici o
Ġan al
Ġencu en
Ġh ora
ĠnÃºm ero
Ġp ala
Ġpres entar
Ġpe dir
Ġconf i
cu l
Ġce le
t ÃŃa
Ġsi gue
Ġinter pre
Ġl im
ta le
Ġsal ir
Ġnecesi dades
Ġv ul
Ġv isto
ien da
ord ar
Ġre cu
Ġmec an
ter min
d ora
1 3
i tar
u ir
ez a
ĠOR DIN
Ġpala bras
o p
Ġel im
ĠCon tral
Ġimpac to
Ġque dar
Ġdiscu tir
Prim er
Ġpr Ã©s
Ġgaranti zar
Ġreal izar
an ac
Con tenido
A C
re to
anac aste
Ġinde pen
ĠA RT
Ġactu al
ĠN i
Ġimp ul
Ġcan tÃ³n
Ġpro ces
M uy
ĠContral orÃŃa
Ġpr omo
Ġca pacidad
Ġvol un
Ġaf ir
ÃįC UL
U E
Ġse tenta
ch enta
Ġbien es
Ġpens iones
ien tras
ĠD es
os a
da mente
Ġmuch a
teri os
Ġser ÃŃa
Ġestudi os
Ġsa ber
Ġvul n
ĠART ÃįCUL
p os
Ġla menta
Ġdic ta
Ġ ĠĊ
Ġe qui
Ġdemoc racia
e f
Ġmanif es
Ġah or
5 5
Ġp ol
ĠLiber aciÃ³n
Ã³ di
Ġo chenta
Ġtranspar encia
Ġem erg
Ġ1 6
Ġdes a
Ġba jo
l an
Ġg us
Ġcu Ã¡les
Ġpa go
Ġprogram as
Ġemp le
D E
Ġg an
Ġven ir
Ġcons ul
7 3
ĠC i
Ġvein te
Ġde bi
Ġpar tido
Ġfuncion arios
L o
b ra
Ã ī
Ġmar co
n e
di entes
Ġcri terio
t arios
ec o
d Ã³
Ġdis tr
Ã³di go
Ġv arios
ol og
Ġcumpl ir
tu ro
ĠEs o
Se gundo
Ġcomprom iso
ĠcompaÃ± era
Qu Ã©
Ġm Ã©
Ġcu esti
f ens
m es
un tar
Ġb r
ES IÃĵN
Ġrecon ocer
Ġlegis laciÃ³n
ĠPL EN
ci n
Ġadminis traciÃ³n
ĠpolÃŃti cos
ĠC ru
ti Ã³
Ġpreocup aciÃ³n
ol Ã³g
Ġpro tecciÃ³n
Ġminu tos
Ġfu turo
j al
Ġfun ciÃ³n
Ġdem Ã¡s
ĠPolÃŃti ca
Ġries go
Ġprim ero
Ġgra ve
ĠCi udad
ĠP e
Ġprincip io
Ġex per
Ġcu ales
Ġl ÃŃn
Ġsimple mente
Ġin con
Ġo cup
Ġsab emos
f o
Ġconstru cciÃ³n
g ando
Ġp udi
on o
Ġvuln era
i Ã©rcoles
Ġpues to
Ġsos ten
Ġde termin
ud ar
re ctor
Ġactiv idad
Ġev as
T ambiÃ©n
ĠM e
d re
Ġparti cular
Ġcomun idades
jal Ã¡
Ġcon for
tiv idad
Ġcontr ibu
ĠSegu ro
Ġluch a
h ÃŃ
i das
Ġnuev a
ĠP ara
Ġbas e
Ġcons id
7 9
Ġprof un
Ġdi o
ĠJ udicial
Ġfr ente
ĠPLEN ARIA
tur as
Ġfor tal
Ã©s pe
Ġ Ã³r
er ar
Ġincor por
Ã©spe des
Ġsu f
Ġpermi te
Ġproduc to
1 6
Ġprocedi miento
ĠRE P
Ġj ef
Ġjusti cia
gres o
rup ciÃ³n
Ġbuen a
Ġres puesta
Buen o
ĠÃºlti mos
Ġdi fÃŃ
Ġca us
Ã³ ven
ENT O
Ġtotal mente
Ġlar go
Ã³ven es
Ġin di
ĠA r
Ġm aÃ±
Ġestabl ece
Ġc h
Ġpue do
Ġenten der
ĠS i
ĠS ESIÃĵN
b ro
ĠP Ãºblica
Ġj Ã³venes
ti c
ĠC Ã©spedes
Ġpas ando
Ġ âĢĶ
Ġv isi
ec a
ĠE ducaciÃ³n
Ġde mos
por te
ec en
0 0
Ġapoy ar
Ġv uel
ba mos
ĠM ar
ba jo
Ġexp lic
Ġ Ãģ
Ġpu bl
Ġinvestig aciÃ³n
p l
ĠÃ¡ re
Ã© rez
ta ciones
ĠC Ã³digo
Es to
ĠP Ã©rez
Ġas pec
7 8
Ġen ti
ĠE X
Ġactiv idades
In ter
ĠREP ÃļBLICA
Ġfinanci amiento
Ġempres a
Ġte cn
ĠRe g
Ġmedi os
ĠtrÃ¡mi te
4 4
Ġv emos
ĠF ondo
Ġ1 8
Ġrec om
Ġ ro
vi d
Ġrepres en
ĠA cciÃ³n
er v
ĠmaÃ± ana
ar do
Ġhacer lo
Ã¡l isis
r ÃŃa
Ġpr ensa
T U
H ay
T OR
A CION
r os
Ġsegu ro
Ġind ica
Ġdiscurs o
Ġad ecu
i ficaciÃ³n
ĠPresid encia
untar enas
ĠO C
Ġbus car
Ġley es
3 9
ĠCiudad ana
c ales
ĠM un
Ġcons ulta
ĠP untarenas
5 8
Ġd aÃ±
ĠS E
Ġir res
Ġcu entas
i tos
Ġclar amente
Ġz ona
Ġsal ario
Ġvien en
di al
Ġexp res
Ġrefer ir
Ġdefen der
Ġre un
ĠE con
d ÃŃa
r Ã¡
Ġen de
ĠPR ES
Ġm ientras
Ġobje tivo
ĠCen tral
ru po
Ġl Ã³g
Ġas unto
un ta
j us
Ġpas o
Ġh uel
t arias
Ġd esi
ĠÃºn ico
Ġes tra
2 9
Ġg ol
Ġinter venciÃ³n
Ġdis min
Ġparti dos
Ġadu l
qu Ã©
Ġmil es
Ġreal iz
Ġlle v
Ġautor idades
Ġcu Ã¡n
Ġest Ã©
Ġvo taciÃ³n
pi os
r ar
ĠGu anacaste
Ġesp era
Ġcuan to
Ġli ber
d era
7 0
Ã©r min
ĠO r
Ġva cun
ĠcrÃ©di to
ĠD el
lo go
br os
Ġestudi o
ĠPolÃŃti co
is mos
ric ul
4 8
Ġnuev amente
Ġcon ten
Ġv arias
d Ã³n
Ġ2 7
ĠlÃŃn ea
gu ien
Ġsal arios
Ġcorrespon de
Ġc ir
Ġval e
Ġcom e
Ġdi Ã¡
Ġt Ã©rmin
Ġfortal ecer
Ġmo de
Ġdos cientos
am ien
isi ones
err amien
ĠT ra
Ġcam paÃ±
Ġan un
Por que
Ġobl iga
Ġc las
Ġaquel los
Ġv ista
Ġcons u
Ġh erramien
Ġcomun icaciÃ³n
j as
tr ic
ca pacidad
I B
O P
v enta
Ġel lo
ĠI C
Ġevas iÃ³n
Ġnego ci
Ġemerg encia
di Ã³
Ġevi tar
Ġho gar
l er
Ġafir ma
ici dad
Ġmej ores
il ar
on s
Ġo cur
dos e
Ġgas tos
ID AD
ri g
ti mos
Ġmis mos
Ġpregun ta
re o
onal es
ri b
Ġcas a
Ġpro ducciÃ³n
ĠE x
ig n
ĠDe fens
di cional
Ġdis p
Ġvolun tad
Ġsac ar
Ġg rupo
cion ar
Ġar gu
Ġoblig aciÃ³n
ol a
Ġdis c
Ġcos to
U ES
Ġv ÃŃa
Ġser Ã¡
Ġlabor al
AC TA
Ġf on
Ġp el
Ġcor rupciÃ³n
Ġcondi ciÃ³n
Ġconstru ir
S in
Ġh er
Ġcon ta
bi er
Ġimpul s
Ġh oras
Ġi ba
Ġexis ten
ons eca
Ġdes con
Ġmon to
Ġal guien
Ġel la
Ġ1 7
ĠT rib
Ġestabl ecer
ĠC orte
N os
Ġten gamos
Ġhis tÃ³
ĠDefens orÃŃa
vi amente
e p
p ro
fici encia
Ġciudad anos
Ġpes ca
Ġproces os
Ġel em
ma do
ĠdiÃ¡ logo
ĠmuchÃŃs imo
ĠÃ³r gan
im on
Ġsol id
Ã± os
ĠM ora
Ġcen tros
Ġc err
Ġex ig
tic amente
Ġcri terios
Ġparticip aciÃ³n
T ER
Ġenf ren
ci pios
Ġg obierno
U N
Ġno ti
ien tes
Ġhac emos
olog ÃŃa
h an
olu ciÃ³n
u ro
Ġsu m
Ġhum ano
Ġre ca
Ġas es
si to
Ġg obiern
Ġclar a
Ġrec ordar
Ġre da
Ġtr am
Ġprin cipios
Ġbr in
Ġutil iz
ĠS US
Ġca paci
Ġfon dos
Ġo cas
Ġconc l
Ġtas as
ĠReg lamento
ĠL os
e x
Ġto m
Ġman o
Ġhici eron
ien cia
Ġdefin i
tar se
Ġ2 5
Ġb re
Ġv in
ĠD ios
Ġpre v
Ġpreocup a
Ġf el
Ġle gislativa
1 0
Ġ2 3
ĠInter nacional
Ġp uer
Ġesta ban
Ġsab en
cis o
Ġrevis ar
ĠV al
Ġcon ocer
Ġha ga
Ġsolu ciÃ³n
Ġol vi
Inter venciÃ³n
Ġconc re
Ġorgan iz
Ġ3 0
Ġfor m
Ġmedi da
ĠEcon Ã³m
Ġd an
Ġtu vi
d ica
ente mente
Ġdi gn
Ġquin ientos
ĠSal ud
9 5
Ġmes a
M P
Ġpresupues tos
Ġmom entos
3 4
d arios
uen tes
Ġposi ciÃ³n
Ġsen cil
Ġan Ã¡lisis
Ġnecesi tamos
Ġr Ã¡
per aciÃ³n
ĠORDIN ARIA
T E
in an
ĠEn tonces
m entos
Ġresponsa ble
ĠUn ivers
Ġelec tor
Ġaproba do
ac en
Ġay udar
Ġv iendo
Ġcre cimiento
U P
Ġdi gamos
ĠdifÃŃ cil
ĠM a
Ġmode lo
Ġi leg
qu il
tr Ã¡s
Ġcon oc
Ġres pon
ĠS er
ern Ã¡n
ĠF onseca
tar on
ĠCh ac
ti cos
ĠÃºn icamente
Ġconfi anza
un al
Ġm ÃŃn
Ġha br
Es o
L E
ĠChac Ã³n
i bilidad
Ġbuen os
ĠU N
Ġhu bo
fici t
Ġdef ens
Ġgobiern os
I Z
Ġdo cu
Ġprof esi
ĠdÃ© ficit
Ġ âĢ
Ġm ensa
Ġquin ce
ĠOC DE
tr um
ĠseÃ±al ar
Ġtu vo
ĠbÃ¡s ica
ernÃ¡n dez
OR DIN
Ġno venta
e ga
v ez
di ciÃ³n
Ġal to
Ġfor tale
Ġa ta
ter na
Ġo jalÃ¡
Ġob ra
Ġpreten de
cu ra
ĠEX TRA
6 3
e o
im Ã©n
ĠB uen
Ġna tural
imÃ©n ez
ici o
Ġdem an
Ġcon ci
Ġ2 9
Ġpres ente
Ġraz ones
ĠEXTRA ORDIN
g Ã³
gun da
ĠJ imÃ©nez
Ġdecir le
Ġtiemp os
ĠCar ta
Ġafec ta
t Ã¡
ĠM E
Ġ20 0
Ġcambi os
I L
Ġrefle x
Ġdi rig
la dos
Ã¡l ter
Ġerr or
Ġc arr
ĠW Ã¡lter
L os
iv il
Ġextra ordinario
Ġleg al
Ġde ja
Ġcon tar
Ġcon j
Ġr enta
C ompaÃ±
Ġcl aridad
Ġtra er
Ġau to
Ġviv ienda
Ġmen or
rim in
Ġcon oci
Ġre pi
Ġc ara
Ã© ramos
Ġmu er
b ern
Ġo bras
Ġmagistra dos
g i
Ġp ido
Ġbenefici o
A quÃŃ
Ġins trum
o z
Ġen vi
Ġconsid era
r is
Ġl uego
Ġcon ocimiento
Ġas egu
Ġinter no
Ġgran de
Ġpens ar
Ġmunicipal idades
Ġre ducciÃ³n
CI A
ĠUnivers idad
Ġo f
Ġesp ero
ĠARTÃįCUL O
b al
er ic
Ġtur ismo
ĠC OS
resid ente
Ġaplic ar
Ġintegr al
Ġproteg er
Ġcom a
Ġreg la
ĠespecÃŃ fic
oc ar
Ġimp le
Ġdecir les
Ġrequ isi
Ġgol pe
m bre
for ma
Ġrefor mas
Ġas um
Buen as
1 4
Ġpro puestas
Ġvo z
acen darios
Ġcan t
Ġdemoc rÃ¡
t ÃŃs
arrol lo
d ro
Ġcons ens
Ġag re
ĠSu pre
Ġh on
Ġcu r
ib uy
Ġmi em
Ġnom bre
Ġpel ig
Ġen or
Ġ202 2
ĠAs untos
Ãĵ M
tra do
ĠA P
ĠH acendarios
Ġsab e
1 7
e la
Ġen fer
Ġtar de
Ġaspec tos
Ġf Ã¡
ĠE CON
Ġutil izar
ĠSer vici
ĠL o
Ġsigu en
Ġ2 4
Ġhubi era
Ġsu ce
Ġirres ponsa
ĠIC E
ĠECON ÃĵM
en emos
ci do
Ġmo v
H a
P ara
Ġquer ÃŃa
ĠtÃ©cn ica
5 9
ta mo
Ġap ar
ber to
ĠLA S
stitu cional
ĠseÃ± ala
Ġcre ar
A TI
Ġhom bres
Ġen trar
Ġb ar
Ġsu ficiente
Ġrec orte
Ġplante a
Ġcontr ario
Ġescuch ar
Ġcul tura
B RE
v es
Ġi ma
Ġman os
Ġde v
Ġ tÃŃ
Ġcom en
Ġdifer encia
Ġpodr ÃŃan
Ġop osiciÃ³n
Ġres to
Ġj erar
Ġcam ino
d on
Ġse x
Ġha go
Ġmedi ante
Ġejecu ciÃ³n
h i
l i
Ġpriv ado
Ġcontin uar
ÃŃ g
Ġtras la
Ġsigu iente
Ġin vi
Ġlle va
ĠDes arrollo
ĠtÃ©rmin os
Ġl ÃŃ
Ġman tener
Ġnuev os
ĠSegu ridad
v ieron
Ġp untos
8 6
Ã©n do
Ġac ciÃ³n
de va
ap deva
Ġle van
Ġnecesi tan
Ġc ero
ca dos
Ġnuev as
Ġhabi tantes
ech a
i al
Ġnor mas
usti cia
2 2
Ġl len
Ġcan asta
Ġmane jo
ĠÃºlti mo
Ġlegislatura Diputado
r Ã©s
ĠH a
ab or
Ġcambi ar
Ġcen tro
Ġtrabaj ando
Ġex on
Ġambi ental
C omo
ĠUn idad
ch ez
Ġsum amente
tu lo
Ġvo tos
Ġap lica
Ġne ga
Ġaprob Ã³
Ġaum ento
Ġcon vers
d ecer
Ġpa z
Ġaprovech ar
ĠmÃ© d
imon io
M I
in e
Ġdesarrol lar
ec ciÃ³n
Ġinc re
Ġab or
Ġag ricul
Ġcons ec
Ġcor ri
Ġpermi ta
Ġm or
dez co
pe l
Ġdiscu tiendo
I CI
br ar
Ġcomprom e
Ġinternacional es
ĠCarta go
e tario
Ġgener aciÃ³n
v ia
tar ÃŃa
3 8
ĠH ernÃ¡ndez
hi bi
f as
tu al
Ġpas Ã³
D es
gu l
du rÃŃa
Ġdi e
Ġtran si
G IS
Ġes truc
Ġins is
Ġequ iv
UP UES
D EN
op era
ĠPRES UPUES
f a
ter as
ĠEs to
Ġcor reg
Ġa jus
ta les
ĠC o
Ġg o
Ġve o
Ġrecibi r
Ġdistr ibu
Ġde pen
Ġo tor
Ġtrans fer
dic am
ĠÃºn ica
Ġin ciso
ĠPÃºbl ico
A l
Ġextra ordinarias
ari amente
. .
Ġtal vez
Ġdesi gual
Ġsitu aciones
Ġrecom enda
ĠTrib unal
Ġel las
Ġresulta dos
Ġempez ar
ACION AL
D O
Ġv isiÃ³n
us tr
Ġtres cientos
Ġefec tos
Ġinstitucional idad
ĠfÃ¡ cil
Ġal cal
Ġ2 8
Ġas ign
Ġespecial mente
ĠcampaÃ± a
Ġllam ar
Ġnacional es
R O
Ġcom ba
Ġme dicam
Ġdec reto
h ora
tor ios
Ġac er
Ġtra tar
Ġlle ga
Ġproduc tos
Ġa bier
Ġhuel ga
Ġllam a
ci entas
Ã¡n chez
Ġfun ciones
Ġg rup
Ġrecon ocimiento
Ġcon cep
ten cias
ĠS Ã¡nchez
ĠREFORM A
j es
z ado
Ġau ton
Ġdenun cia
Ġque de
Ġf ac
Ġco in
Ġdoc e
ĠprÃ©s tamo
Ġcar go
Ġrecon oci
Ġag r
Ġurg ente
Ġgrup os
C O
ta ble
ÃŃ ri
om p
Ġdi je
Ġten iendo
me dia
Ġve an
ÃŃri tu
Ġv ir
Ġin dic
Ġcom isiones
Ġban ca
u das
Ġf a
Ġe dad
Ġv ia
Ġres ul
Ġrecurs o
Ã ¼
cu lo
Ġcol eg
ĠREFORM AS
Ġin cu
Ġor ig
Ġpr ue
am eric
Ġesfuer zos
Ġhi jos
ĠTra bajo
ĠV ÃŃ
Ġmensa je
ĠP OR
ĠPR O
Ġma teri
Ġca p
Ġab an
Ġviv iendo
Ġcomun idad
ĠAr tÃŃcu
Ġrefer encia
ĠC OM
Ġper man
Ġlamenta blemente
5 6
Ġa tra
Ġob viamente
er do
cu los
Ġvol ver
Ġca pital
Ġacuer dos
Ġin media
Ġdi recciÃ³n
c enta
ĠP er
Ġcons ecu
Ġsan i
il la
Ġman ten
Ġpor centa
ici ones
Ġesper ando
ĠprÃ¡c ticamente
m entar
Ġe mi
tan cia
Ġabr ir
M artes
Ġal terna
ĠMon etario
Ġre to
ĠPa tr
ĠOR DEN
di os
uen cias
S ÃŃ
Ġh os
Ġfinanci ar
lam en
ur aciÃ³n
Ġre ducir
Ġal im
Ġ2 6
Ġres uel
om in
Ġesp ÃŃritu
Ġcen tral
Ġmedicam entos
ÃŃs imas
ce l
Ġaplic aciÃ³n
ta da
ĠV il
tur ales
Ġar mas
Ġconte xto
ter o
I O
J ueves
L unes
Ġcon ver
ĠC or
ĠA cu
Ġcos tos
ĠMun icipal
Ġhogar es
Ġs ens
Ġf aci
Ġex cep
Ġprogram a
ĠA n
Ġcier tamente
Ġpriv ada
Ġprincip almente
leg as
Ġagra decer
ĠVil legas
Ġcompe tencia
g Ã¼
ĠH er
Ġinc en
Ġac ep
Ġorganiz aciones
b as
m er
ĠjurÃŃd ica
Ġactu almente
m or
z ando
Ġfi gu
Ġtas a
1 2
Ġprop Ã³
rÃ©s ti
Ġpon e
Ġcar re
Ġcorreg ir
an cia
Ġi den
Ġdis capacidad
Ġaclar ar
aci on
Ġpodr ÃŃamos
is os
Ġpro hibi
ĠC u
Ġincon stitucional
il las
se jo
Ġtar ea
ol io
Ġlegisla dores
Ġavan ce
ĠQ UE
Ġemp rÃ©sti
Ġdistin tas
ĠPe dro
ĠtÃ©cn icos
Ġide a
3 3
M inis
ĠE J
Ġten ÃŃan
CI O
Ġau di
Ġco opera
ĠLE GIS
Ġcerr ar
ĠLEGIS L
Ġe ficiencia
Ġar reg
Ġ eran
ĠCon sejo
Ġmecan ismo
cura durÃŃa
Ġa mi
ĠP res
Ġpre cios
Ġas oci
Ġop era
i dar
Ġren un
Ġper dÃ³n
Ġag ro
ĠPro curadurÃŃa
Ġ tes
Ġen erg
Ġest Ã©n
ĠT RA
ĠEl ec
Ġa v
Ġcon tenido
Ġcre emos
ĠCon greso
Ġfel ici
8 4
Ġampl i
er ÃŃa
Ġcon vo
Ġbas tante
Ġmiem bros
7 4
i la
Ġhabi do
Ġreda cciÃ³n
Ġsu ma
Cu ando
L as
Ġrev isiÃ³n
Ġa do
Ġre des
ga dos
ĠF inan
Ġcuesti on
l u
ĠS esiÃ³n
Ġfin almente
tin a
Ġinver tir
Ġcumpl imiento
Ġban cos
ĠtÃ©cn ico
Ã¡n dose
ĠIn stitu
Ġimp lica
ĠEs te
ĠâĢ ľ
Ġrepi to
Ġfamil iar
Ġay uda
Ġespaci os
Ġauton omÃŃa
Ġhab ÃŃan
Ġsegu imos
Ġquer ido
ĠprÃ¡c tica
ĠdaÃ± o
Ġimp osi
Ġap r
Ġhabl ado
Ġmen ores
Ġt ari
Ġcontr ibuy
Ġambi ente
Ġ tor
Ġdes p
Ġdes ta
Ġequi po
en de
ĠD er
Ġhech os
ĠLEGISL ATI
Ġa us
Ġreferir me
Ġpresen tÃ³
is p
ĠM i
Ġsus titu
Ġcan dida
mÃ¡ tica
re de
ĠartÃŃcu los
Ġcomer cial
Ġherramien tas
ĠP IB
Ġap ren
Ġmo der
Ġcor to
m un
ar co
Ġre ctor
Ġg u
ĠR ICA
ada mente
Ġsolu ciones
Ġbienes tar
Ġconci encia
Ġdi vers
Ġconj unto
Q ue
ĠCOS TA
E M
tar le
ĠD ÃŃa
d res
Ġse c
Ãº Ã±
Ġdis pon
ĠJ unta
AR R
Ġfinanci era
Ġvulnera bles
gu almente
ĠDE S
Ġri que
Ġs oy
Ġ3 1
3 0
a ba
c ando
Ġa dicional
di mos
ce der
Ġprincip al
Ġevi dente
Ġnegoci aciÃ³n
ĠInstitu to
ĠDer ech
Ġpo dido
u almente
Ġreg i
Ġmecan ismos
iver si
Ġprop io
Ġev al
Ġanal izar
Ġdi ga
ĠI VA
Ġdu das
P OR
Ġes encial
Ġse gunda
ĠniÃ± as
Ġcant ones
g l
as e
Ġenfren tar
ci Ã³
ue la
ĠH ay
Ġad qu
ĠLa ura
Ġenor me
c Ã©
Ġe ficiente
el as
Ġnor m
Ġapr ue
Ġpro ba
Ġagra dezco
Ġequ il
ĠECONÃĵM ICO
Ġgo bern
ĠÃ¡re as
ĠF IN
Ġl ista
da do
Ġaquel las
e Ã±o
ci to
Ġj udicial
Ġplante ado
ĠPa ola
ĠC ol
Ġpo pu
Ġop in
Ġregu la
Ġres oluciÃ³n
Ġmun dial
ĠprÃ¡c ticas
Ġincu mpl
Ã¡ m
gu ar
U R
s te
Ġingres o
esta uraciÃ³n
r iendo
Ġac to
Ġreg lamento
Ġliber tad
Ġven gan
Ã± as
Ġcre aciÃ³n
Ġprom e
Ġelim inar
ER CI
Ġpens iÃ³n
Ġde tal
ci endo
Ġdi rector
Ã¡r ra
Ġelem entos
d ando
Ġven ga
er ra
Ġ201 7
Ã©r ica
Ġfuer te
IZ ACIÃĵN
Ġconsec uencias
Ġle er
ĠJ apdeva
Ġigual dad
Ġobje tivos
Ġtrabaja doras
Ġterri torio
y endo
Ġexper iencia
Ã ĳ
Ġ ÃŃn
tel ig
ĠT e
Ġcontra tos
Ġcorrec ta
ti ene
to col
Ġva ya
Ġli qui
Ġsa tis
Ġ Ġ
er amente
Ġpobl aciones
Ġno ta
ĠE S
ĠV ega
Ġf echa
Ġcir cun
ris ti
i on
Ġsu r
ĠPÃºbl icas
ĠlÃ³g ica
Ġinicia tivas
Ġestra teg
ĠPres upues
Ġhabl amos
Ġfinanci ero
ĠCON S
7 5
U n
i leg
Ġl ic
Ġin teg
ĠA g
ĠV i
Ġinver siones
Ġtribu taria
A demÃ¡s
d entes
Ġeste mos
Ġpoder es
ĠJ usticia
Ġs or
ĠL as
ĠIN S
Ġfundamenta les
Ġrequ er
Ã³ s
ĠhistÃ³ r
C reo
Ġa trÃ¡s
Ġal rede
Ġr ur
ĠpropÃ³ sito
Ġsi r
uev e
Ġpriv ileg
Ġm Ã¡
ÃŃ do
ari al
Ġme ter
Ġun as
Ġre d
Ġve hÃŃ
Ġregu lar
Ã© c
Ġal e
ĠJ u
ĠCas tro
b en
Ġrequier en
ĠEJ ERCI
Ġprop ia
Ġres pal
Ġci f
Ġelec tr
ĠP lan
Ġencuen tra
Ġinterpre taciÃ³n
tal ina
Ġli bre
Ġcircun s
ien e
Ġsi len
Much ÃŃsimas
Ġdifer ente
Ġl ec
Ġinfor m
teri ores
l amente
ern os
Ġco ordin
Ġba jar
R e
T OS
Ġde r
Ã¡ fico
Ġper m
âĢ Ŀ
Ġdirec tamente
Ġha gan
Ġconf lic
C Ã³mo
Ġma tr
Ġrecor tes
Es a
Es tamos
V EN
Ã³ l
ti z
ĠEs ta
EN CIA
man as
Ġsuper ior
ĠN ic
Ġen car
tan cias
ĠCa talina
Ġneces aria
Ġlog rado
Ġdisc rimin
Ġd ol
Ġser io
Ġenfer me
Ġ X
Ġdef ensa
ĠprÃ³x imos
ĠBuen o
ĠEXTRAORDIN ARIO
ĠPRESUPUES TO
5 2
ĠN ACIONAL
ida do
Ġind ÃŃg
ĠEJERCI CIO
ra dos
Ġpla zas
Ġcr ÃŃti
Ġval ores
ĠDi recciÃ³n
Ġalrede dor
ĠR ic
Ġpi diendo
u do
Ġefec to
cin co
Ġg ana
Ġinter ven
fici entes
Ġpues tos
ĠcrÃ©di tos
SeÃ± or
m idad
ti eron
gu en
ĠF or
Ġdar les
Ġpron to
Ġ19 9
Ġima g
Ġporcenta je
ĠRic ardo
Ġcol ec
Ġcer ca
Ġmencion ar
j an
Ġre le
ĠP ren
ĠM AR
Ġap orte
Ġpromo ver
h er
Ġlo cales
Ġex ten
Ġemp ren
Ġaproba mos
ĠPren das
Ġimpor ta
Ġpe or
ĠSE G
ĠcuÃ¡n to
Ġp Ã©r
ch e
Ġcontra to
Ġin a
ĠT er
Ġende uda
Ġde udas
al o
Ġdeber ÃŃamos
ĠseÃ±al ado
Ġrequisi tos
M iÃ©rcoles
Y a
qu es
qu en
ĠR estauraciÃ³n
ĠZ o
Ġenti dades
S O
Ġgener aciones
tr Ã³
Ġpro v
ĠZo ila
re mos
fic aciones
Ġex tre
Ġtermin ar
x ima
tra mos
Ġpo qui
Ġsu cedi
Ġjus tamente
ĠprÃ©s tamos
Ã© m
mp la
Ġsi m
ens e
ĠEs tados
Ġgener ando
Ġeduca tivos
Ġindepen diente
ier e
Ġva y
Ġad ver
jer on
Ġreg iÃ³n
Ġcontin u
Ġrique za
Ġtuvi mos
ti dos
ĠA U
Ġpas ada
Ġcar ta
Ġfr on
Ã¡ndo le
Ġdicta min
A hora
Ġpar tes
Ġdes e
Ġpro tocol
ĠB ena
bar ca
Ġnorma tiva
ĠBena vi
0 8
do l
Ġactu ar
Ġestableci do
s on
ĠA barca
ri que
ac ter
ĠPa blo
Ġa gu
in al
oc e
Ġj ue
EN S
Ġposibilidad es
ĠÃ³rgan o
ĠBenavi des
Ġins u
Ġinfor mes
ĠGu ido
Ġnatural eza
Ġsatis f
Ġ Qu
ĠCas a
Ġelector al
i bles
Ġb ol
Ġcoin ci
6 5
tu almente
ĠprÃ³x imo
Ġsencil lamente
Ġemp i
Ġcar acter
Ġmun ici
Ġelec ciÃ³n
Ġfir ma
ĠQ ue
titu d
Ġdich a
ĠPresid encial
ĠP ÃļBL
se Ã±
Ġpresupues taria
Ġbenefici os
ĠmÃŃn imo
ĠArtÃŃcu lo
ĠLEGISLATI VA
Ġen ci
am o
Ġhici mos
ĠrÃ¡ pi
Ġdecir lo
Ġestar ÃŃa
Ġind ustr
Ġse manas
Ġlabor ales
Ġveinti cinco
CompaÃ± eros
9 2
Ġp Ã¡rra
Ġor gul
ĠRo berto
Ġseis cientos
Ġnego cios
Ġfaci l
p es
Ġper j
ĠS il
Ġfor maciÃ³n
Ġpresupues tario
ill er
Ġevi dencia
CI AL
Ġlle gÃ³
U na
Ġes c
Ġen tiendo
Ġdi gi
Ġdigi tal
Ġo per
ch eco
Ġpo dÃŃa
Ġescu elas
ĠPa checo
Ġescuch ado
Ġreactiv ar
Ġaum entar
ĠjurÃŃd ico
u la
u lar
Ġi l
Ġmagistra do
Ġcorri ente
Ġc ora
ĠV olio
Ġmej ora
h a
p ecu
Ġun iversi
is cal
ĠM an
Ġverdad eramente
Ġsilen cio
Ġn arco
ra da
Ġdi eci
Ġpon iendo
ĠPor que
Ġexplic ar
Ġpens ando
ĠtrÃ¡mi tes
c esi
v on
ĠRe forma
Ġproduc tores
Ġdeber ÃŃan
Ġplante ar
ĠDi rector
es e
or ales
ti ma
ĠÃ¡ mbi
o ca
tr Ã¡fico
Ġcom Ãºn
Ġva c
Ġeduca tivo
Ġinici o
Ġdicta men
Ġsosten ibilidad
Nos otros
Ġdefini tivamente
ĠVÃŃ ctor
z Ã³n
Ġque dan
Ġes cri
ĠT ran
Ġcuatro cientos
ĠUn idos
Ġfigu ra
L e
r ente
Ġac tos
Ġresponsa bles
Ġmu es
til lo
Ġcul pa
ica do
Ãį A
Ġdoc tor
Ġtoma do
iller mo
ic en
Ġincl u
Ġincl usiv
7 7
I M
b ol
ĠS in
3 36
Ġm ala
ier an
Ġcre a
ĠIn tegr
ĠGu illermo
Ġabor to
von ne
Ġpo cos
Ġpa gando
Ġcontra dic
r enta
ta tiva
Ġe t
iz ando
si ete
Ġtur ÃŃs
an as
Ġman da
Ġprocedi mientos
Ġpatr ia
Ġdefens ora
T o
Ġdi ay
Ġtrans porte
6 0
e do
Ġfor mas
Ġsa bi
ĠME P
Ġe di
Ġper fec
du ce
ĠT Ã©cn
Ġmis mas
Ġafec tar
Ġafec taciÃ³n
Ġreca uda
Ġp ien
bi r
uev a
Ġviv en
Ġexon er
Ġque dÃ³
ÃŃ c
ĠA quÃŃ
U C
f i
p as
Ã¡ g
Ġres er
Ġca bo
resid enta
ĠÃºlti ma
Des de
Ġresul tado
Ġrespe tu
ĠbÃ¡s icamente
Ġenci ma
Ġincl uir
Ġprior idad
ĠSil via
i ficar
ÃŃ col
di eron
Ġneces arias
Ġsiste mas
Ġoblig aciones
ti fica
Ġdi v
Ġsi ga
ĠR amos
Ġdes pa
Ġposi tivo
Ġter ren
TI TU
Ġinten ciÃ³n
Ġexcl usiv
ĠCru z
Ġadul tos
Ġdisp osiciÃ³n
Ġdocu mento
s en
Ġpar eci
Ġf ran
Ġpre cio
ĠI vonne
Ġsolici tud
ĠMon ge
pon er
Ġproduc tivo
ĠÃ¡re a
Ġopin iÃ³n
D A
T enemos
t ente
an i
ĠC al
ran tes
Ġobs erv
Ġclas e
Ġpo bres
Ġcompe ti
g er
Ġcu idado
ĠeconÃ³m icos
Ġconsu mo
Ġviv ir
Ġconsul tas
ĠM O
Ġmi edo
Ġconc en
Ġresponsabilidad es
Ġelim in
Ġe uro
Ġin e
ĠFIN AN
Ġp un
Ġimp lic
Ġmodi ficar
Ġileg al
ĠF ern
Ġlu jo
ĠRE G
Ġorgan izaciÃ³n
Ġesper anza
on g
Ġrel acion
Ġv ÃŃc
Ġper io
bil i
Ġviv e
Ġconstitu y
ĠDirector io
ĠFern ando
am Ã¡
cÃ© tera
Ġe ven
Ġb ru
Ġres tric
Ġsegu imiento
Ġdeman da
ĠM as
Ġampl iar
Ġpoqui to
Ġet cÃ©tera
c era
Ġal ta
ĠA m
Ġtecn ologÃŃa
Ġdesigual dad
Ġf ÃŃs
Ġre par
ona t
dol fo
ĠR am
ĠM uch
Ġpos terior
Ġcorrec to
onat han
Ġin tro
Ġpers pec
Ġlegislatura Diputada
Ã©c tr
Ġ K
ĠE ric
ĠJ onathan
Ġneces arios
ĠServici os
os amente
Ġha gamos
Ġdi eron
ĠT h
Ġmer ece
Ġdistin tos
7 1
Ġcon tes
Ġlo cal
Ġsor p
) ,
g re
p ara
DI CIÃĵN
Ġtrans for
AD O
Ġdiscrimin aciÃ³n
Ġautor izaciÃ³n
ĠDi rec
Ġimpuls ar
Ġcom illas
iz ada
ĠAs ÃŃ
Ġfis cales
Es e
Ġrec lam
ĠmuchÃŃs imos
Ġasum ir
ĠP ER
Ġus ar
cio cho
ĠRo dolfo
LE O
Ġcomba tir
ĠEric k
Ġ on
Ġs iento
ĠE MP
Ġsu je
Ġprofesi onales
Ġagricul tores
2 1
a gn
Ġre cha
ĠO t
ĠNi Ã±o
Ġpar lamen
Ġac ta
ri do
ĠLe Ã³n
Ġsus tan
ĠTe atro
L O
Ġex tran
olu c
Ġincluy e
Ġendeuda miento
1 28
Ġc ivil
ĠA mpl
Ġte mp
em inis
ĠÃ© tica
ĠMas ÃŃs
M A
Ġan teriores
Ġinv oluc
Ġrepresen tantes
Ġdismin u
p ales
da ciÃ³n
Ġestu vi
p era
v ir
Ġcom b
tu ales
pues tos
Ġocas iones
Ġasoci aciones
H emos
er es
te mos
Ġte le
for mas
Ġinici ar
Ġemple os
A J
g el
Ġin ci
Ġal tos
Ġpa pel
Ġcontra taciÃ³n
Ġcol oc
Ġenf renta
Ġdebi do
Ġhabr ÃŃa
Ġeval u
ĠpÃ¡rra fo
Ġen g
Ġpres entes
Ġfuncion amiento
ĠnÃºm eros
Ġnombr amiento
ĠSupre mo
Ġsex ual
Ġn aci
enta les
Ġclar os
Ġdenun cias
Ġ Â°
ĠEx tra
in os
Ã© is
Ġparticular mente
Ġfortale cimiento
o ur
ic k
Ġg uar
Ġjun tas
Ġlugar es
Ġofici al
Ġpen al
ĠlÃŃ mi
Ġdie ciocho
risti ana
Ġen tr
ĠA C
ĠG on
ĠG racias
ĠF iscal
Ġli dera
Ġmer cados
omp son
ĠAcu Ã±a
Ġcoopera tivas
ĠPÃļBL ICO
ĠTh ompson
bi tantes
Ġpo tes
Ġcomp ra
ĠH oy
men a
Ġaca ba
Ġindepen dencia
BL E
Ġregu laciÃ³n
Ġbre ve
Ġpa ga
Ġser vi
Ġconcep to
ĠDerech os
Ġp ena
Ġes cen
ta das
el mer
u de
ĠP rim
ĠE du
cia do
ĠF ran
Ġaprob ando
ĠCen tro
Ġnombr amientos
b os
i t
ĠM A
ĠM orales
Ġcompr ar
Ġpregun to
Ġerr ores
Ġcora zÃ³n
Ġcu a
Ġb en
Ġj unto
Ġsal e
ĠH um
Ġnego cio
Ġpron un
Ġestrateg ia
ĠAU TOR
i ado
s han
Ġv enta
cu la
Ġcier re
Ġlu z
Ġfuer za
ĠCON TRA
ĠW elmer
Ġdiscurs os
ĠPatr icia
n as
ĠE r
Ãº s
Ġcontribu ir
Ġinstrum ento
ĠElec ciones
e dades
di das
ĠN os
Ġimp on
Ġas u
Ġcal le
Ġalcan zar
shan k
Ġelec ciones
Ġpeque Ã±os
Ġcu er
Ġjerar cas
Ġa mena
Ġcon tun
tor ce
ver dad
Ġmuer te
Ġproba blemente
ĠGon z
ĠE m
ĠR osa
ri as
Ġve h
ab an
Ġam or
Ġconsens o
ick shank
e as
Ġg Ã©n
ĠA DICIÃĵN
Ġtran quil
Ġreun iÃ³n
Ġconsecu encia
le z
ĠA u
ĠV I
Ġpermi tan
Ġir re
Ġ bl
Ġhay an
ĠY a
Ġcarr era
z ong
ti en
re a
Ġre el
Ġper der
Ġaban d
our zong
ĠM o
Ġdis f
les c
Ġestu vo
Ġtransi torio
ĠMan uel
ÃŃs ticas
Ġtendr Ã¡
Ġf il
am a
ĠindÃŃg enas
h o
in as
Ġlle gado
Ġm ig
Ġcon duc
Ġi ban
Ġconsu mi
Ġreflex iÃ³n
Ġdol or
F ORM
Ġex ac
ĠS O
Ġposible mente
Ġtom ando
Ġnarco trÃ¡fico
Ġperspec tiva
Ġse te
Ġpon en
Ġargu mentos
e ta
g ra
z go
Ġp aci
Ġp us
Ġsu mar
fici o
Ġco vid
2 4
9 4
Ġd ue
ĠA S
Ġpo ten
dre mos
Ġp Ã¡g
Ġten ÃŃamos
ga da
Ġanterior mente
Ġafirma tivo
EM BRE
ol i
ĠD a
Ġcor r
Ġestar ÃŃamos
Ġcompe tencias
Ġhom bre
Ġencuen tran
Ġprofun di
Ġjef es
Ġequil i
B I
R I
z an
Ġb o
ba ja
Ġca torce
Ġmill Ã³n
Ġdirec ta
Ġespera mos
Ġcu ido
Ġciudad ano
Ġes tructura
ĠC O
Ġmen tir
Ġlegisla dor
men es
Ġfir m
ĠHa bitantes
Ġrecomenda ciones
Ġa tras
Ġimportan tÃŃs
Ġdistribu ciÃ³n
Ġpar e
Ġpu do
Ġconv ier
Ġrel aciones
Ġvig il
ARR OL
ĠDES ARROL
y o
Ġe ta
Ġto ca
Ġadqu ir
v is
Ġf uentes
Ġre gis
ĠmuchÃŃs imas
Ġpropi edad
oz co
ĠEs e
tÃŃ as
dar es
Ġpriv adas
tel ler
ĠMunicipal idad
ĠMAR CO
ĠEMP LEO
Ġde dic
ta des
Ġdi jeron
Ġplan ificaciÃ³n
ĠÃ³rgan os
1 1
Ġma dre
Ġesti ma
Ġen seÃ±
Ġac tas
Ġenerg ÃŃa
ĠDESARROL LO
F ICA
ec on
Ġesta bilidad
Ġex por
ĠEs a
menta ciÃ³n
M i
r ir
Ġ Âº
Ġmodi ficaciÃ³n
Ġmoder n
ĠIntegr aciÃ³n
G O
Ġcon den
cu atro
Ġtu vieron
ĠdÃ© ca
Ġpi e
Ġprofesi onal
u ales
Ġ om
Ġ bil
ĠA mbi
ĠA rias
me tros
1 04
Ġre mun
Ġap enas
gÃ¼ en
w en
Ġde por
Ã¡ lez
ĠF rente
Ġcas as
Ġpriv ados
Ġnivel es
ĠEconÃ³m ico
Minis tro
Ġrecauda ciÃ³n
b ando
Ġdi fic
Ġg lo
Ġcu en
Ġvo tado
Ġfuncion ario
ĠARTÃįCUL OS
Ġsolid aridad
ĠGonz Ã¡lez
G RA
esi on
Ġries gos
Ġcien tÃŃ
Ġclas es
l ando
Ġvo tando
Ġapro xima
Ġdej Ã³
Ġconven io
Ġjus to
Ġlim i
Ġpelig ro
Ġdespa cho
ĠEr wen
ĠgÃ©n ero
f e
Ġpa dres
ĠM uy
Ġvay an
Ġde p
Ġel Ã©ctr
Ġre co
Ġsen tencia
Ġviv imos
Ġlamenta ble
ĠemprÃ©sti to
ĠvehÃŃ culos
p ido
Ġres ta
br io
Ġide as
Ġtransfer encias
or len
Ġse l
tu los
Ġcre di
Ġmon tÃ³n
Ġtras cen
Ġesper ar
Ġdem ues
Ġhu eco
IN IS
Ġdefin ir
olÃ³g ico
Ġ3 2
Ġraz ona
Ġpeque Ã±as
ĠMar ch
i ti
Ġdeb o
Ã¡n d
Ġprincip ales
ice p
Ġincluy endo
Ġrur ales
ĠP an
ĠH os
Ġlle gue
Ġocho cientos
Ġcele bro
Ġahor ro
Ġmunici pales
ĠDirec tiva
il es
Ġcons ol
Ġsus cri
Ġor ien
Ġpreocup ante
Ġenf o
Ġaproba da
Ġadministra tiva
ĠPresupues to
ol ina
ĠP i
ĠestÃ¡ bamos
Ġref iere
Ġrepresenta ciÃ³n
Ġsosten ible
Ġmov il
ĠRam Ã³n
ĠquiÃ©n es
Ġencon tramos
b onos
i onar
Ġpro por
Ġex ter
Ġres guar
Ġejer cer
Ġrecor tar
Ġpropi os
ĠAmpl io
ĠEdu ardo
c ante
ec ÃŃa
Ġcas ualmente
Ġab us
Ã¡c ter
tale cimiento
g ÃŃa
im ientos
ĠPA N
Ġve ci
Ġfav ora
Ġcomer cio
ti da
tor ias
ĠIn Ã©s
eg io
Ġagr ÃŃcol
Ġon ce
ci tas
Ġs ue
Ġres puestas
Ġdemos trado
ĠCol egio
D AD
Ġel eg
Ġsol a
ĠF E
ĠJ or
Ġejecu tar
Ġurg encia
ĠespecÃŃfic amente
Ġagro pecu
9 0
d ÃŃ
Ã¡ tico
ĠC ristiana
Ġb onos
Ġcas ti
Ġfr ase
Ġgenera do
ĠdemocrÃ¡ tico
ĠHum anos
Ġe ch
pe cial
ĠT ur
Ġdiscu siones
ĠFor talecimiento
la j
Ġb al
ens iÃ³n
Ġno ve
Ġdismin uir
Ġeuro bonos
n es
Ġin j
Ġqui tar
gr esi
Ġu b
ÃºÃ± ez
U ste
ĠE mp
enta do
Ġcam po
Ġterri torios
Ġapor tar
Ġcaus a
Ġmatr imonio
ĠTÃ©cn icos
Ġca b
18 3
gÃ¼en za
6 8
t Ã©g
ĠN ÃºÃ±ez
ir le
Ġas untos
IN TER
Ġbrin dar
Ġtrasla dar
i tario
Ġtra tando
Ġsom e
ĠtÃŃ tulo
Ġv ino
ĠG ourzong
Ġan ti
Ġmar ch
Ġcar Ã¡cter
Ġban c
ĠÃŃn dic
5 4
ĠC ivil
Ġper dido
il los
Ġind isp
VEN CIÃĵN
t h
v aciÃ³n
ro ga
ri Ã³
Ġar ti
ĠCon a
Ã³r um
ĠZ ona
Ġarreg lar
e an
Ġh ar
Ġi gn
ĠN ueva
Ġqui era
Ġcal ifica
Ġfinanci eros
Ġindisp ensa
M AS
d ÃŃan
j ado
Ġel abor
Ġcons ci
Ġreal izado
Ġneces ariamente
Ġemple ados
Ġconver tir
T AL
e Ã±
Ġcu Ã³rum
ĠA na
Ġgan an
Ġconten ciÃ³n
ĠmÃ©d ico
Ġcarre tera
Ġcomb usti
C os
ar lo
Ġre pe
Ġas is
Ġdo ble
ĠniÃ± ez
Ġencon trar
Ġpubl icidad
Ġestra tÃ©g
Ġpr esiÃ³n
ĠC an
Ġexp lo
Ġofici o
Ġdestin o
Ġfa cul
ci na
te c
Ġv ic
Ġdel itos
ens es
iber to
Ġsub si
Ġrecu erdo
7 04
Ġp ier
Ġh or
Ġal eg
Ġdi gan
Ġi do
Ġj or
Ġmedi a
Ġmanif esta
Ġdej ando
ĠPer s
ĠHer iberto
Ġtre ce
ĠCru ickshank
Ġdific ulta
orlen y
A n
Ġ 0
Ġmu lti
Ġgra ves
Ġcu mple
Ġcre er
Ġab o
Ġveinti cuatro
ĠOr gan
ĠhistÃ³ ric
a f
ti ficar
Ġherramien ta
Ġn aciÃ³n
Ġin m
Ġcu o
ĠA G
ĠA laj
Ġca teg
Ġinvesti gar
Ġmencion ado
Ġgus tarÃŃa
Ġtram i
ĠÃ¡mbi to
c om
s as
enta ciÃ³n
Ġhacer le
Ġver gÃ¼enza
ĠpolÃŃtico Diputado
Ġafec tados
Ġpregun tas
Ġnoti cia
FICA CIÃĵN
z ca
ĠN O
ĠS iste
Ġpre par
Ġplen ario
Ġpodr Ã¡
Ġbus cando
Ġinstrum entos
MI ENTO
Ġder iv
ĠJor ge
ac er
Ġrespe tar
Ġcapaci taciÃ³n
Ġrespon der
Ġhon or
ĠQu ir
Ġsi gan
Ġtr iste
Ġexp ec
Ġlog ramos
Ġrecu per
Ġinclusiv e
Ġdisminu ciÃ³n
Ġglo bal
D on
l var
Ġg er
iz ados
ordin arios
Ġan ual
Ġcar ga
Ġor o
Ġcomprom isos
Ġampl ia
ĠÃģ lvar
ĠSupre ma
Ġcoleg ios
Ġreel ecciÃ³n
es a
Ġex pe
Ġcal les
ĠEn rique
Ġparticip ar
Ġtendr ÃŃa
P residente
p ir
ÃŃs imo
ĠS teller
Ġven imos
Ġref iero
Ġsete cientos
Ġd amos
tr ibu
Ġti erra
ĠM el
ĠORDIN ARIO
ĠmÃ¡ x
Ġequili brio
ĠQuir Ã³s
Ġdel ito
Ġb is
Ġprim eros
ĠMu jer
ĠCas cante
Ġlim ita
ĠrÃ¡ pido
Ġi gualmente
Ġfin es
Ġpresenta mos
Ġcontin Ãº
Ġpropon e
Ġprue ba
Ġalterna tivas
Ġal tas
Ġme tas
ĠU P
Ġimposi ble
c Ã³mo
Ġin no
ĠEs pecial
vi du
Ġpla zos
ĠSe Ã±
Ġcif ras
ĠFINAN CI
ĠMuch as
ĠHos pital
ti mas
ÃŃ tulo
le x
Ġimp i
Ġsen tir
el sen
Ġreci entemente
ĠIN TER
Ġdin eros
z ada
in g
den cial
Ġproble mÃ¡tica
Ġverdad era
Ġautor idad
ĠTran s
Ġaproxima damente
ĠMarch ena
e le
Ġper ten
ĠN aciÃ³n
Ġap er
Ġtranspar ente
ĠJu an
Ġ blo
Ġh ice
Ġdes tru
Ġgener an
Ġgaran tÃŃa
Ġenferme dad
ĠUP AD
v ado
en ci
Ġcon ec
pi tales
Ġciudad ana
Ġ9 63
ĠespecÃŃ fico
Ġinvi to
Ġabier to
Ġbil l
ĠPi Ã±a
c Ã³
to do
ĠGu ti
Ġagra de
Ġvig encia
Ġocup a
Ġprue bas
8 8
g Ã¡n
Ġdes cu
Ġindi vidu
ĠmÃ©d icos
.. .
Ġdesta car
Ġcomp lica
Ġespe ci
ĠMon tero
i an
Ġes cas
ĠG Ã³m
ĠT o
Ġter cer
cil ler
ĠGÃ³m ez
N O
Ġto car
ro z
Ã©di to
Ġeduca tiva
Ã©ndo le
ar nos
Ġha mbre
ĠP en
ĠeconÃ³m icas
Ġreg las
Ġban co
Ġadecu ada
Ġnoti cias
ĠAP RO
ĠVi ales
ti m
Ġpa gan
br ir
Ġren o
Ġreiter o
ĠacompaÃ± amiento
Ġher m
Ġpuer tas
ĠG ran
br era
Ġco her
Ġpeque Ã±o
M O
v iendo
Ġ Ãĵ
di dos
ier nes
Ġminis tros
Ġprovin cias
Ġrecibi do
SeÃ± ora
ĠÃģ n
Ġcur ul
ĠAlaj uela
ĠGuti Ã©r
P ar
V O
Ġ k
Ġf amos
Ġpro ce
Ġpro ducir
de pl
Ġimp e
Ġvi al
20 8
Ġminu to
Ġhabr Ã¡
Ġalcal des
ĠAm Ã©rica
ĠMel vin
ĠGutiÃ©r rez
tor ial
Ġinter na
Ġren diciÃ³n
Ġdetermin ar
L es
Ġm ol
la da
Ġpodr Ã¡n
OP T
ĠServici o
T EN
Ã©n dose
Ġres ca
Ġescu ela
Ġinteres a
ĠMO DI
Cos ta
Ġf om
Ġsus ten
par ta
Ġdej ado
Ġtendr Ã¡n
Ġasegu rar
ĠFE ES
depl Ã¡n
Ġ ordinario
Ġre la
Ġo fer
ĠM OPT
Ġparti das
Ġexp residente
ĠCa brera
Ġplan es
ĠhistÃ³r ico
ar Ã³n
ari ales
ĠY orleny
ĠV ar
Ġpermi tido
col ar
Ġaum en
Ġcele br
ĠSE Ãĳ
ĠpÃ©r dida
e dores
Ġm as
Ġb ur
ba do
ac ciÃ³n
Ġquer er
Ġpen dientes
Ġevalu aciÃ³n
ĠPAN I
C L
b el
Ġre tos
Ġap re
Ġprof es
Ġsos tener
Ġsec re
Ã¡ vi
ici os
ĠT ER
Ġven ÃŃa
ĠExtra ordinario
Ġblo que
Y O
ĠA N
Ġb ara
ĠM Ã©
Ġreg iones
Ġcomple to
ĠPen al
Ã¡vi t
N S
Ġde porte
tu des
Ġesta tal
Ġtan tos
Ġqueda do
Ġform al
I ENTO
Ġen ca
ĠE jer
ĠN orte
Ġdes as
Ġcomp ren
Ġhum ana
ĠÃºlti mas
Ġsuper Ã¡vit
Ġeng aÃ±
ĠSEÃĳ OR
in telig
ari l
ĠN om
lo gÃŃa
Ġpre ven
ĠFinan zas
intelig ible
s an
ec emos
Ġparti da
gram a
Ġpu ente
Ġsani taria
Ġbru to
l or
ti g
Ġel e
Ġf ren
ĠA gu
Ġvi tal
Ġempres arios
Ġpreocup aciones
Ġorden amiento
Ġtrabaja dor
Ġabsolu ta
Ġreiter ar
Ġmateri al
Ġliqui daciÃ³n
Ġaband ono
Ġv oc
Ġcre en
ĠIn f
Ġmanif i
ne t
ĠtÃŃ tulos
Ġincumpl imiento
tiz aciÃ³n
ĠAu tor
Ġmanifesta ciones
ĠÃģn gel
7 2
Ġc ens
ic ÃŃa
Ġac ceder
Ġtr ib
Ġdev olver
Ġescen ario
Ġdisf ru
ĠSiste ma
1 5
V oy
r on
am p
ĠD ani
Ġac tores
ĠCru citas
ĠEm erg
ĠEjer cicio
r Ã©dito
en o
ĠA D
Ġcons ta
ĠCon s
ĠCon tra
Ġba ja
Ġimple mentar
i go
r esiÃ³n
Ġesta n
il lo
Ġafirma tivamente
f icia
in ario
Ġse amos
Ġmi tad
Ġpes qu
Ġpatr imonio
Ġof re
ĠAmbi ente
as to
ti zar
di miento
us ta
Ġsal arial
Ġob tener
AM IENTO
Ġexac tamente
c to
im e
ÃŃs tica
Ġus u
Ġlle gan
Ġleg ales
ĠEconÃ³m icos
Ġprome dio
ĠDani el
in almente
Ġvacun aciÃ³n
Ġata car
Ġnega tivo
Ġsim ilar
ĠD ec
Ġb on
Ġpas e
Ġve a
Ġproduc tivos
ĠespecÃŃfic os
Ġveci nos
Ġo jos
ĠEs tamos
Ġar ras
Ġven der
Ġab ra
olÃ³g ica
i fic
Ġen tidad
Ġcu Ã¡ndo
Ġcre e
ĠT enemos
Ġreci n
Ġinv ier
Ġpresenta ciÃ³n
Ġconsider ar
Ġenvi ar
Ġhos pital
ĠdÃ©ca das
ĠÃģlvar ez
c ÃŃa
d Ã©m
i gu
s os
Ġpar que
esi onar
Ġqu iz
Ġconstru y
Ġsan ciones
Ġmanifes tado
Ha ce
p ero
EN ER
ĠREG L
Ġcompar tir
Ġapor tes
Ġof rec
Ġconflic to
Ġprotocol o
j era
Ġes co
Ã¡ bamos
Ġal ar
Ġb arr
Ġdifer encias
ĠNi elsen
Ġincorpor ar
Ġevidente mente
6 4
u era
in inteligible
Ġhacer se
Ġins egu
Ġ201 6
Ġbenefici ar
Ġunivers idad
H e
Ġacu m
Ġplante ando
Ġbene ficia
Ġconstitucional es
Ġtermin a
Ġvig ente
Ġconfor midad
Ġperman ente
A F
Ġpro vo
Ġexp lica
Ġnorm al
Ġextre ma
ĠvÃŃc timas
Ġeta pa
ĠPan amÃ¡
Ġto me
Ġ201 0
Ġsal iÃ³
Ġalcal de
S ON
os os
Ġcu idar
Ġsi g
Ġpre venciÃ³n
Ġestudi ar
Ġgaran tÃŃas
Ġdeclar aciones
ĠTRA NS
Ġtari fas
agn er
1 55
p ora
Ġm ic
Ġm ora
Ġpar al
Ġcu esta
Ġverdad ero
Ġpos iciones
ĠW agner
ĠMODI FICACIÃĵN
ĠNom br
Ġ raci
Ġpre ci
Ġlogr Ã³
Ġconsid ero
Ġdieci siete
ĠPER SON
Ġindispensa ble
g on
por tes
Ġhabl an
Ġpon ga
Ġfir mar
Ġpudi era
ĠMun dial
Ġirresponsa bilidad
ĠCONS TITU
Ġcircuns tancias
ĠK ar
Ġlidera zgo
Ġign or
Ġc ru
re aciÃ³n
Ġre tir
Ġdes car
ven tud
TA CIÃĵN
Ġop ciones
Ġenten dido
SeÃ± oras
Ġadecu ado
Ġlevan tar
ĠDÃŃa z
Ġd ur
ul as
Ġni Ã±o
Ġfuer zas
Ġtotal idad
Ġexis tir
Ġcl im
Ġlog ra
ĠjurÃŃd icas
Ġvacun as
ĠAUTOR IZACIÃĵN
Ġg i
Ġac titud
Ġsal udo
Ġafec tando
Ġlegis lar
ic aciones
aci a
ĠD is
Ġser Ã¡n
Ġsegu ros
Ġeduca dores
Ġprior idades
Ġbill ones
A P
f Ã©
o peraciÃ³n
tan a
ĠS h
ĠLe gisla
Ġclar as
ona das
Ġpresen tÃ©
AM BLE
Ġcompeti tividad
Ġpoten cial
AMBLE A
V amos
ec as
bl os
ĠR oc
Ġti tu
ĠIN A
egu ir
Ġgus to
Ġrele van
ĠAS AMBLEA
Ġre duci
ra das
ĠI MAS
Ġfu ente
Ġorgan ismos
23 76
Ġseri edad
Ġahor ita
Ġorgul los
Ġfacil itar
irle y
Ġaper tura
v ante
di za
Ġsal en
Ġpas an
Ġca pa
ĠCom o
Ġhab ÃŃamos
Ġindi gn
Ġsuce de
Ġsustitu tivo
Ġterren o
ĠOrgan izaciÃ³n
b emos
Ġp uso
Ġes colar
Ġen ter
Ġte x
Ġ3 6
Ġra ÃŃ
Ġapoy ando
Ġfir mado
Ġningun o
RE ACIÃĵN
Ġmodi ficaciones
Ġpesca dores
ĠCu ando
gÃ¡n ica
ĠNombr amientos
ĠRoc ÃŃo
L ACIÃĵN
s car
Ġc Ã¡
Ġcon ce
ul tura
rim en
Ġlab ores
Ġbre cha
ĠpÃ¡g ina
ĠSh irley
Ġc em
Ġb or
Ġex ista
Ġtra tado
me di
Ġtrata miento
Ġtrabaj ado
Ġvulnera bilidad
Ġcap ÃŃtulo
Ġado lesc
Ġpopu lar
Ġbl an
p ciÃ³n
er to
Ġc oy
ec n
Ġesta d
Ã©n dez
tro p
Ġj o
Ġconta min
li que
Ġmor al
Ġpotes tad
Ġpronun ci
I A
b aciÃ³n
c ero
Ġde trÃ¡s
ĠS ur
Ġac or
pon e
curs o
Ġrel ig
Ġestruc turales
Ġfelici tar
Ġ963 5
v isiÃ³n
Ġb e
ĠAs oci
Ġrep ro
Ġconc esiÃ³n
Ġsolici tar
Ġjusti ficar
Ġmencion a
CompaÃ± eras
econ Ã³m
ĠEmp leo
tiv ar
Ġmu l
lar o
Ġma es
Ġlle van
Ġfu turas
Ġviol aciÃ³n
Ġases ores
Ġagre gar
ĠDa vid
e dia
j ando
ta miento
ti das
Ġre cur
ĠM ario
Ġap el
ĠT ecn
Ġexcl uy
Ġmues tra
Ġcredi bilidad
5 3
D UC
Ġd omin
Ġde dica
Ġv is
Ġdes pro
Ġpres encia
ia dos
Ġdeci mos
Ġcual quiera
Ġpermi ten
Ġcumpl iendo
Ġaf uera
Ġjusti fica
ĠInter net
Ġelem ento
r aciÃ³n
ÃŃ menes
Ġejemp los
Ġk il
e jo
r oso
er var
Ġimp ro
ĠG asto
po ca
Ġreci bo
Ġreci ben
Ġavan zando
Ġcontrol es
erv aciÃ³n
Ġelectr Ã³n
parta mento
Ġen tes
ic ar
Ġper tin
Ġap la
Ġcons tante
Ġdeci dir
Ġhabl Ã³
Ġextra ordinarios
Ġnor te
Ġmer ecen
ĠÃ© poca
Ġordinarias Primera
Ġsac ri
t Ã¡n
Ġv iernes
ĠC er
cu Ã¡l
Ġb ecas
ĠS us
Ġac og
Ġac oso
Ġvo tamos
Ġvi das
Ġcam arÃ³n
Ġdar se
Ġco br
Ġrecon oce
Ġcompr as
Ġconf ir
Ġaca dÃ©m
Ġpuer ta
Ġsec reto
ĠVar gas
Ġc la
la dares
Ġsal var
Ġdiscu tido
Ġval en
Ġavan ces
Ġinvesti ga
Ġju icio
Ġaspec to
Ġfamiliar es
9 8
z Ã³
Ġse par
Ġle jos
Ġad j
Ġsolu cionar
ĠVal ladares
Ġconoc emos
ĠdemocrÃ¡ tica
Ġaus encia
Ġde mas
ci les
ÃŃ os
Ġex cu
Ġjef a
Ġrequisi to
americ ano
Ġinsegu ridad
p an
Ġ ton
Ġa mp
ti ra
Ġen tra
Ġf er
Ġpro gresi
Ġme z
ĠM Ã©ndez
Ġpen diente
Ġconcre tas
Ġremun er
Ġenfo que
Ġcoy un
Ġc rimen
Ġo peraciÃ³n
cu laciÃ³n
ĠR iv
ĠG ENER
ĠRe formas
ĠLa tina
Ġevi den
Ġsolici to
Ġalcan za
Ġgus ta
ĠLegisla tivo
ar o
Ġhac ÃŃa
Ġr ol
ĠCon venciÃ³n
Ġesper arÃŃa
Ġcele brar
Ġdign idad
ĠEXTRAORDIN ARIA
Ġtranquil idad
ĠÃĵ scar
er ti
Ġn u
ĠCar olina
Ġleg alidad
Ġpeque Ã±a
Ġorig inal
Ġpareci era
Ġfran cas
in ch
Ġre ales
Ġcom ien
Ġpa gos
Ġas o
Ġminis terios
Ġdefen diendo
ĠQ ues
Ġadministra tivo
ĠPe Ã±a
Ġconoci do
Ġirresponsa ble
Ġposterior mente
Ġen trada
Ġten dremos
Ġtra e
bil itar
Ġca er
Ġca den
cip l
Ġquier an
Ġinteres ante
Ġfir me
9 6
a toria
Ġre mi
Ġimp un
Ġser ios
Ġtan tas
Ġutiliz ando
Ġtom Ã³
Ġconoc e
bal lo
Ġexcep ciÃ³n
Ġes tric
ĠC uar
Ġsus pen
ĠH id
Ġcol abor
Ġdec ÃŃan
Ġsigu ientes
Ġsucedi endo
Ġperfec tamente
ĠQues ada
Ġm Ãºlti
ti miento
tr es
Ġpo table
Ġex cel
Ġtra za
Ġplen o
Ġcam inar
ĠU na
Ġav al
ĠKar ine
ĠmÃºlti p
g aciÃ³n
Ġse de
Ġf em
Ġcu idad
Ġcomp on
iz adas
Ġ3 5
Ġay ud
Ġnombr ar
ĠlÃ³g icamente
Ġjerar ca
S ol
Ġ is
Ġte l
tin o
Ġop ciÃ³n
Ġaquel la
Ġcontribu ciÃ³n
Ġesencial es
Ġvic eminis
e duc
Ġre in
Ġin gen
Ġdistin ta
Ġconte mp
ĠHer edia
Ġabus os
d ri
o bre
Ġman dar
Ġar bi
ud encia
ĠCo vid
Ġsustan cial
ĠAPRO B
y mes
ĠV en
Ġab ordar
Ġpe dido
ĠO bras
Ġfu i
ĠRE C
Ġdenun ci
Ġimple mentaciÃ³n
americ ana
ĠrÃ¡pi da
Ġcoloc aciÃ³n
Ġrecuper ar
ĠRiv era
pu lar
iv a
Ġpue blos
Ġsegu ra
Ġcar gas
Ġfavor ecer
ĠIN CI
TR E
Ġconven ios
Ġpresen tando
Ġocas iÃ³n
e go
f in
co h
du mbre
vi Ã³
ĠcampaÃ± as
3 2
ĠC ari
Ġj uego
Ġpres tado
ce dente
Ã¡n sito
Ġag il
ber tura
Ġalgun o
Ġcol ocar
Ġexp osiciÃ³n
Ġhum an
Ġtu ve
Ġconte mpla
Ġesti m
Ġdemos trar
Ġrepresen tan
34 13
ĠCor r
Ġin jus
ĠA diciÃ³n
Ġser vir
Ġman tiene
Ġtan ta
Ġco bro
Ġ8 5
Ġcomple tamente
Ãī S
ACION ES
ĠemprÃ©sti tos
ĠimportantÃŃs imo
INTER VENCIÃĵN
Ġsig lo
os ten
Ġh ones
ĠA B
for tun
Ġvi mos
Ġdin Ã¡m
ĠPro tecciÃ³n
Ġindepen dientes
Ġelector ales
Ġinterven ciones
ĠP ÃļBLICA
Ġmo tivos
Ġar ma
Ã©r cito
Ġgra v
Ġorgan izado
Ġcomple men
ĠEN TRE
CION AL
Ġincorpor aciÃ³n
Ġconsidera mos
ĠmÃºltip les
Ġun idad
Ġg es
Ġsu ficientes
ĠI mp
Ġau tÃ³n
Ġreg lam
Ġsoci edades
Ġdetal le
Ġcuer po
Ġnove cientos
ĠCorr ales
Ġa t
Ġc Ã¡l
Ġes cal
Ġsin dica
Ġreal iza
Ġdin am
Ġfi de
AM ENTO
ĠÃģ rea
Ġalterna tiva
Ġelectr icidad
Ġcu brir
ĠR ec
Ġdes pe
Ġ4 4
Ġcer c
Ġregi onal
an ce
ran za
bil izar
Ġcul tural
Ġdeclar aciÃ³n
Ġhabla ba
Ġargu mento
Ġprivileg ios
Re almente
Ġedi ficio
Ġ Ãī
Ġl ib
ch as
Ġej ecutivo
Ġinc erti
Ġfiscal izaciÃ³n
Ġtras lado
Ġpi de
Ġequ idad
ĠlÃŃ der
Ġinform alidad
c emos
Ġm os
ic om
ĠS mi
ĠM ig
Ġ201 4
OR ES
Ġestar emos
Ġban dera
Ġju z
ĠcuÃ¡n tos
Ġrenun cia
ĠMi deplÃ¡n
Ġsir ve
Ġtraza bilidad
ĠSmi th
5 7
ar le
Ġs ien
Ġno che
ol an
di puta
ĠD ICI
Ġmo tivo
Ġr om
ara pi
til los
Ġdej an
Ġambi entales
Ġjus ta
Ġami gos
Ġconvo ca
Ġdivers os
ĠAsoci aciÃ³n
ĠDICI EMBRE
Ġd om
Ġc el
da Ã±o
Ġre ba
bi dad
Ġo cul
ĠIn greso
Ġpens ion
ĠCar ranza
Ġpresenta da
Ġdirec to
Ġjusti ficaciÃ³n
Ġconv ic
Ġpresen tan
Ġreun iones
i om
Ġdi rÃŃa
Ġme todo
CI MIENTO
za mos
fec tivamente
Ġexpres amente
Ġher e
ĠFinan ci
ĠCer das
i le
Ġc Ã¡r
us iones
Ġtra to
Ġra to
ĠCar ballo
Ġrepres entar
ĠAl berto
ĠseÃ±al ando
Ġsan ciÃ³n
Ġpropi as
Ġaudi encia
Ġindustr ia
5 23
8 0
es cu
Ġpr os
Ġdi vi
Ġca fÃ©
IC OS
Ġpon gan
Ġllev ado
ĠAP O
Ġcoordin aciÃ³n
Ġobserv aciones
ĠOt to
Ġel usiÃ³n
Ġal imen
Ġar ri
Ġinfor mar
Ġmon tos
Ġadul tas
Ġdi m
ĠD I
ĠA ven
Ġme mor
iv o
Ġins tal
ver de
Ġco bertura
Ġampli aciÃ³n
Ġindependiente mente
ĠagrÃŃcol a
Ġ Ã³
Ġun ir
Ġex cesi
Ġtr en
Ġsal ida
ĠCom er
Ġdec re
Ġrefor mar
IS C
ĠIN V
ĠbÃ¡s icos
Ġempi eza
Ġreser vo
Ġa bre
ÃŃ r
ĠF igu
Ġins ta
Ġar tes
Ġentre gar
Ġli mp
Ġbus can
Ġna turales
Ġexis tencia
Ġdesemp eÃ±o
Ġsorp ren
tien en
Ġpar Ã¡
Ġin telig
Ġres ol
Ġdis cipl
Ġposi tivamente
ara gua
Ġda to
Ġ5 3
Ġobje to
Ġalcan ce
Ġconfi dencial
Ġcomen zar
Ġlic encias
9 26
u rante
y er
ari dades
era do
du ras
Ġins tancia
tur aciÃ³n
Ġ5 0
ĠCas tillo
Ġmanifes tar
dÃ³ s
Ġresuel ve
Ġprov oc
ĠmÃ¡x imo
enci ano
Ġen te
ĠP r
Ġsi gamos
ero pu
Ġus ura
cis Ã©is
Ġdestin os
pos iciones
Ġrealiz an
ĠVal enciano
Ġima gen
ĠhistÃ³r ica
Ġrespal do
b rado
c ro
j ero
Ġc ientos
Ġreci be
ĠLu cÃŃa
ĠPOLÃįTICO Diputada
Ġexig ir
Ġafecta das
Ġauto mÃ¡
Ġtransfer encia
ĠNic aragua
icep residenta
trop oli
S on
b us
x ico
ĠC R
Ġmo d
Ġmen tira
Ġestar Ã¡
Ġfuer an
ĠPro grama
Ġhubi eran
Ġanun cia
Ġconcl usiÃ³n
Ġcur so
Ġmanda to
Ġpro bidad
ĠC U
Ġal er
ĠR OP
Ġac on
Ġac re
Ġser es
Ġas pir
Ġcre cer
um en
Ġescuch ando
Ġjun tos
olÃ³g icos
Ġmov imiento
Ġmarch amo
Ġincerti dumbre
3 1
Q U
v esti
es tre
as o
Ġcon don
om as
bi das
Ġsi l
Ġso ber
Ġdiscu l
Ġincl usiÃ³n
Ġval ios
na das
Ġcer te
Ġveinti dÃ³s
Ġdenun ciar
Cu Ã¡l
Ġconfor me
Ġases or
Ġalim entos
Ġregi onales
ĠlÃŃmi te
arapi quÃŃ
j en
Ġdes eo
Ġgas tar
Ġ9 0
Ġcorrespon dientes
ĠacompaÃ± an
TU RA
Ġcome dores
Ġcoleg io
C H
Ġv Ã¡l
Ġin n
am Ã¡s
ĠR es
Ġpre m
Ġdu al
Ġactu ales
Ġur ge
Ġluch ar
Ġvuel vo
Ġolvi dar
Ġalim entaciÃ³n
Ġsens ible
GRA MA
ĠAven daÃ±o
V ID
ten ciÃ³n
ĠM INIS
Ġman i
ĠJ ueves
ab e
Ġefec tiva
TR O
Ġcorrespon diente
tis tas
Ġpedir le
Ġrepresen tante
ĠPRO GRAMA
Ġcorr ientes
ĠDec lar
ĠFigu eres
B AJ
G A
g in
que mos
ĠC reo
Ġins cri
Ġnego ciar
Ġadministra tivas
Ġlim on
Ġjef e
Ġexplic aciÃ³n
Ġconvers ar
Ġdie cisÃ©is
Ġpopu l
ĠCari be
L I
Ġper f
ĠS arapiquÃŃ
ER G
Ġsal ariales
Ġcontra bando
Ġnom bres
Ġcien cia
Ġcapaci dades
iom ara
v ieran
Ġp ymes
Ġb asta
ĠM artes
Ġab uso
Ġco brar
Ġobl i
ĠSan ta
ĠZ ÃºÃ±
Ġrecu er
ĠdifÃŃ ciles
Ġllev ando
Ġequiv al
Ġaban don
ĠCOM O
ĠX iomara
Ġrazona ble
ĠraÃŃ z
ĠZÃºÃ± iga
an al
ti cip
ten tes
Ġcomp ro
ON E
Ġlegisla tivas
AL ES
ĠtÃ©cn icas
Ġdocu mentos
Ġperm iso
ĠcrÃŃti ca
Ġagropecu ario
Ġcateg orÃŃa
) .
4 0
6 6
ti ficaciÃ³n
ÃŃ da
al go
tr Ã©s
Ġcu mpla
du ra
Ġ3 3
Ġexper tos
Ġestruc tural
ĠturÃŃs tico
Ġfide icom
D ice
ci dos
Ġpl as
ri al
Ġinter medi
Ġr um
ĠH A
Ġmedi ano
Ġposi bles
ĠB AN
Ġrecon oc
Ġ4 8
Ġconstitucional idad
Ġencon tr
Ġpromo ciÃ³n
oz ca
ĠCona vi
ĠhistÃ³ric amente
Ġsusten to
diza je
Ġa ti
Ġmo tiv
Ġar m
ĠSu per
Ġsuf ren
ĠME DI
Ġrecomenda ciÃ³n
Minis tra
Ġtari fa
ĠMÃ© xico
Ġvalen tÃŃa
tropoli tana
I gualmente
Ġre ti
di mientos
Ġto man
ĠD ra
Ġac tivos
ĠI V
cion a
Ġpe le
Ġreg ÃŃmenes
Ġcier tos
tis mo
Ġaclar aciÃ³n
Ġenti ende
ĠOr d
Ġdefens or
Ġinmedia ta
Ġaprue ba
Ġperj ud
icen ten
Ġexplo taciÃ³n
Ġaleg ra
ĠHid algo
R es
Ġ Ã©n
Ġp uentes
Ġm ir
Ġpo dÃŃan
Ġr ÃŃo
fer encia
Ġtar je
Ġinvestig aciones
Ġrecu peraciÃ³n
58 0
Ġprev al
Ġajus te
Ġvir tud
Ġlec tura
Ġuniversi taria
Ġcontun dente
ĠAgu ilar
e lo
Ġpro tes
ĠC Ãĵ
Ġal iv
Ġcu ri
Ġpo cas
Ġpa que
Ġsus p
Ġar ch
DI GO
Ġven dr
ĠseÃ±al Ã³
Ġampl io
Ġlim itar
Ġpol ici
Ġdebi Ã³
Ġdign a
fas is
Ġado p
Ġexoner aciÃ³n
ĠREGL AMENTO
ĠCÃĵ DIGO
a dores
b on
b ara
c ambi
s u
Ġes con
ta ba
Ġper diendo
ĠA pro
Ġac el
ĠPA R
Ġ201 5
bilidad es
Ġca be
Ġhabl emos
Ġcor re
Ġcar o
Ġconsider aciÃ³n
ĠMe j
ĠSO BRE
Ġconsci entes
usta vo
Ġrecin to
ĠÃ©n fasis
i era
l ÃŃ
o tras
Ġa gar
un ales
is a
Ġme ta
ĠG ustavo
Ġins isto
Ġhabl o
Ġentre ga
Ġfra ude
ĠSe gunda
Ġ4 0
Ġadminis tr
Ġaplic ando
olog ÃŃas
Ġirres pe
Ġreflex ionar
Ġsucedi Ã³
Ġcombusti bles
Ġjo ven
Ġmetodo logÃŃa
Ġ ÃŃ
ĠP ac
Ġqu is
Ġpresid encial
Ġ3 7
ĠDe partamento
ĠpolÃŃtico Diputada
Ġsuf riendo
ĠOr gÃ¡nica
Ġacer ca
Ġclim Ã¡tico
Ġcoyun tura
ĠGENER AL
Ġaso cia
Ġcerte za
I T
o to
s is
Ġf lex
ĠA hÃŃ
ĠN e
im ismo
Ġcomp or
Ġab usiv
Ġcar gos
id y
Ġponer le
Ġrefle ja
Ġpropon er
Ġrealiz Ã³
ĠPlan ificaciÃ³n
Ġexclusiv amente
Ġperio d
Ġresguar dar
Ġeleg ir
Ġrepe tir
Ġe va
ĠS on
ici dio
Ġap ara
Ġpres taciÃ³n
Ġad mi
Ġreci ente
Ġhum il
ĠPers onas
Ġdi mos
le idy
Ġcomp ens
si on
Ġ3 9
AD A
ĠIN EC
Ġsignifica tivo
TOR IO
Ġofer ta
ĠAPROB ACIÃĵN
Ġre ceso
ĠL unes
ĠA p
Ġnos otras
Ġecon om
Ġoportun o
Ġsa ca
Ġju eces
Ġtrabaj an
Ġpol iti
Ġami go
Ġdificulta des
V I
Ġv ÃŃas
am Ã©rica
ech o
Ġfu imos
ĠÃ© x
Ġreiter aciÃ³n
EC CIÃĵN
Ġvuel ve
Ġhuel gas
Ġtram itar
Ġileg ales
ĠAg ricul
Ã¡nd onos
C R
a d
es as
Ġc Ã¡n
ĠP ol
Ġg ir
Es tos
el le
Se gÃºn
Ġfinanci eras
Ġjur isp
Ġren dir
Ġsur g
Ġpus ieron
ĠPERSON AS
Ġpar cial
Ġdel in
Ġal coh
ĠR os
Ġpo ca
ens iones
Ġcos tu
ĠJ ur
Ġabs ur
Ġterri torial
ĠPRES ID
ĠDel gado
Ġagu as
ĠFiscal ÃŃa
Ġamena za
or o
ic Ã³
Ġre por
Ġpro ceder
Ġper ci
Ġcu ento
Ġdes per
Ġr in
Ġestudi ante
Ġrecibi mos
Ġdej en
ĠprÃ³x ima
Ġmucha chos
ĠtÃ©rmin o
Ġagre gado
Ġconflic tos
N ues
U M
n ueve
y as
aci o
Ġper iÃ³
ĠS U
Ġta les
Ġpe dimos
Ġdesemp le
Ġpreten den
Ġam bos
Ġcaus as
Ġvuel va
Ġprohibi ciÃ³n
Ġexten der
Ġoper aciones
Ġmovil idad
Ġpropor cional
Ġcab eza
T ES
ci da
un a
pu so
Ġres al
Ġdis eÃ±o
Ġdef ien
Ġespecial es
Ġ12 1
Ġotor gar
ĠES PE
Ġorgul lo
Ġperj u
Ġmemor ia
i tÃ©
l aciones
Ġde terior
ro gas
ĠT ambiÃ©n
Ġr as
Ġavan zado
Ġ5 1
Ġmon op
Ġadel an
Ġolvi da
Ġindic ar
Ġdesas tre
icenten ario
4 70
n is
Ġes que
Ġv ari
Ġre mo
Ġres erv
Ġar as
cion ado
Ġne gl
Qu isiera
Ġ13 7
Ġincor pora
SeÃ± ores
Ġperm isos
Ġpaci entes
Ġquiz Ã¡s
Ġdemas iado
Ġarbi tr
Ġnegl ig
T ARIO
i dez
en go
ĠD iputa
bil ita
Ġref ir
Ġinf laciÃ³n
Ġcompar to
Ġexig e
an til
ÃŃ fico
om a
Ġin ven
Ġcom ida
Ġcons eguir
Ġpes o
Ġ5 4
Ġdoc entes
ĠMe tropolitana
Ġbar b
Ġsani tarias
Ġhos pitales
Ġsens ibles
Ġfron teras
ĠComer cio
Ġobli gar
ti era
Ġdi ario
ĠE M
Ġb ono
ĠF ON
Ġaten diendo
ĠIn vesti
Ġ3 4
Ġsab ÃŃa
Ġmencion Ã³
Cu Ã¡n
ĠNi dia
Ġgan ar
Ġllev Ã³
Ġcarre teras
ĠSEG UR
Ġrestric ciÃ³n
ĠDra gos
ta tivas
di ficaciÃ³n
Ġac os
Ġinter cambi
uer ra
Ġgener e
Ġgener Ã³
olu ciones
ÃŃn ense
Ġ4 5
Ġ4 9
Ġdeber Ã¡
Ġofici na
Ġdistr ito
Ġnegoci aciones
Ġsolid ario
Ġreconoci do
Ġcif ra
Ġregis tro
Ġmic ro
olan escu
3 5
Ã¡ mos
Ġpro puesto
Ġto men
ce dentes
Ġsegu i
Ġactu aciones
Ġplante amiento
Ġ7 3
Ġconsider ando
ĠTRA BAJ
Ġaprue be
ĠpÃ©r didas
Ġeven tualmente
5 48
E fectivamente
i ales
Ġ ran
Ġa tro
Ġc rimin
ĠR a
Ġsu pera
ici dios
ER V
Ġve amos
Ġestu vieron
Ġllam ada
Ġexcl usiÃ³n
Ġtes ti
Ġlic encia
1 29
Ġre tr
am en
Ġreg res
ĠRo dri
Ġutil izado
Ġcorrespon den
Ġmodi fica
ĠPOLÃįT ICA
tis ta
Ġconcl uy
ĠPrim er
d ra
n ada
Ġ os
ar ro
Ġcon tral
bi a
tar nos
Ġb om
mi go
OR A
Ġven go
uer za
Ġestar ÃŃan
Ġpens amiento
ĠCh inch
Ġinten ciones
ĠprÃ³x imas
Ġadicional es
Ġestuvi mos
ĠCO VID
Ġcuen tan
n idad
o cho
Ġde ro
Ġse des
Ġse cun
ĠC AR
Ġb ra
iz Ã³
Ġdis posiciones
Ġar te
ton io
Ġefec tivo
Ġviol enta
Ġescuch an
Ġenten demos
Ġdistin to
Ġaca bar
ĠSal as
Ġcandida tos
Ġinsu mos
ĠOrd inario
ĠChinch illa
D ic
Ġal quil
Ġgener ales
ĠRo ja
Ġ9 6
Ġprofun do
ĠAn tonio
Ġben em
Ġganan cias
ĠdinÃ¡m ica
Ġinn eces
ĠESPE CIAL
d aria
r udencia
Ġl ici
Ġvo tÃ³
Ġlle gando
ĠGu ar
ĠmuchÃŃs ima
Ġ200 8
Ġgobern ar
âĢĿ ,
ĠTer cera
Ġjue z
ĠOt tÃ³n
Ġcaden a
rial ba
ĠRodri go
4 16
E P
Ġen v
ec esi
Ġb uro
Ġpa dre
tor no
Ġma dres
OR TAL
ĠCon trol
Ġinv ir
cl uso
Ġtur istas
Ã¡ndo les
Ġquedar on
Ġdefini ciÃ³n
ĠNic ol
Ġrele vante
Ġil ÃŃ
Ġdieci nueve
ĠlÃŃmi tes
Ġtrascen d
ĠMujer es
Ġdom Ã©s
Ġrum bo
Ġburo c
C A
t Ãº
ci mientos
que z
da p
am enta
ĠC I
Ġcu yo
ÃŃs o
Ġan ex
ĠCon ven
den es
Ġmar ca
ĠB ol
Ġpon gamos
20 0
Ġcomple ta
Ġmodi fic
Ġinconstitucional idad
Ġenferme dades
Ġexoner aciones
ĠNos otros
Ġasu mi
104 50
Ġofrec er
Ġkil Ã³
ĠNicol Ã¡s
Ġme tros
ĠseÃ± ales
gis trada
ri to
Ġdesarrol lado
Ġpreocup ado
Ġafec tan
Ġri gu
TI V
Ġutil idades
Ġgaranti za
Ġam nis
Ġexpres ar
Ġrealiz ando
Ġocur re
Ġinmedia to
Ġdivers as
ĠrÃ¡pi damente
Ġdemues tra
Ġtrib unales
educ tos
ĠINCI SO
ĠAgricul tura
i Ã©n
dad os
ĠE uro
ÃŃs ima
ĠM UN
Ġso cio
ĠF ORTAL
ĠbÃ¡s icas
Ġalcan ces
ĠacompaÃ± ar
Ġcontribuy entes
ĠTur rialba
ĠÃŃndic es
ĠSeÃ± or
Ġescolar es
E CIMIENTO
Ġex pon
ĠDE F
Ġcre Ã³
Ġpas os
Ġdar nos
Ġmejor as
Ġtermin an
Ġrecibi endo
Ġconv ocar
Ġprofun da
Ġacep tar
Ġdictamin ado
Ġresca tar
tr iz
ĠM ay
Ġmar gen
Ġmunicipal idad
Ġutiliz an
ĠMi leidy
ĠMo dificaciÃ³n
Ġfavora ble
Ġimpe dir
Ġretir ar
ĠBAN CO
Ġapara to
Ġjurisp rudencia
I I
P residenta
Ġ erra
is dic
ĠC ultura
ĠA du
Ġdes es
Ġfor mar
Ġplata forma
ICI P
Ġfac tores
Ġbanca da
Ġorig en
Ġjudicial es
Ġcircuns tancia
Ġparlamen taria
Ġextran jer
Ġinno vaciÃ³n
ĠMUN ICIP
e mente
g io
Ġl en
on ÃŃa
cu lares
ĠS ÃŃ
ric os
Ġmedi cin
Ġcier tas
Ġplante Ã³
Ġfuer tes
Ġmal as
Ġju gar
Ġexcl u
Ġpresentar on
Ġprofun damente
78 8
Ġtuvi era
Ġconduc ta
Uste d
Ġsindica tos
Ġdelin cu
A hÃŃ
n ab
Ġa tre
Ġla n
Ġre per
ch an
Ġj amÃ¡s
iv os
ier tamente
ul aciÃ³n
gar es
ĠV iv
Ġcam in
Ġ4 1
Ġba jos
Ġescuch a
Ġ8 6
ĠOR G
Ġestableci Ã³
Ġconcl uir
Ġdign o
Ġmanten imiento
pes ca
Ġcuo tas
ĠFORTAL ECIMIENTO
m ante
v al
Ġque dando
Ġin ca
Ġin cur
ĠC am
il f
Ġres oluciones
Ġlle gamos
Ġve lar
Ġdiscu timos
Ġtrabaja dora
ĠAdminis tra
Ġdestin ar
Ġemerg encias
Ġdesa fÃŃ
Ġajus tes
Ġreto mar
Ġinteg rantes
ĠSEG UN
Ġina cep
Ġmentir as
Par ticip
M o
Ġl ig
Ġs enta
Ġpro cur
Ġsu pl
Ġtra dicional
ER A
Ġcre ciendo
Ġca ja
Ġdos cientas
ĠB IS
Ġ3 8
Ġter cera
Ġmes as
Ġvotar on
Ġcontrol ar
Ġlogr os
Ġluch as
Ġpudi eron
Ġequiv oca
Ġprotocol os
Ġsabi endo
Ġexpec tativa
ĠdesafÃŃ os
1 16
r ando
es o
Ġa dap
Ġc lam
Ġo dio
ĠC REACIÃĵN
Ġpa c
Ġdes en
co pesca
Ġ4 7
Ġveinti trÃ©s
Ġllen a
Ġincen tivos
ĠX X
Ġperio do
C RI
v os
Ã¡ bado
ir se
tor ÃŃa
ri tos
Ġas f
Ġplen a
ĠH u
Ġpon ernos
Ġfinan cia
qui Ã©n
Ġhi jo
Ġestableci dos
Ġprom esas
Ġpudi eran
Ġdismin uy
Ġtransfor maciÃ³n
nab is
4 3
O tro
b ramos
Ġel ig
Ġcon ex
am e
ĠN aciones
Ġex terior
Ġpres tar
Ġsin dic
ĠT E
Ġr on
Ġinfor ma
Ġden omin
Ġoportun a
Ġ19 95
Ġcumpl ido
Ġmal o
Ġju ventud
Ġhubi Ã©ramos
Ġmane jar
Ġempez Ã³
Ġadecu adamente
ĠTrib u
Ġincre mento
Ġdesp ilf
ĠINTER N
ĠNe w
ĠkilÃ³ metros
Ġreper cu
6 1
V ean
Ġa go
Ġre es
Ġb icentenario
Ġcos teras
Ġcontra tar
Ġproduc tor
Ãģ L
Ġinterpre tar
Ġdesa par
Ġadqu isi
Ġdue le
ĠperiÃ³ d
amenta blemente
O jalÃ¡
R ec
Ġd Ã¡ndole
Ġre za
ĠP re
Ġpro ve
ĠC OR
ien en
Ġma gistrada
Ġ201 2
Ġsal ga
âĢ Ļ
Ġmill on
Ġcan ce
IS IS
Ġconven ciones
Ġconv iv
Ġpersonal es
Ġadministra tivos
Ġtribu tario
Ġindica dores
Ġcoin cido
Ġiden tidad
Ġprivileg io
Ġpreven ir
a go
r Ã³
s Ã©is
Ġde je
Ġun Ã¡n
res a
Ġtra tados
Ġmo do
ĠEs cu
ĠUn idas
Ġvol v
Ġaf ro
Ġveinti sÃ©is
ĠFl ores
Ġdeman das
don e
Ġemi tir
Ġapren dizaje
Ġtemp or
ĠTrans portes
P ro
Ã³ lo
am ento
Ã¡s tima
Ġser ia
Ġreal idades
Ġautor izar
Ġutil iza
Ġmon e
ĠDes de
ĠSUS CRI
Ġprev io
Ġcomba te
Ġfac tura
Ġcontinu idad
Ġcua tr
Ġveh emente
ĠAPO YO
4 19
o des
er ita
Ġs Ã³l
iz an
des cen
ab ora
Ġci ta
Ġpermi tiÃ³
Ġrecon ozco
Ġgra du
Ġdirec triz
Ġcuar to
olÃ³g icas
Ġdepen de
Ġequil ib
Ġrelevan cia
ĠÃī tica
Ġcostu mbre
ĠMUNICIP AL
A yer
Ġm ens
Ġcons ervaciÃ³n
fici encias
ON ES
si tos
Ġponer se
Ġmin orÃŃa
ĠFl or
Ġtendr ÃŃamos
Ġcuesti Ã³n
Ġcarr eras
Ġpelig roso
Ġempren de
Ġterren os
Ġpun tual
Ġimpon er
Ġexpe dientes
Ġherm anos
ĠFON DO
odes af
J apdeva
m Ã³
Ġpro duci
Ġest re
Ġex minis
Ġres tr
Ġr os
izar se
Ġpermi tiendo
Ġconc reto
Ġunivers al
Ġrecibi Ã³
Ġcompar ec
Ġconv ir
Ġjef as
Ġconcl usiones
Ġinsis tir
Ġbol s
Ġprovo ca
i taria
j imos
Ġo pon
ch es
ĠE chan
Ġex itos
Ġdes orden
Ġdis puesto
gun os
Ġab aste
ĠU ste
Ġdeba tir
Ġfal so
ĠÃ³r denes
Ġvia bilidad
ĠfÃŃs ica
Ġjor nadas
ĠRos ado
Ġperju icio
ĠEM ERG
ĠEchan di
or ÃŃas
ĠA y
Ġac cesi
Ġdis puestos
Ġtr Ã¡nsito
ez uela
Ġtraba jos
RA N
Ġpon emos
Ġem bara
truc turaciÃ³n
ĠseÃ±al an
Ġhaber se
Ġmal tra
Ġaprobar on
Ġce der
Ġtoma mos
Ġconsider an
Ġprofundi zar
Ġinj usticia
Ġfideicom iso
Ġa i
Ġse gun
Ġcon ozco
Ã¡ us
om un
Ġpar ques
Ġex diputa
Es tas
Ġtar eas
ĠCar men
Ġmanifes taciÃ³n
LE Y
ĠArtÃŃcu los
Ġcomercial es
Ġrestric ciones
Ġconsumi dor
ĠcientÃŃ fic
Ġinj usti
ecesi tamos
T ARR
v iv
Ġd oy
er va
Ġre tro
bi do
Ġsu p
der Ã³n
Ġmar cha
IC ENS
Ġpla za
Ġdeba jo
Ġinver sion
ĠRE LACIÃĵN
Ġsan cionar
Ġfundamental mente
Ġhubi ese
ĠCOS TARR
Ġcomprome tido
Ġampli amente
Ġcandida to
To dos
ĠFINANCI AMIENTO
Ġmanifi es
amp oco
Ġestad ÃŃsticas
ĠVen ezuela
ĠunÃ¡n ime
ĠCOSTARR ICENS
Ġv aria
cu lado
der ÃŃa
Ġac o
Ġac ci
Ġtr i
Ġpres ta
Ġsal ido
Ġr esi
Ġfin ales
Ġco operaciÃ³n
Ġplan tas
Ġafec tado
Ġconc esiones
Ġ8 0
Ġpos tu
ĠZ ele
Ġurg entes
Ġvalor ar
Ġindi rec
ĠBuen as
Ġrenun ciar
ĠINS TITU
Ġprofes ores
Ġmora toria
Ġadministr aciones
Ġresal tar
ĠZele dÃ³n
2 5
m ando
Ġin mun
Ġal tamente
ĠD on
ĠS ec
ga das
Ġ201 3
Ġfinal idad
Ġdej emos
ĠLiber ia
Ġimpul so
Ġequi pos
Ġdepen den
Ġconsecu ente
Ġincen tivar
Ġasoci aciÃ³n
Ġgu anacaste
Ġcaracter ÃŃsticas
ĠCal derÃ³n
Uste des
Ġjor nada
Ġrelig ios
Ġimpun idad
ĠparÃ¡ metros
V icepresidenta
g gi
ig an
tru cciÃ³n
Ġmar av
ES TI
Ġpon go
ĠIn for
teg er
De bemos
Ġcl Ã¡us
Ġluch ando
Ġpudi mos
79 1
Ġdisc re
Ġapar te
Ġmateri ales
Ġrelacion ados
Ġcuidad os
Ġarri ba
ĠJur ÃŃd
Ġinacep table
ĠNew ton
t aril
v idad
Ġa ma
Ġcon curso
Ã¡ ramos
Ġf ar
Ġdel ante
Ġpro duce
Ġan da
ĠF amil
Ġver se
Ġag rup
Ġreg lamen
Ġproduc tividad
dic ar
Ġorden Diputado
Ġpos ici
Ġdestin ados
Ġvoc es
ĠMej ÃŃa
ĠcÃ¡n cer
Ġcuatr ien
en das
Ġp Ã©s
Ġa tribu
ĠC res
pu bl
gr u
Ġpreocup ados
Ġconstru ido
Ġingres ar
Ġpubl icaciÃ³n
Ġreconoci endo
Ġexcep cional
Ġaudi encias
gl esi
Ġremuner aciones
Ġperf il
Ġsusp ensiÃ³n
ĠPol icÃŃa
ĠEMERG ENCIA
6 9
c eros
d ustr
Ġa eropu
Ġs esionar
ĠH emos
fici os
Ġviv ido
Ġ7 6
Ġmencion aba
cios o
Ġlog ro
Ġgesti ones
Ġdoc ente
Ġsencil lo
ĠVÃŃ quez
Ġrespetu oso
Ġben di
Ġbanc ario
ĠCres po
f ono
Ġ Ã¡n
tr en
Ġpor tillo
ĠA ida
enta zo
Ġfra cas
TA N
Ġadminis trar
Ġsolici tado
Ġveinti ocho
Ġleg ÃŃti
Ġofici nas
Ġobs tante
Ġsuce dido
Ġfron ter
ciller ÃŃa
Ġconvic ciÃ³n
Ġatro pel
done idad
l ante
Ã³n ica
Ġpa p
gu ales
Ġtr im
Ġacu s
IS IÃĵN
ĠcuÃ¡n tas
Ġreda c
Ġasign aciÃ³n
ĠCan cillerÃŃa
Ġconec tividad
Ġarras tre
Ġadj ud
ĠCOSTARRICENS E
8 92
P ues
S OS
Ġp ul
Ġf la
Ġal tÃŃs
ĠD olanescu
Ġdes cen
Ġcomp l
Ġte mor
Ġvo tÃ©
Ġcan nabis
Ġreg al
Ġdeba tes
Ġfuncion a
ĠPR OP
Ġempez amos
Ġcontribu tivo
Ġdesi gn
Ġconvo cado
ĠvehÃŃ culo
Ġmodern izaciÃ³n
R IL
a t
u alidad
Ã¡ tica
mp len
Ġpa gue
ĠS AN
Ġsol ven
ez ca
OS TO
Ġestar Ã©
Ġminis terio
Ġ8 4
Ġfal tante
Ġmagistra das
ĠPara ÃŃso
ĠTra baja
Ġrespon de
Ġcuestion amientos
ĠES TA
Ġreser va
Ġelimin aciÃ³n
ĠenseÃ± anza
ĠÃŃndic e
Ġblan co
ĠAB RIL
ĠPac ÃŃfico
2 7
Q uer
j Ã³
Ġd rogas
Ġi doneidad
ĠR ES
ER O
ĠF a
Ġins tancias
ĠT re
ĠH err
Ġexp resiÃ³n
Ġapoy ado
Ġquer ÃŃan
Ġproduc tiva
Ġjun ta
Ġfal le
Ġsolici tudes
Ġmencion Ã©
Ġofici ales
76 0
Ġdisc rim
Ġincre ÃŃ
Ġinsis tiendo
ĠDerech o
Ġ199 8
Ġcolec tiva
Ġcontradic ciÃ³n
Ġbal ance
Ġagrade cimiento
ĠHerr era
? Â¿
b Ã³
Ġde ten
Ġa di
Ġc ari
Ã± amo
ien tas
ĠA ban
ĠR ÃŃo
Ġpa gamos
Ġdon aciÃ³n
Ġca ÃŃda
ĠB ID
Ġllam o
ĠPo pular
Ġirresponsa bles
BI ER
Ġsegui remos
p ia
re as
ĠA hora
Ġdes in
ĠDE CL
Ġpres encial
ĠV ita
ĠRe d
Ġpresupues tarias
Ġci tar
Ġempres arial
Ġsan e
44 50
Ġrecom en
Ġindica do
trÃ³ leo
... ,
ĠAutor izaciÃ³n
Ġamp aro
L OS
M Ã¡s
i anza
di l
ĠC rÃ©dito
ue da
ĠF uerza
Ġcre ando
Ġsal vo
Ġlle guen
ecu ciÃ³n
ab ro
Ġad m
Ġgra do
Ġenten diendo
Ġintegr aciÃ³n
Ġdeclar ar
Ġdesa fortun
Ġale gr
Ġcelebr aciÃ³n
Ġpoliti qu
o Ã±a
ti ble
Ġf ru
Ġpro greso
de o
tu m
Ġg uerra
ĠE DUC
Ġdis eÃ±
ri os
me j
Ġ7 4
Ġpropon iendo
Ġllev amos
Ġvacun a
ĠâĢ ĺ
Ġrur al
ĠAG OSTO
Ġcoher encia
Ġfom entar
Ġvis ual
D ecÃŃa
k e
ĠC reaciÃ³n
res ep
Ġpl us
Ġser ias
Ġca y
Ġven tas
Ãį S
Ġdu ra
Prim ero
Ġllegar on
eco pe
ĠPolÃŃtico Diputado
Ġnega tiva
Ġiden tifica
Ã¡m ara
Ġdiv or
ĠCal vo
ĠvÃŃc tima
Ġescas os
a bilidad
j ada
un que
Ġesta tales
Ġsi mpl
ĠA demÃ¡s
Ġsu pone
ĠM iÃ©rcoles
zo fe
ĠPlen a
Ġcr is
if a
Ġaprob emos
Ġviol en
ĠPR ÃīS
Ġrel aci
Ġanun cio
Ġdirig ir
86 6
Ġllen o
Ġesc Ã¡nd
Ġdiv isiÃ³n
Ġirre gu
Ġconsumi dores
ĠSO CIAL
ĠTRANS I
Ġlimon enses
ĠDECL AR
ĠPRÃīS TA
al las
ica da
Ġta ba
Ġar ro
ech as
Ġposi tiva
Ġreci Ã©n
Ġgra var
Ġbas es
Ġdejar lo
ĠBan c
Ġgaranti ce
Ġveinti siete
Ġconven iente
ĠInter americana
Ġinstitucional es
Ġdetermin ado
Esto y
Ġtecn ologÃŃas
Ġdev uel
Ġconstituy e
Ġsel ecciÃ³n
Ġenca den
Ġusu arios
Ġadolesc entes
ISC AL
ĠSuper ior
ĠÃ©x ito
zofe ifa
l Ã³
u to
Ġpar idad
ĠR ecope
Ġsu bir
ĠI gn
Ġsal va
Ġcar ro
Ġbenefici arios
Ġsigu iendo
ĠPOLÃįTICO Diputado
Ġencuen tro
Ġ200 6
Ġoficial ista
Ġcuo ta
ĠIV M
ÃģL ISIS
2 58
i ores
Ġs Ã¡bado
Ġe mo
tra dos
Ġle gado
ĠS AL
Ġpresupues tarios
Ġesp al
Ġval iente
Ġcal ificaciÃ³n
Ġcomun al
Ġ4 3
Ġhu mo
Ġconstru yendo
Ġmal os
Ġdejar on
ID O
Ġpreten der
Ġtur no
Ġabier ta
Ġcondon aciÃ³n
6 77
b b
Ġ Quiero
Ġde do
te z
un da
Ġf oto
Ġpor tillos
Ġpro ven
Ġal ma
ĠA resep
Ġqu iso
oy a
Ġpl Ã¡s
Ġma gn
Ġdeci dido
Ġ5 6
Ġpresenta das
Ġind is
Ġinf l
Ġcomple jo
Ġutiliz ados
Ġsimilar es
Ġexcu sa
Ġexcel ente
5 49
8 13
qu in
Ġpar lamento
Ġpro te
Ġto pe
Ġcons truc
Ġma cro
Ġdesarrol la
Ġpi den
ĠdaÃ± os
Ġconoc en
Ġconsec uentes
Ġexpe di
roz co
m aciones
Ġen m
ma g
ĠG O
Ġcos tas
ĠO rozco
av es
Ġpriv a
Ġcumpl an
Ġpregun tar
Ġfal sas
Ġquin ientas
Ãģ N
Ġ14 8
ĠlÃŃn eas
ĠMar co
Ġliqui dez
Ġvac ÃŃo
Ġextran jera
Ġanual idades
Ġbara ta
Ġbarb aridad
ĠIgn acio
S er
os as
Ġc ic
ti les
Ġn um
tor a
aÃ± os
dr ÃŃa
Ġne gar
Ġfunda mento
ĠCON FORM
Ġsuper visiÃ³n
Ġlog re
Ġcorrec tamente
Ã¡r se
Ġestruc turas
Ġiden tificar
Ġvigil ancia
ĠEmerg encia
Ġacos tum
ĠCONFORM IDAD
C ES
F inalmente
U D
c ra
p ÃŃ
r Ã¡n
ti lic
tr ando
Ġdel eg
ĠC N
Ġqui e
fic acia
Ġna ce
Ġ7 5
Ġcer tifica
Ġsuper ar
Ġintegr idad
Ġocup ar
Ġvisi ta
IB U
Ġfel iz
Ġmiem bro
Ġagricul tura
Ġvia ble
Ġbol sa
Ġparlamen tario
Ġconsol ida
Ġbon ito
Ġacon te
ĠSEGUR IDAD
ĠINTERN ACIONAL
omun icaciones
ĠPRÃīSTA MO
6 7
p s
Ġl ine
Ġes ca
Ġla mento
Ġpr esiones
Ġo jo
Ġdi jimos
Ġplen amente
Ġcre an
Ġver lo
Ġlle ve
tin ueve
Ġparti culares
Ġllam ados
Ġimpuls ando
Ġcarr os
Ġconsens u
Ġequiv o
Ġprohibi r
Ġimag ino
ĠFran ggi
ĠEmerg encias
ĠCONSTITU CIONAL
Ġreserv as
Ġsegun dos
ĠTre jos
677 36
i tud
Ġp ilar
ien cias
ĠN a
du m
Ġsin cer
Ġcre ado
Ġver siÃ³n
ĠIN FORM
Ġjur isdic
Ġimpac tos
Ġaprovech amiento
Ġprior izar
Ġahor ros
Ġexpres a
ĠlÃ³g ico
Ġbar ra
Ġdesigual dades
Ġfaci li
ĠAg ro
ĠelÃ©ctr ico
An te
Ġlimita ciones
Ġcens ura
ĠDis capacidad
ĠcÃ¡ Ã±amo
Ġbe bidas
Ġpolici ales
ĠGO BIER
U no
i ciÃ³n
er tos
Ġe ficacia
ec omunicaciones
Ġb Ãºs
Ġfin ca
Ġcan on
Ġplan ta
Ġli der
Ġ9 791
Ġutil izaciÃ³n
Ġtermin al
Ġinten to
Ġencon trado
Ġpedir les
73 8
pl om
Ġende ud
Ġanun ci
Ġmateri as
Ġnorm almente
ĠVi ol
Ġinterven ir
To do
Ġrelacion ado
Ġtele tra
Ġech ar
Ġviceminis tro
ĠcÃ¡l culo
Ġmani pu
Ġdesper di
Ġdescen tral
v as
Ġn aciones
cu Ã¡n
Ġsi go
Ġdes g
Ġdes titu
du jo
Ġni e
Ġcam inos
Ġu tilic
Ġvein tinueve
Ġ8 9
Ġterri ble
Ġocur riÃ³
ĠcontinÃº a
Ġmod alidad
ĠGuar dia
ĠGOBIER NO
P o
d is
Ġv esti
ĠD ice
Ġpa gado
Ġex puesto
Ġex poner
ber t
Ġcambi a
ĠUn iÃ³n
Ġ7 8
ĠPro teger
Ġproces al
Ġcuesti onar
Ġvulnera ble
Ha bl
Ġran go
B RA
R ES
p Ã³
Ġcon tiene
Ġdi agn
Ġesta dos
Ġto cÃ³
Ġti pos
ues to
Ġdeci diÃ³
Ġins to
Ġinter nos
Ġgener en
Ġco bra
ĠSe gre
Ġcompe tir
Ġconven iencia
Ġconv iene
Ġtribu tarias
Ġocup amos
Ġrector ÃŃa
Ġina d
INIS TRA
ĠTur ismo
osten ible
ĠDEF ENS
ĠEscu ela
ĠbÃºs que
z gos
Ġ QuÃ©
Ġpor cen
bi da
Ġten dencia
Ġ9 926
Ġpan or
cri pciÃ³n
Ġdeclar atoria
Ġconsul tar
ĠEconÃ³m ica
TE GRA
Ġdirig ido
Ġacer car
Ġdenuncia do
Ġcarta gin
Ġine ficiencia
Ġpotes tades
Ġcuer pos
Ġamnis tÃŃa
Mo ciÃ³n
Ġafro descen
ĠAban gares
5 36
U AL
a dor
b or
Ġe fica
Ġpar ecer
ec os
Ġper diÃ³
Ġcu mplen
Ġsi ente
ĠA ra
menta do
ĠIN TEGRA
Ġnom bra
Ġsolici tando
Ġabsolu to
Ġaum enta
ĠSol ano
Ġdefen dido
Ġexisten tes
Ġpuer to
Ã©ndo les
Ġindic Ã³
Ġsome ter
Ġsubsi dios
Ġpier de
Ġexpec tativas
ĠAD M
Ġmaes tros
bon izaciÃ³n
Ġintercambi o
bb y
x il
Ġde jo
Ġa tien
Ġen rique
is n
Ġin capacidad
Ġesta fa
Ġb ola
ĠR ueda
Ġpa guen
ĠS ERV
Ġ20 8
ĠI MP
Ġvo temos
Ġmen ciÃ³n
ĠIn copesca
Ġdesarrol lando
pec ciÃ³n
Ġop tim
Ġconf un
Ġquin to
mÃ¡ ticas
ĠCOM ISIÃĵN
ĠTran si
Ġconvier te
Ġfamos o
Ġlici taciÃ³n
Ġsolven tar
ĠbÃºsque da
a ble
h vi
Ġn ic
Ġpr esi
Ġre cal
Ã© u
Ġap os
Ġac omo
Ġma ch
Ġimpor tar
Ġr uego
Ġfin cas
Ġcar tera
Ġpe trÃ³leo
til la
Ġ4 2
Ġaquel lo
Ġpropon ente
Ġenti en
IDAD ES
Ġdefini tiva
Ġrequer imientos
Ġescri to
Ġsuje tos
Ġcasti gar
Ġimpi de
Ġcomplica do
Ġlen gua
ĠincreÃŃ ble
ĠADM INISTRA
isn eros
3 7
8 14
Ġp enas
ti fic
ĠC isneros
Ġal tura
Ġpas aron
Ġco ti
ĠperÃŃo dos
Ġ8 8
Ġparticip a
Ã¡ndo lo
58 9
Ġresuel to
Ġtes is
it Ã©s
ĠVI H
Ġcapa z
ĠCuar ta
Dic ho
A gra
Ġe ficientes
Ġse pa
Ã± ez
Ġg al
ien das
ĠA c
ĠA zofeifa
Ġqu isi
Ġas al
Ġcre ci
Ġsegu ido
Ġbien ven
del ante
Ġpos e
ĠbÃ¡s ico
Ġconten idos
Ġobliga dos
Ġdivers idad
Ġindustr ial
Ġuniversi tarios
Ġpien so
Ġvigil antes
ĠÃ³ p
ĠINV ESTI
ĠViv ienda
Ġai re
pÃŃ zar
ĠINVESTI G
N ada
d Ã³nde
g Ã¡mos
z can
Ġp s
Ġh Ã¡
Ġdel icado
ĠC AN
cu erdo
Ġser ÃŃan
Es os
Ġvo taciones
ĠPR OM
ĠBan hvi
ĠCh an
ĠtrÃ¡ fico
Ġmane ja
Ġobliga torio
Ġdeja mos
Ġfelici to
Ġlec ciones
Ġimplic aciones
Ġintro ducir
Ġcontes tar
Ġconduc tas
af ir
ĠautÃ³n omas
ĠTRANSI TORIO
ĠPROM O
E DAD
I V
i fer
Ġpr ac
ari z
Ġto l
Ġme tieron
ru mp
Ġcambi ando
men tando
Ġescuch Ã©
Ġfal tas
Ġesper an
Buen os
Ġplata formas
Ġlar ga
Ġtribu tarios
tric es
Ġconsens os
59 0
Ġinsu ficiente
Ġtemp ran
Ġbarr as
Ġapel aciÃ³n
Ġreti ro
Particip aciones
Ġros tro
Ġcomparec encia
l y
p r
Ġd r
Ġl Ã¡stima
Ġcon tener
Ġpar ecen
bi Ã³
Ġlo bby
ĠA iza
ul in
Ġter ap
Ġtres cientas
Ġ7 0
cep ciÃ³n
Ġexplic aciones
Ġanun ciÃ³
Ġdesp ido
Ġservi dor
ian zas
Ġacre di
Ġcompor tamiento
C laro
D urante
T ICA
l le
Ã¡ ticos
Ġre afir
Ġtra ÃŃdo
vi ar
Ġver gon
Ġni Ã±a
qui tec
Ġllam an
Qu iÃ©n
Ġespecial istas
Ġ6 0
Ġfi la
Ġru bros
Ġempez ando
Ġproteg idas
Ġesti lo
ĠNi Ã±ez
Ġvin cula
Ġconcre tos
Ġpelig ros
Ġsuficiente mente
ĠPRO T
Ġconver tido
Ġagradecer le
Ġapren der
Ġsatisf acciÃ³n
Ġestuvi era
Ġcontun dentes
Ġabra zo
Ġcem entazo
ĠperiÃ³d ico
Ġinversion istas
S ab
e jas
i aciÃ³n
u p
Ġde tener
Ġl in
tor i
Ġac cionar
Ġte j
Es as
ver tir
ig na
po te
Ġorden Diputada
TR UC
Ġdirec tos
Ġaum entos
Ġcl ima
Ġdebi damente
Ġsuf rido
Ġliber acion
Ġconcre ta
Ġentrar le
Des puÃ©s
Ġporcenta jes
Ġfigu ras
Ġinclu ido
Ġaumen tando
Ġcontamin aciÃ³n
Ġnu tr
Ġescal a
Ġalcoh Ã³l
Ġsocio econÃ³m
ĠAdu l
ĠÃ¡n imo
Ġtrim estre
Ġvergon zos
d ero
g il
i te
Ġ ricos
Ġde tec
Ġla vado
un o
Ġen e
ĠP iza
Ġi guales
la ter
ĠA do
tes is
Ġta ma
Ġcons ejo
Ġcos ta
Ġan dar
ĠT al
Ġca u
Ġdiscu te
pi to
ĠsÃŃ n
Ġestu ve
ĠU SO
Ġrefor zar
Ġgas tando
Ġdeber es
TA S
Ġmin erÃŃa
Ġestabl ecen
Ġciudadan as
Ġahor rar
Ġpol icÃŃa
Ġocup an
Ġtom emos
Ġinmedia tamente
Ġrespetu osamente
Ġsorp resa
Ġsuje to
ĠelÃ©ctr ica
Ġger ente
Ġtex tualmente
ĠMig raciÃ³n
Ġtrascend ental
ĠConven io
Ġmarav illos
Ġcompl aci
Ġdiscrim ina
Ġpanor ama
D oÃ±a
T iene
ti el
ic ÃŃas
Ġre ce
Ġal usiÃ³n
Ġal ianzas
Ġg asta
pe les
Ġve j
Ġau xil
Ġtomar on
Ġcer rado
23 7
04 9
Ġhici era
50 0
Ġvalor aciÃ³n
Ġestableci endo
Ġpermitir Ã¡
OP ER
MP LI
Ġdirector es
Ġestrateg ias
Ġlec tivo
Ġmig ra
ĠCO OPER
Ġfirm Ã³
Ġtel Ã©
ĠcÃ¡r cel
Ġanex o
9 9
B IL
b u
c amente
Ġh ÃŃ
Ġin qui
Ġcom itÃ©s
tu vo
Ġdi f
la te
ĠF e
ĠJ UN
Ġven ÃŃan
Ġter cero
ina e
Ġ5 2
Ġlogr aron
Ġam bas
Ġpol icÃŃas
Ġgan ado
Ġconfor maciÃ³n
ĠEcon omÃŃa
Ġsolid aria
ĠAP M
Ġsex o
Ġaus ter
ĠÃ¡mbi tos
Ġpien sa
Ġtransfor mar
Ġguar da
Ġestan do
Ġjefa turas
Ġneglig encia
ĠRa fa
Ġextranjer os
ĠEDUC ACIÃĵN
D is
T er
p lica
Ġa z
Ġf lu
ica dos
Ġex amen
ier en
Ġma du
Ġsal Ã³n
Ġr ene
Ġsobre viv
ĠH o
Ġcol o
Ġ4 6
Ġorden ar
Ġpes e
Ġ9 5
Ġba ch
AD AS
Ġfuncion ar
Ġregu laciones
Ġinici Ã³
Ġexcl uir
Ġpron ta
Ġincre mentar
ĠCentro amÃ©rica
ĠContra taciÃ³n
Ġacor de
Ġdespro por
Ġagil izar
ĠPÃļBLICA S
Ġvesti duras
C iertamente
j u
Ġ er
Ġa bajo
Ġque den
Ġla tino
ti ciÃ³n
Ġcon me
Ġv icios
Ġdi era
ma mos
ĠD IS
Ġap lique
Ġar ran
Ġfor man
Ġgen u
Ġpues ta
Ġ7 2
Ġvotar Ã©
Ġautor iza
TI R
Ġexis tido
Ġexis tÃŃa
Ġsuper vis
ĠjurÃŃd icos
Ġpropi amente
Ġ200 2
Ġenor mes
tig amiento
Ġmul tas
Ġsien ten
t s
Ġs ano
Ġv io
Ġin ex
Ġcu bier
Ġti err
aÃ± a
min al
ĠU late
Ġrespe tando
Ġescuch amos
ĠdÃ© bil
Ġpatr onos
Ġanal izando
Ġinterpre taciones
Ġevas ores
Ġdescon fi
Ġmensa jes
Ġ200 9
Ġale ja
ha bili
Ġmodern izar
ĠCONSTITU CIÃĵN
Ġesque ma
ĠCN P
A delante
S obre
s ar
Ġ za
Ġa mar
Ġcon migo
om os
Ġap e
iz aciones
Ġmil itar
Ġar roz
ĠRe gu
Ġfue go
Ġcan al
ĠIn ciso
Ġhaci enda
Ġmejor amiento
Ġay udas
Ġvotar lo
Ġdirec tiva
ĠMon tiel
Ġlog remos
Ġconv oc
ĠPe pe
Ġaplica do
Ġconvers ado
Ġregula dor
52 28
Ġexter n
Ġinm ue
Ġinstal aciones
ĠViol encia
Ġtierr as
i tarios
on amiento
ti car
Ġh arÃŃa
bl a
Ġper ifer
ga ble
Ġdeb ÃŃa
Ġciudad es
ctu almente
Ġpu de
Ġpos ter
Ġpi diÃ³
Ġleg iti
Ġnaci Ã³
ĠagrÃŃcol as
Ġmanifi esta
ĠINSTITU TO
publ ic
Ġplus es
P re
i tivamente
o per
t Ã©n
Ġde ficiencias
in ten
Ġh ero
Ġsi ti
ĠM inae
Ġimp r
ri ta
Ġan im
Ġve to
Ġcomun icado
Ġ6 5
Ġsan gre
Ġren dimiento
Ġfi jar
cri to
Ġconcre tar
Ġprofundi dad
Ġdep osi
Ġelabor aciÃ³n
Ġcurul es
ĠÃŃ bamos
Ġrees tructuraciÃ³n
Ġcari Ã±o
Ġline amientos
Ġinqui e
c r
c or
Ġac tÃº
Ġdecir nos
tal la
ĠB a
Ġsen timos
Ġrep lante
Ġli ter
ĠEj Ã©rcito
Ġinici al
Ġpatr imon
ĠacompaÃ± a
Ġdebi endo
Ġobliga toria
Ġvin cul
Ġsir va
Ġcolec tivas
ĠturÃŃs tica
Ġconvier ta
Ġconvertir se
Ġhuman idad
Ġintermedi aciÃ³n
Res ulta
ĠXX I
ĠSERV ICI
c la
v ier
te les
Ġg racia
res as
ĠL or
Ġdes em
pe laciÃ³n
ĠF allas
Ġmedi cina
ĠCom paÃ±
Ġlab ora
Ġfi esta
Ġdefin e
Ġpropi e
Ġsignifica tiva
Ġtribu tos
ĠmÃŃn ima
ĠcrÃŃti cas
Ġconsol idar
Ġcombusti ble
Ġcompren der
Ġdisfru tar
Ġgi ra
Ġcem ento
Ġis la
Ġcontral ora
Ġrestr ing
Ġvej ez
4 7
Ġc es
Ġm isiÃ³n
Ġm ÃŃo
da je
Ġcon cil
Ġf re
Ġcom puta
ĠP ris
ĠC ENT
Ġal ber
Ġdes pi
Ġhay amos
Ġreal ice
ber os
tÃŃ n
Ġdeber Ã¡n
Ġexis tente
78 6
TU BRE
ĠOC TUBRE
Ġadul to
Ġrecordar les
ĠElec tr
Ġrector es
Ġvay amos
Ġcorr er
Ġdep Ã³
704 33
Ġabo gados
bel l
Ġati ende
ĠCAR LOS
Ġtama Ã±o
Ġrene go
u gu
Ġa ulas
ci ta
Ġm ental
ti to
Ġcon venciÃ³n
Ġcu ya
ĠA gr
Ġqui tarle
ĠB r
Ġco cin
Ġinv isi
Ġhu ecos
Ġrespec tiva
ĠPro ces
Ġur b
eci do
ĠMar ulin
Ġcome tido
Ġdisp ens
ĠVal verde
Ġexclusiv a
ĠAC TA
Ġindividu al
Ġespeci e
ĠTecn ologÃŃa
fin itivamente
ĠHu bert
ĠAy A
ĠTransi torio
ĠAdo lesc
Ġdesconfi anza
a g
h or
p lic
Ġl is
Ġc obi
Ġre tras
ĠC Ã¡mara
ĠS OS
Ġimp er
Ġimp osiciÃ³n
Ġac tiva
Ġpre c
Ġdeci de
Ġman tienen
Ġcol abora
ona tel
ĠAl can
ĠAl pÃŃzar
Ġdirec trices
Ġcomple ja
Ġconven cidos
49 8
Ġpropon entes
Ġmanifes tÃ³
ĠmÃ© dica
Ġpudi Ã©ramos
Ġcerr ando
Ġpuer tos
ĠmÃŃn imos
Ġsuce der
Ġatra ves
Ġtor no
Ġrespetu osa
Ġpaque te
Ġbenem Ã©
ĠEuro pa
8 2
f onos
en timiento
Ġen torno
Ġf lo
ĠP ensiones
ĠA le
Ġac ord
Ġemp u
ĠCon ce
Ġinc om
Ġrec ar
Ġfiscal izar
Ġren tas
Ġhi jas
Ġprom esa
Ġcele bramos
Ġdistr itos
Ġanun ciar
Ġagricul tor
Ġopera doras
Ġempren dimientos
ĠREG UL
Ġirre gul
Ġpertin ente
Ġpros per
Ġinca pa
ĠSUSCRI TO
Ġresi du
ĠSOS TEN
T engo
s mo
es es
Ġde bili
Ġl l
Ġre Ãºn
ĠN Âº
Ġsu ger
Ġres umen
Ġdis par
Ġus ando
Ġver de
Ġca pitales
Ġsen tar
ĠCh aves
Ġsign ific
Ġpen ales
UE L
Ġdisp osi
Ġobserv aciÃ³n
Ġveh em
Ġasis tencia
Ġsubsi dio
Ġinvier te
ago t
Ġteletra bajo
ĠPris cil
2 59
L amentablemente
y u
z quier
or demos
te ar
in aciÃ³n
Ã© mos
ten a
Ġi zquier
era to
ĠF odesaf
Ġsal iendo
Ġcan ciller
Ġmayor ÃŃas
Ġoportun amente
ill erato
Ġhablar les
Ġigual itario
Ġexis tan
ĠBan ca
Ġcul tivo
Ġpermitir ÃŃa
Ġequi tativa
00 0
Ġafecta da
ĠECONÃĵM ICA
Ġtele f
Ġenfrenta mos
ĠCONTRA TO
Ġsue Ã±o
Ġat Ãºn
ĠlÃŃder es
Ġron da
419 23
Ġalegr ÃŃa
Ġmacro econÃ³m
Ġenm ienda
ĠLor ena
T ampoco
t bol
u den
Ġp unta
un dan
cu Ã¡les
vi mos
Ġmedi anas
Ġcontra taciones
ara gÃ¼
Ġob ten
Ġda ba
Se gu
Ġcambi ado
20 18
Ġlog ran
eran cia
Ġdisp ensa
17 4
americ anos
Ġatra vi
ĠindÃŃg ena
Ġraci onal
Ġequival ente
Ġtarje tas
ĠApro baciÃ³n
Ġasocia dos
Ġasf al
Ġterap Ã©u
ĠPriscil la
6 2
D OS
p osiciÃ³n
Ġd roga
re tarÃŃa
Ġdi plom
ĠN av
Ġb u
Ġsu mo
der os
Ġimp ar
Ġres pi
Ġpl u
Ġpre fer
Ġ201 1
ENT OS
Ġrec ord
ĠIn s
Ġestar Ã¡n
ĠEl ian
Ġactu ado
Ġplante amos
Ġcumpl iÃ³
TR IBU
Ġrefer ente
vers idad
mÃ¡ tico
Ġho ja
Ġexcep ciones
Ġdesp la
Ġgobern anza
Ġina ugu
Ġcontradic ciones
fi que
Ġconstituy ente
ĠpÃ¡g inas
ĠestratÃ©g ica
Ġquis ieron
Ġbach illerato
ĠProces al
b viamente
i tas
u lado
Ġs ana
to ya
Ġen tero
Ġse mej
Ġcon ozca
Ġpro cura
ĠR el
ĠG ol
ER ICA
ver siÃ³n
Ġej Ã©rcito
den cias
amble as
Ġextra Ã±
Ġaten dido
Ġsen timiento
Ġapoy amos
Ġreci entes
Ġlu ces
ĠPR IM
BL ES
Ġide ologÃŃa
Ġinten tar
AM ERICA
Ġestableci das
Ġexpres ado
ĠMa ta
bern am
ĠPRESUPUES TARIO
Ġdetal les
Ġpun tuales
Ġpare ja
ĠTo dos
Ġpreci sa
ĠMINIS TRO
ps y
ĠRafa el
ĠAdolesc encia
I J
R EN
f ÃŃa
an ÃŃa
Ġcon lle
Ġv ieron
ÃŃs imos
ĠS em
iz on
ĠF ra
Ġimpor taciÃ³n
Ġvo te
za dos
Ġcor riendo
Ġposi tivos
Ġcam pos
Ġau dio
Ġfuncion ando
Ġ8 1
Ġ8 2
ĠMon te
ĠMon toya
eci Ã³
Ġseri amente
ĠSu ge
Ġadu an
ĠespecÃŃ fica
Ġvisi tar
ĠIC T
Ġenvi Ã³
Ġvir tual
Ġatra c
ĠMA G
Ġestima dos
Ġesco g
Ġdedica do
Ġestric tamente
Ġprocur ar
Ġcuatrien al
TAN TES
Ġnic aragÃ¼
A CI
d onos
Ġe co
Ġh ec
Ġse cu
Ġre e
Ġin fer
Ġcom entar
ĠC iencia
ia y
Ġan o
Ġpas amos
tÃŃ an
Ġad vir
Con tin
Ġsocial c
Ġentre v
ARI OS
Ġpreocup an
Ġtu vieran
Ġviol entar
Ġ6 3
Ġaf il
Ġjusti fic
Ġprop ici
Ġpreten dÃŃa
eci endo
Ġadul ta
Ġtuvi Ã©ramos
Ġata que
Ġfa ja
Ġempi ez
para dos
Ġinci dencia
Ġdue Ã±os
Ġfren ar
Ġinjus to
Ġcerc ano
Ġalimen taria
Ġtesti gos
Ġburoc racia
ĠConce jo
Ġhec tÃ¡
F O
M ientras
h esiÃ³n
i Ã©ndose
y os
os idad
er ro
Ġa j
Ġes encia
ĠP la
ĠC amp
Ã©n dum
Ġhac ÃŃan
Ġcons um
Ġca e
OR ÃįA
Ġcol ap
Ġpe da
ĠPar que
Ġplan illa
Ġir se
Ġcier ta
Ġ9 8
id ro
IS TE
Ġdefin ido
Ġpol Ã©m
Ġbrin da
Ġsencil la
Ġenvi ado
ĠespecÃŃfic as
Ã©ndo lo
Ġconvers aciÃ³n
Ġenerg Ã©
lu encia
Ġfuerte mente
Ġprov ocar
Ġexpor taciÃ³n
Sol o
ĠPr omo
Ġcuri oso
Ġdeterior o
Ġerra dicar
Ġdiagn Ã³s
ĠCamp bell
I EDAD
Ġa is
Ġe duc
ic es
ĠN ues
ĠR om
Ġex terna
ĠS ISTE
Ġac tivo
ĠDE RE
Ġtra yec
ĠF ISCAL
Ġapro pi
Ġqui ta
Ġcol aciÃ³n
ĠeconÃ³m icamente
Ġllam adas
Ġproduc tivas
Ġinv al
ĠseÃ±al amientos
Ġescuch e
Ġru tas
As imismo
Ġaca bo
76 9
Ġtendr ÃŃan
Ġgolpe ar
Ġapar ece
Ġenerg ÃŃas
Ġgu bernam
Ġinvestiga dora
Ġconvoca toria
Ġdim ensiÃ³n
Ġinmun idad
AMERICA NO
d al
i qui
en tro
is elle
om bia
Ġf en
Ġno ches
ĠE psy
Ġto cado
im ento
ĠDE POR
ĠG ar
ĠEs os
Ġcor rup
ĠB ar
tin ciÃ³n
Ġlegisla dora
resid entes
ĠPR OC
Ġcri tica
Ġaf ron
Ġfinal izar
ĠCh ile
Ġestable zca
Ġju gando
Ġencu esta
Ġincor rec
ĠPÃºbl icos
Ġgrave dad
Ġocur riendo
Ġmov imientos
Ġnega tivamente
Ġvir tuales
ĠPrim era
BI TANTES
Ġsel ec
cina i
Ġhor izon
Ġcla ve
Ġcompon ente
ĠHA BITANTES
ĠcientÃŃfic os
8 39
ĠC laro
Ġg eo
ĠD omin
Ġcomp ara
Ġac aso
iz amos
Ġpre cedente
Es tÃ¡
Ġreal izaciÃ³n
za das
Ġvi deo
si as
va dor
Ġdu pl
Ġ5 5
Ġrefer Ã©ndum
Ġtermin Ã³
Ġtermin ado
Ġ10 7
Ġcompar aciÃ³n
Ġesti mado
Ġbre chas
ĠseÃ±ala ba
Ġperman entemente
Ġsabi do
ĠfÃŃs icas
Ġmig rantes
Ġsumar me
ĠcientÃŃ fica
ĠCona pe
Ġproce de
CH O
Ġefica z
Ġfre cu
S u
l ig
ar les
Ġs Ã³lo
Ã³ cra
Ġen can
Ġun an
Ġpar ar
Ġf res
Ġsu pues
du zca
ĠDE N
Ġcre ce
Ġemp obre
Ġsal ieron
Ġem isiÃ³n
Ġbas ado
Ġbas ura
Ġprimer as
Ġ6 2
Ġveinti Ãºn
Ġbr il
Ġsex uales
li quen
Ġexon era
Ġmanten ga
Ġpien san
ĠFINANCI AR
Ġarm on
Ġabsur do
Ġcamin ando
ĠescÃ¡nd alo
ĠAgro pecu
ĠhÃŃ dr
Ġsupues tamente
4 5
g ro
r osa
y e
is tencia
Ġv ÃŃn
Ġv icio
Ġ21 9
par ti
Ġactu alidad
Ġsab ÃŃan
Ġfal lo
Ġaproba dos
Ġconven cido
Ġlar gas
Ġincluy Ã³
Ġases orÃŃa
Ġcant onal
Ġcuestion ado
Ġeval uar
ĠCol ombia
Ã¡m onos
Ġrequer ir
ĠcrÃŃti co
Ġcolec tivo
AJ E
ĠMA YO
Ġadquir ir
Ġesco ger
Ġindign aciÃ³n
Ġrecur rir
Ġconstante mente
Ġcobr an
Ġis las
Ġconfidencial idad
Ġconviv encia
Ġtempor al
Ġbols illo
ĠFamil ia
Ġpap Ã¡
Ġatien den
Ġree leg
0 7
f ÃŃo
i bre
ci r
Ġs ensa
Ġen c
la ce
ĠR O
ÃŃs os
Ġso bra
ces os
bil izaciÃ³n
ver sa
ĠV amos
Ġsen tencias
Ġllam Ã³
Ġdu ro
Ġay ude
Ġseguir Ã¡
Ġmer can
Ġfuncion arias
ĠtÃ©cn icamente
Ġ6 4
Ġhabi endo
Ġ11 6
49 79
Ġtribu to
Ġtecn olÃ³gica
Ġenfren tando
Ġaudi torÃŃa
Ġdispon ibles
Ġcaracter izado
Ġconsci ente
ĠestratÃ©g ico
VI EMBRE
Ġsecun daria
Ġquisi Ã©ramos
ariz aciÃ³n
Ġizquier da
V er
Z O
h acer
i tor
ti bilidad
Ġha ble
dad as
ĠA SO
Ġcos tado
Ġas ambleas
Ġr esid
sa dos
Ġco pia
Ġacu dir
Ġexp lÃŃ
Ġra dio
Ġval ientes
Ġplante an
Ġtu te
Ġmin im
Ġobje ciÃ³n
âĢĶ ,
Ġcul turales
ĠPresid ente
Ġaprovech ando
Ġestableci da
Ġincluy en
Ġactual izar
Ġconsul tado
Ãī DI
Ġocur rido
Ġconj unta
Ġindic an
Ġsustitu ir
Ġdirector a
Ġinclu idos
Ġreco ger
ĠNO VIEMBRE
ĠGran ados
Ġexplica do
Ġdespe dir
ĠDeclar aciÃ³n
gru encia
Ġconsolida ciÃ³n
D AR
T al
d ÃŃamos
e tas
Ġun e
Ġpro hÃŃ
ĠM er
ĠM Ã¡s
Ġso Ã±
Ġso por
ĠG AM
ĠI s
EN DA
Ġactu aciÃ³n
IS I
Ġ7 9
Ġgra tu
ĠPR E
Ġescuch en
Ġ8 3
Ġdirec tivas
Ġcorrespon da
ĠÃ¡ gil
36 6
26 1
55 2
Ġreferir se
Ġbar co
Ġdesarrollar se
ĠmÃ¡ xima
Ġconcen traciÃ³n
Ġfil as
Ġtrami taciÃ³n
Ġrom per
Ġarch iv
Ġretr oc
Ġinvir tiendo
ĠMay or
Ġdelincu encia
ĠUste d
8 9
Z AS
Ġp iso
Ġl isto
Ġc Ã©
ci ando
Ġin tr
us te
le tas
der as
Ġimp u
Ġca os
ĠCon c
cional idad
min a
Ġviv iendas
Ġnorma tivo
Ġfal sa
Ġsuper iores
oco op
Ġdeclar a
Ġcuan tos
Ġanal izado
Ġincon ven
Ġvin ieron
Ġdispon er
Ġsuscri to
Ġexter no
Ġpronunci amiento
Ġreglam entos
Ġaler ta
Ġalquil eres
Ġequivoca da
taril lados
ĠPROP IEDAD
ĠhectÃ¡ reas
Ġfen Ã³m
A pro
t Ã¡ndose
Ġa den
on ado
Ġm Ãºs
al e
Ġpara ÃŃsos
Ġsu minis
im idad
Ġdes alo
Ġcomp a
Ġcomp ete
ens o
Ġcons entimiento
Ġpre f
Ġhacer les
gr Ã¡
Ġab ar
Ġdar Ã¡
Ġba jas
Ġpobl adores
Ã³g ico
Ġaproba das
Ġrecor demos
gen es
OM IN
79 4
Ġform ulaciÃ³n
08 0
Ġvac ÃŃos
Ġexter nos
Ġfavora bles
Ġhar Ã¡
Ġindividu ales
Ġaumen tÃ³
ĠTRABAJ AD
Ġtaba co
minal s
habili taciÃ³n
ĠElectr icidad
h u
h ue
Ġen vÃŃa
Ġin to
ĠP ue
Ġal zar
ter nidad
ĠL es
ĠN or
Ġsu puestos
gu ardo
ĠF un
ĠpÃºbl icamente
Ġver ificar
ĠestÃ¡n dares
Ġrec ol
Ġestudi antil
ĠEn tre
Ġmer amente
Ġ5 7
Ãºm ero
Ġide olÃ³gico
Ġcompar timos
Ġpedir ÃŃa
Ġcontribu ciones
ĠPolÃŃtico Diputada
Ġhon rar
Ġbar cos
ĠCo operaciÃ³n
Ġfac tor
ĠAcu eductos
Ġopera tivos
Ġrespal dar
ĠFINAN ZAS
Ġveh ic
Ġdestru ir
Ġeviden ciar
ĠREC UR
glesi a
Ġcris ti
Ġquie bra
Ġperifer ia
ĠMonte verde
F EC
N i
v ando
Ġde bilitar
Ġl istas
tr ales
Ġre gistra
di versidad
Ġdi alo
Ġper dieron
ir us
Ġres guardo
Ġcons iste
Ġan cho
Ġus a
Ġins ul
Ġfor o
ech os
Ġad vier
av irus
Ġtrans mi
Ġplan eta
Ãį O
ĠSe tena
Ġdo tar
Ġ7 1
Ġfal tan
Ġfal encias
Ġpersonal mente
Ġbusca mos
Ġdetermin aciÃ³n
Ġmode los
Ġocas ion
Ġasum ido
Ġcomprome tidos
Ġatra cciÃ³n
Ġmanten iendo
Ġagu inal
Ġjue ga
Ġinm ensa
ĠTecn olÃ³gico
Ġsindic al
Ġencaden amientos
Ġmagn itud
N ecesitamos
R RA
f ito
s er
Ġd ada
ar e
on avirus
ta tivo
an da
Ġen men
Ġre baja
ari zar
ĠP Ãģ
ca hue
Ġex en
Ġdes f
der aciÃ³n
Ġman eras
ce les
Ġan g
Ġan dan
ĠI I
Ġca fe
Ġra tifica
gn a
vo ca
Ġplante ada
Ġdich os
Ġcl ÃŃn
In cluso
Ġaca bamos
Ġofici os
Ġobs tÃ¡
Ġreca udar
Ġfortale za
Ġconoci endo
Ġllen ar
Ġotor ga
Ġagradecer les
Ġadver tido
ĠInf raestructura
ĠacadÃ©m ica
Ġtel ecomunicaciones
Ġreconoc emos
Ġirrespe to
Ġdespilf arro
Ġabaste cimiento
ĠSegre da
Agra dezco
ĠPROT ECCIÃĵN
Ġconme mor
ĠASO CI
ĠPÃģ RRA
P er
Y EC
d ario
f os
i ten
v encia
es te
ÃŃ cula
Ġin co
Ġal ter
Ġal cahue
ĠE d
ĠL I
la das
Ġdes cri
ĠS agot
Ġpre viamente
Ġcor tes
Ġbi o
Ġcol Ã³n
ĠO IJ
Ġ19 43
Ġ9 7
ĠseÃ±al amiento
RE G
Ġpatr ono
Ġhi ja
Ġsuf rir
Ġch e
Ġher mos
Ġdirig ida
Ġcontar les
Ġconsidera do
Ġresuel va
Ġder ro
Ġfron tera
ĠfÃŃs ico
Ġexpor taciones
Ġfamos a
Ġsacri ficio
ĠImp uesto
ĠAp oy
ĠCam pos
Ġrelaci onadas
Ġcic lo
D ER
F ue
V AR
p res
u b
v il
Ġp le
Ġque damos
is ten
aci dad
Ġf an
ter ÃŃa
ĠA cos
ĠA Ãĳ
ĠR Ã©gimen
ĠM IL
Ġta x
ĠG e
ri mos
titu des
Ġpre mi
ĠEs tu
vi do
ĠF ernÃ¡ndez
ja mos
duc en
Ġparti cul
Ġhech a
Ġreg ir
Ġcal or
Ġempres ario
ona to
ĠIN F
Ġfi el
Ġoblig ado
Ġreiter adas
Ġpromo viendo
Ġdesa fÃŃo
44 0
Ġconoci da
Ġcomen tario
Ġcomen tarios
Ġinsis tido
Ġcontribuy e
Ġoper ar
Ġeven tos
Ġcredi ti
icep residente
Ġofre ce
Ġcapa ces
Ġton ela
Ġfem en
Ġcontemp lar
Ġsil ves
Ġcompens aciÃ³n
Ġemprende dores
Ġexdiputa do
Ġang usti
VAR ADO
R eci
qu ÃŃa
Ġa puesta
Ġque d
an ca
Ġy endo
Ġen tran
Ġcon ge
Ġre vertir
ĠC AP
tor ÃŃas
ĠF err
Ġaten didos
tur os
Ġviol aciones
De bo
ĠAL VARADO
Ġincluy a
Ġelim ina
Ġinvi tar
Ġexon erar
Ġconvo que
Ġsur ge
92 28
ĠDa tos
Ġpreci siÃ³n
Ġinsta lar
Ġaliv io
Ġdefien de
ĠSec retarÃŃa
Ġauster idad
Ġirregul aridades
ĠFerr er
i e
p amos
v amos
Ġp ico
er ÃŃas
Ġm ÃŃa
ÃŃ dos
Ġse pan
Ġre ve
Ġha bili
ĠC aÃ±
Ġg re
ien es
Ġpre ju
Ġus an
Ġag endas
Ġcar os
Ġinver tido
ĠUn o
Ġverdad eros
Ġref u
Ġinf luencia
Ġsan cion
Ġrespec tivo
Ġaplic an
36 55
Ġhom ena
ap ro
Ġsub ra
US TI
TOR IA
Ġases ina
Ġasign ar
ĠNic oya
Ġextre mos
Ġsatisf acer
ĠCONTRA TACIÃĵN
704 3
Ġpesqu ero
ĠORG AN
ĠSEGUN DA
Ġadquisi ciÃ³n
) :
1 79
T P
a dora
d ece
Ġm amÃ¡
Ġh idro
ĠP IN
Ġo ÃŃr
di ble
Ġdi ri
le ta
Ġemp a
Ġr ÃŃos
Ġmedi r
TI VO
Ġpregun tarle
Ġ10 0
Ġrevis ando
Ġsub san
EC H
Ġobs ervar
Ġcome ter
timos amente
Al gunos
Ġconcep tos
Ġcoinci dimos
Ġbl in
Ġeta pas
Ġlimi tado
Ġtrascen dencia
Ġrelevan tes
Ġdomin io
ĠPRESID ENTE
Ġsincer amente
ĠINFORM E
U ER
c amiento
r or
er te
er idad
Ġun iÃ³n
Ġpr Ã³r
Ġcom itÃ©
cu lados
Ġper pe
ter os
Ġsu be
Ġac cion
Ġas amblea
Ġmo ver
ul ando
ur ar
ĠB EN
Ġproduc en
Ġaprobar lo
Ġrecibi eron
Ã³r m
ĠQ UES
Ġro bus
Ġconten edores
Ġhos tigamiento
Ġincen tivo
Ġdispon ible
Ġempren der
Ġreclam o
Ġcua d
ĠelectrÃ³n ico
Ġcolabor ar
Ġdenunci ando
Ġcel eridad
ĠcÃ¡r celes
ĠAdministra tiva
Ġdenomin ado
Ġexminis tro
mag ÃŃnense
ĠalcohÃ³l icas
Ġcau te
Ġpropie tarios
Ġhomena je
ĠQUES ADA
0 38
6 26
b ÃŃ
Ġs entado
te ga
ÃŃ m
Ġre duce
ol es
ma da
Ġle ÃŃdo
Ġdes cal
Ġdes mante
oc as
Ġte cho
for midad
Ġcre yendo
gar se
Ġsal gan
Ġsal uda
Ġdesarrol lados
ĠCom itÃ©
Ġdec om
PE LACIÃĵN
Ġconf usiÃ³n
TI VA
De finitivamente
Ġgaranti zando
Ġur ban
Ġdesemp eÃ±
Ġprom ul
Ġenti enda
Ġenfren tan
Ġgolpe ado
Ġsani tario
Ġpare jas
INTER PELACIÃĵN
Ġdificulta d
Ġvoc aciÃ³n
Ġorgullos os
Ġsuspen der
Ġintelig encia
Ġmedicin as
Ġsenta dos
Ġirregu lar
pr iv
ĠAlcan tarillados
Ġatravi esa
ĠGol fito
Ġempiez an
Ġde bilidades
ol ios
Ġin ti
Ġal f
ĠA M
Ġsu mas
Ġproyec ciÃ³n
Ġtra jo
Ġdis tor
ĠJ o
Ġne fas
Ġcal lar
Ġviv a
Ġplante amientos
Ġavan za
ĠGu a
Ġponer lo
Ġ6 6
ĠdÃ³ lar
Ġfir mas
ĠSocial es
Ġreiter adamente
Ġpropi edades
Ġsub je
Ġprior itario
Ġpubl icado
Ġtecn olÃ³gicos
Ġauto bus
Ġasegu ra
Ġvia jes
ĠJu ventud
Ġesc Ã¡n
Ġrecha zar
eminis ta
ĠPers ona
Ġperten ece
ĠCuar to
Ġingen ier
Ġlib ro
Ġprovoc ando
Ġrigu ros
ĠFlor ia
Ġtrayec toria
ĠConc esiones
Ġvehic ular
R IN
Ġc Ã³
da cciÃ³n
Ġcon d
Ġf Ã³rm
ch in
Ãº a
Ġb os
Ġme tido
du ro
ĠF onatel
Ġsal a
Ġob e
Ġpla yas
Ġfu turos
Ġcomun ales
Ġtrabaja mos
man ente
ĠSegu ros
Ġru bro
Ġsos p
Ġtranspar entes
Ġconsider aciones
Ġrealiz ada
Ġanun ciado
Ġimpuls ado
ĠMa duro
Ġsuce da
Ġmantener se
Ġajus tar
ĠPRO YEC
Ġdispon e
Ġimag ÃŃnense
Ġimplic ar
Ġtrib unal
Ġusu arias
Ġprovo cado
Ġtitu lar
Ġdomin go
ĠelectrÃ³n icos
Ġsepar aciÃ³n
Ġpension ados
Ġprotes ta
Ġeva dir
Ġsupl entes
Ġvehem encia
ĠterapÃ©u tico
8 3
S E
b ur
m ill
t Ã¡ndole
Ġl lu
ci erro
Ġh un
Ġin yec
am u
Ġsu pon
ĠM ENS
gis tro
Ġcos tar
ĠEs as
Ġins er
Ġmi re
Ġextra Ã±a
Ġci elo
Ġreg lado
arÃŃa mos
ĠPa ul
Ġ6 1
Ġ6 9
AN ÃģLISIS
Ġabr iendo
Ġaprobar se
ita les
Ġide al
Ġhom icidios
Ġreiter a
mÃ¡ ticos
Ġapor tado
Ġquedar se
Ġconfor man
Ġdistribu ida
Ġvir us
Ġcap tar
ĠÃŃn do
Ġvac aciones
Ġinvoluc radas
Ġatras o
Ġadquir idos
Ġabo gado
Ġapla udi
Ġmicro emp
839 28
ĠMENS AJE
D Ã³nde
Ġde tr
Ġc Ã³digo
ta dores
bi endo
ĠP OS
Ġcomp lic
Ġap un
Ġproyec ciones
br an
ĠI AF
Ġinter rump
ĠT r
ĠT EC
Ġvo ta
Ġqui tando
ĠRe dacciÃ³n
ĠB is
Ġcol oca
Ġcar ne
Ġpe ticiÃ³n
dic amente
Ġefec tu
AD OS
ĠCON VEN
Ġrepresenta das
Ġprecis ar
dente mente
ras il
Ġrefle jo
ĠacompaÃ± ado
Ġerr Ã³n
Ġespera do
Ġocur ren
Ġmuer tes
Ġdepen dencia
Ġorig inalmente
Ġemi tiÃ³
Ġentr ando
Ġimpon e
Ġpaci ente
Ġreco g
Ġdestru cciÃ³n
Ġreno var
Ġreno vaciÃ³n
Ġmonop olio
Ġpac ÃŃ
Ġdivor cio
Ġasfal to
ĠDEPOR TE
ĠIAF A
2 56
V IL
ar ch
Ġa de
ta zo
ic emos
Ġre pu
Ġre gresi
Ġpro ta
Ġb el
Ġpa cto
Ġdes n
Ġimp re
iv in
ĠF RAN
Ġinc omp
Ġsen o
Ġrecon s
Ġrespe ta
Ġfal l
ĠCh ina
vech o
Ġllevar on
Ġcomer cios
Ġcuesti ona
Ġsuf re
Ġdepen diendo
Ġindic ando
Ġtor pe
ĠSEÃĳOR A
Ġignor ar
Ġlib res
ĠMig uel
QU I
Ġtarje ta
ĠBol aÃ±os
Rec ordemos
Ġnum er
ĠhÃŃdr ico
Ġretroc eso
Ġdetr imento
5 22
B A
Ġp in
Ġde bilita
ci ende
Ġv aci
Ã© ro
Ġpor tu
Ġal ianza
Ġg ar
Ġme te
Ġpo dremos
ga dora
Ġas us
Ġan uales
Ġca yendo
Ġmi rada
ĠIn dustr
ĠIn amu
ĠPar ÃŃs
Ġgas olina
ĠSe gundo
Ġay uden
Ġdich as
ĠGu Ã¡
Ġtomar se
Ġnego cia
Ġcer can
Ġconstitucional mente
Ġrecor tando
Ġsub sis
Ġsuf ra
78 0
Ġdefens ores
Ġcomprome ter
Ġadver tir
Ġcuen ten
Ġconstruy e
Ġremuner aciÃ³n
ĠautomÃ¡ tico
Ġbendi ga
Ġunan imidad
8 10
g amiento
v io
Ġa tes
as es
tr ica
Ġpro gres
Ġesta tu
ĠD o
Ġsu pre
ici t
Ġpres ervar
ĠEs tÃ¡
ĠRe gistro
Ġposi tivas
ĠB ono
Ġdich osamente
Ġfr us
Ġ6 8
Ġlogr ando
ĠSo bre
ĠSol o
Ġrepresenta mos
Ġdistr ibuy
Ġende udar
Ġprev isto
ĠBuen os
ĠfÃ¡cil mente
Ġconcep ciÃ³n
ĠPatr onato
Ġsens ibilidad
Ġdesta ca
Ġdispon ibilidad
Ã³l ico
Ġempi ece
Ġfacil idad
Ġeven tual
Ġfacul tad
Ġcomplica da
Ġapre mi
Ġdespro teg
Ġdecre tos
Ġreconoc en
Ġdefien den
ĠdomÃ©s tica
Ġinjusti cias
ĠJurÃŃd icos
Ġcay Ã³
Ġacostum bra
Ġporcen tuales
ĠRECUR SOS
F R
P AR
Ġde fec
Ġen tramos
la mos
Ġsu ya
Ġex ceso
oc al
ĠB en
TR I
Ġsolici ta
Ġejecu tado
Ġintegr ar
Ġaprovech o
Ġproteg e
Ġexper iencias
Ġfortal ece
Ġvuel ta
Ġvuel ven
44 49
Ġconta cto
Ġconvers ando
Ġconvers aciones
ĠCu ido
Ġopera dores
Ġadver tencia
Ġperfec to
Ġine ficiente
Ġtele visiÃ³n
Ġbreve mente
ho w
Ġpie dra
Sol amente
Ġestim aciones
Ġcomplemen tarias
ĠDiputa do
Ġguanacaste cos
Ġcartagin eses
gÃ¡mos lo
Ġdisposi tivos
ĠPÃģRRA FO
4 2
C ada
d icos
u dos
Ġs esion
re emos
da da
Ġg ros
Ġpo dÃŃamos
Ġsu erte
Ġdes ea
tor al
Ġtra igo
Ġdis tancia
Ġcons te
Ġan to
Ġsus tenta
Ġar du
ven ciones
Ġcor reo
ĠB rasil
Ġextra cciÃ³n
Ġprim ario
paÃ± a
Ġmon ta
UL TURA
Ġrevis e
ĠSu tel
CION ES
Ġconfor mar
Ġvuel van
Le y
Ġescen arios
ĠCentro americano
it ariamente
Ġasu ma
Ġdedic aciÃ³n
ĠcientÃŃ fico
Ġbur la
Ġimpro vis
Ġdiscipl ina
ĠCR ÃīDI
Ġrecuer da
Ġperiod ista
UM ENTO
Ġcrimin alidad
Ġvolv emos
Ġvaria bles
Ġaeropu erto
Ġjurisdic ciÃ³n
public ano
Ġprosper idad
Ġenmen dar
ĠÃŃndo le
A unque
a je
Ġen o
Ġen tu
Ġun i
Ġhac ernos
Ġmo tor
Ġman tenido
per ci
dr Ã¡
Ġab ejas
ĠO jalÃ¡
Ġplan ifica
Ġquer idos
Ġcambi Ã³
Ġcuatro cientas
Ġpes os
Ġdici Ã©ndole
Ġ7 7
Ġcomprom ete
Ġpan el
ID ACIÃĵN
Ġaplic arse
Ġpos posiciÃ³n
Ġaum entado
Ġinici almente
Ġ10 8
Ġpatr ul
Ġexper im
70 3
Ġrecordar le
Ġdirig entes
Ġasum iendo
MI ENTOS
Ġsuma mos
Ġinvoluc rados
Ġnaci do
Ġcalle jero
Ġquiz Ã¡
Ġmodific ando
ĠclÃ¡us ulas
ĠplÃ¡s tico
ĠfenÃ³m eno
N A
e jos
Ġde roga
or m
Ġe pi
al idades
ari edad
Ġlas timosamente
Ġpro pu
us a
Ġsu icidio
Ġpres tan
ĠEs tos
Ġar quitec
Ġcor ta
Ġestu vieran
tur ar
Ġcar as
tÃ³ r
Ġtrans curso
Ġpens amos
Ġrecon ozca
Ġefec tivas
Ġ9 3
Ġavan cemos
Ġri ge
Ġmon itor
Ġsolici tÃ³
ĠÃ¡ r
Ġconven cer
Ġdeclar ado
Ġlar gos
Ġsignifica do
Ġconsider e
Ġprom ueve
dicional mente
Ġorig in
Ġimposi bilidad
Ġ199 4
Ġagu an
Ġextran jero
Ġdisf ra
Ġconden a
Ġorien taciÃ³n
Ġpier den
An tes
Ġherm ano
Ġdevolver le
Ġimpro cedente
Ġreba jar
Ġsober anÃŃa
Ġdiscul pas
Ġcreci ente
ĠPROMO CIÃĵN
Ġdupl icidad
O tra
i que
v amente
Ġs how
Ġo poner
Ġal ine
ue lo
ue los
br al
Ġinfor mado
Ġad hesiÃ³n
ĠCom un
Ġ9 2
Ġante cedi
Ġpresenta dos
Ġev ento
Ġfi ja
Ġ10 6
Ġaca bÃ³
ĠSal vador
Ġencon trÃ³
Ġdebi da
Ġfortale ciendo
Ġbanca das
Ġatra er
ĠPer manente
ĠPatr ia
Ġpun tualmente
Ġdedic an
Ġdemues tran
Ġreduci do
Ġrelig iÃ³n
Ġapel l
Ġexcu sas
ĠFinanci amiento
Ġprem io
Ġvendr Ã¡n
Ġembara zo
Ġliberacion ista
Ġsemej ante
ĠdiagnÃ³s tico
Ġinco her
E L
l Ã¡n
es tas
Ġen re
Ġun idades
Ġdel ic
ĠC AF
Ġcu ente
Ġsi mp
Ġman dan
vi dentemente
uev en
Ġver emos
Ġca ÃŃdo
Ġlle ven
Ġcor onavirus
Ġdiscu tiÃ³
Ġnecesi tando
Ġprim aria
ĠDe bemos
Ġpens emos
AL IZ
Ġactu ando
ĠAl f
Ġrespe te
AD ORA
ge lo
Ġcomple tar
Ġtermin e
Ġdeclar Ã³
Ġaclar aciones
ĠPL A
Ġactual izaciÃ³n
Ġemple ado
Ġrecom ienda
Ġileg alidad
Ġagre ga
cel ly
ĠpropÃ³ sitos
Ġil us
Ġedi ficios
ĠFran cia
ĠdÃ©ca da
Ġrela tivo
Ġfirmar on
Ġmul ta
Ġpertin entes
Ġati enda
Nues tra
Ġreza go
Ġsalva guar
ĠSuge f
0 18
A ctualmente
m amente
v emos
es en
Ġde ud
ti dades
Ġper vers
ĠL ima
Ġex ci
Ġdes ar
ĠM ONE
Ġtra en
Es pero
Ġcre y
Ġag encia
Ġdos is
tru ir
Ġlegisla doras
Ġcar tas
Ġci to
Ġresponsa blemente
Ġ5 9
Ġcen trales
Ġelec to
Ġpregun tÃ©
man ia
Ġembar c
ĠInter americano
Ġsac ando
Ã¡ndo los
Ġdestin ado
Ġho tel
Ġapor tando
Ġmanifes tarse
Ġocur rir
Ġreflex iones
Ġdiferencia do
Ġagr esiÃ³n
ĠLEGISLATI VO
IM EN
ÃŃcol a
Ġreclam ar
Ġinci dir
ĠTo do
Ġprogresi vidad
Ġartes anal
Ġretro ac
Ġfracas o
Ġpolitiqu erÃŃa
Ġlengua je
ĠADMINISTRA CIÃĵN
ĠtelÃ© fono
Ġmadu rez
ĠDEN OMIN
A p
C o
I BLE
L AN
i tal
Ġpro puso
Ġdi lig
ĠD ONE
Ġme ten
ĠM ir
Ġte orÃŃa
Ġcos tÃ³
Ġman dÃ³
Ġemp ecemos
ĠH el
me tro
Ġtener lo
Ġ9 4
Ġri dÃŃ
Ġautor izado
ĠRE CON
Ġinteres ados
Ġrefer ido
Ġfal tÃ³
Ġinten s
Ġ11 7
Ġbusca ba
Ġdetermin ada
Ġvisi on
ĠReg iÃ³n
ĠVal le
Ġasign ado
12 7
Ġexten siÃ³n
Ġimplic arÃŃa
Ġrelacion ada
Ġsue lo
Ġespeci es
Ġcomien za
ĠTE L
ĠMUNICIPAL IDAD
Ġfla gelo
ĠhÃ¡ bil
ĠCAN T
ĠDERE CHO
BA TE
Q UE
e ja
e pel
Ġm ales
Ġh Ã©ro
om isiÃ³n
ĠP al
ĠP ues
Ġle tra
ĠD ig
Ġme tiendo
Ġsu man
Ġas adas
ac ciones
el os
ver si
Ġr ico
Ġpas en
ĠCon ap
Ġestudi ando
Ġ9 1
Ġfi j
ĠZ a
Ġinvestig ando
Ġprior izaciÃ³n
Cu Ã¡les
Ġesti pu
Ġesti maciÃ³n
Ġdescon oci
Ġolvi dÃ³
Ha go
Ġapar ecen
Ġplantea ba
ĠCor ea
Ġcandida tas
ĠAg encia
ĠPrim ero
Ġpoten ciar
ĠimportantÃŃs ima
TEN CIÃĵN
Ġprofes or
Ġraci smo
ĠRec ur
Nues tro
ĠTRABAJ O
Ġemo cional
Ġespal da
ĠAle mania
Ġinval idez
6 75
E DI
P ON
T AR
b ul
f esi
ci dad
ic ultura
Ġin fec
Ġg ig
ĠL IB
Ġimp os
Ġap a
ri e
ĠEs tad
ĠPAG O
ĠF ER
Ġins ostenible
Ġins pecciÃ³n
CI AS
ĠT R
ĠJ UR
ĠRe almente
Ġve lo
Ġven de
cion ando
cion ada
ĠB RIN
Ġab ro
Ġextra Ã±o
Ġtrans por
Ġapoy en
Ãį DI
Ġquer iendo
Ġ22 8
Ġreac ciÃ³n
Ġorgan izar
Ġejecu tiva
Ġimpac tar
Ġdesa perci
bra da
Ġrealiz adas
Ġobliga tori
Ġutiliz ada
Ġasegu r
Ġdev ol
Ġemi tido
84 00
Ġelimin ando
Ġasu me
Ġom i
ĠcontinÃº e
Ġbara to
ĠInf ancia
Ġsustancial es
Ġproporcional idad
ĠilÃŃ cito
ĠORG ÃģN
ĠBanc rÃ©dito
Ġrecal car
Ġimpr esion
Ġincapa z
Ġtelef onÃŃa
ĠFra cciÃ³n
ĠCaÃ± as
epel man
ĠJUR ÃįDI
ĠORGÃģN ICA
4 79
er taciÃ³n
ci tos
al u
Ġf ues
Ġcom enta
ĠP US
ĠN UE
Ġb elle
Ġma tar
Ġcre ÃŃdo
ĠT es
tin as
je me
Ġexp lique
Ġ19 49
Ġverdad eras
Ġ5 8
ĠGu iselle
Ġtras pas
Ġsan ciona
Ġrespec tivas
Ġenten dimiento
UL IO
Ġsign ificar
04 0
Ġequ is
Ġ11 0
Ġcorrec tas
Ġadu anas
Ġvig entes
Ġcaus al
Ġreun ir
Ġafirma tiva
ĠEx terior
ĠAcu erdo
Ġcomercial izaciÃ³n
Ġaprue ban
Ġesc la
Ġamor tizaciÃ³n
Ġlimi taciÃ³n
Ġcoher ente
ĠTER REN
Ġhones tidad
ĠvÃ¡l ido
Ġplas mado
ĠSEGUN DO
Ġmaltra to
Ġacci dentes
Ġsocialc risti
Ġche que
8 1
O bviamente
U DAD
Z AR
i tarias
m isiÃ³n
Ġs uel
ta bles
ÃŃ e
bi mos
am anca
Ġg r
Ġg ritos
ica das
ĠA tenciÃ³n
Ġten encia
Ġpers ecuciÃ³n
uev amente
Ġdic tar
ĠpolÃŃti camente
Ġca iga
ĠV AL
Ġnecesi tados
Ġcan s
Ġrec esiÃ³n
Ġau tÃ©n
Ġacu eductos
gres os
Ġgra baciÃ³n
ĠIN D
Ġcontr aria
ĠCON TRIBU
Ġcl iente
Ġestable cimiento
Ġrepresenta dos
Ġprecis o
Ġlamenta bles
Ġincon sis
oz can
Ġtransi ciÃ³n
Ġopera tivo
Ġopin iones
ĠFran cis
ĠautomÃ¡ ticamente
Ġmedicin al
ĠInfor me
Ġinmue bles
Ġdesem bol
ĠCENT RO
Ġincom pa
Ġentrev ista
Ġcortes ÃŃa
Ġfan tas
arch ÃŃ
I mp
I TAL
o der
r esiones
u til
ci aciÃ³n
Ġe cos
Ġcon ferencia
Ġo ÃŃdo
il o
Ġex tinciÃ³n
Ġdes pre
Ġta par
Ġcre cido
Ġad vers
Ġpens ado
Ġviv o
Ġcer rados
ĠSan cho
Ġ14 0
Ġsac an
tel ec
Ġpron titud
Ġpropon emos
Ġimpul sa
Ġvin culados
ĠMa ur
Ġmuer to
Ġdev oluciÃ³n
Ġabor daje
Ġfac turas
Ġrequer imos
Ġred is
Ġamena zas
Ġom isiÃ³n
Ġreno va
Ġorgullos o
ĠcÃ¡l culos
ĠFinanci era
Ġvalios o
Ġmir en
ĠInvesti gaciÃ³n
Ġcance lar
Ġmanifies to
Ġviolen tando
Ġhero ico
ĠSERVICI O
Ġbril le
ĠprÃ³r roga
Ġates tados
ĠÃ¡r bol
ĠMONE TARIO
c tos
c Ã¡n
Ġ w
Ġ ON
in ter
Ġf ri
ĠC AM
ra dor
pe tencia
Ġsol vencia
Ġdon aciones
Ġcontra pes
Ġmar ÃŃti
Ġmar car
Ġlegisla tivos
ENT ES
Ġcar ece
Ġcambi e
Ġba j
Ġante cedentes
ĠPa z
Ġrev Ã©s
AN TI
Ġaf in
cios os
Ġdefen demos
Ġrevis en
gen ier
Ġvolun tades
Ãī R
Inter venciones
Ġadecu adas
Ġcome tiÃ³
Ġconcre tamente
Ġllega da
ĠTÃ©cn ica
Ġeuro pe
Ġfacul tades
ĠhistÃ³ric os
Ġacog er
Ġcompon entes
Ġpopul ismo
Ġretr oce
Ġaden tro
ĠCRÃīDI TO
Ġexci tativa
Ġ zo
Ġm ente
te o
an am
Ġen via
aci as
om e
om ÃŃas
Ġno ble
Ġha bilitar
Ġpara do
Ġpro pa
ĠA van
Ġpa ternidad
Ġdes can
Ġimp era
for me
ce dido
Ġus os
Ġemp eÃ±o
Ġver dades
Ġreal icen
ig ue
Ġpresupues tar
Ġdar ÃŃa
Ġesp osa
Ġcan cha
esti Ã³n
Ġpe ores
Ġestudi an
Ġsen tarse
Ġem baja
Ġir raci
Ġcier ran
Ġ19 73
Ġri t
vin cia
Ġbas ada
Ġmater nidad
20 20
Ġpi es
Ġcomple j
Ġcomple jos
Ġinten tado
Ġreiter ado
26 08
Ġjus tos
Ġapor ta
Ġincorpor ado
Ġvisi tas
Ġconten to
Ġcir culaciÃ³n
Ġdescon ocimiento
Ġvin culaciÃ³n
Ġolvi do
Ġtes tim
Ġtari f
30 9
Ġ199 6
Ġmunici pios
tribu ciÃ³n
Ġimpun e
Ġcolabor aciÃ³n
Ġcomplemen taria
Ġdinam izar
ĠDI E
jen me
Ġcompens ar
Ġdesemple ados
Ġindirec tos
ke y
Ġproven ientes
Ġtol erancia
ĠTal amanca
ĠnicaragÃ¼ enses
ĠPromo ciÃ³n
anam me
Ġtestim on
4 78
B ien
D os
D entro
S an
d ista
g ia
g itales
i ficaciones
l lan
z amiento
qu ina
as si
Ġn acer
ÃŃ gan
Ġcon do
Ġre ivin
Ġin telec
ĠP rÃ©s
ĠC Ã³mo
Ġb oca
Ġsu mado
ĠM AN
iz as
Ġ1 19
Ġas igna
Ġar r
Ġpas ados
ĠV ean
Ġhabl Ã©
per anza
Ġsegu r
Ġven tan
uer to
AR ES
ĠIn cluso
Ġco bros
Ġci gar
Ġdifer enci
aran jo
Ġseis cientas
Ġocho cientas
Ġsolici tamos
duci endo
Ġpi di
Ġllegar a
Ġparticip aron
Ġsem estre
Ġaca ban
Ġhi pÃ³
49 88
Ġgan ando
Ġliber tades
63 0
56 8
ĠORDEN Diputado
Ġinform al
tiz aciones
Ġencar gado
Ġdictamin ar
Ġculpa bles
Ġguar dar
Ġrecin tos
Ġreduci endo
Ġresol viendo
Ġmotiv aciÃ³n
Ġinjusti fica
892 49
Ġvincul ante
ĠprohÃŃ be
ĠMaur icio
Ġfri j
assi f
P ue
T u
c aril
t ones
Ġa ter
te ando
to dos
ÃŃ dicamente
Ġcon qu
Ġcon curs
Ġno tas
Ġdi gitales
Ġper la
ĠD iay
Ġex i
ĠS archÃŃ
Ġta bla
Ġtra bas
ĠF ue
Ġar tÃŃs
Ġmi ti
Ġab riÃ³
Ġcol e
ponsa bilidad
ĠDe f
ĠDe porte
mar as
Ġrep ente
Ġsa tan
Ġrev oluciÃ³n
Ġ8 7
ĠRE L
Ġprof esiÃ³n
Ġjur ÃŃdicamente
Ġlogr en
Ġcer tificaciÃ³n
ĠSan to
Ġdeclar ada
Ġproteg ida
ĠEX P
Ġtecn olÃ³gico
Ġdescon cen
Ġdirig idos
Ġconoci mientos
Ġgolpe ando
Ġcant onales
Ġhon ra
Ġinvi taciÃ³n
Ġabier tos
ĠAn Ã¡lisis
Ġgu ÃŃa
Ġrique zas
Ġmeter le
ĠIntegr al
Ġcalifica da
Ġmas caril
ĠsuperÃ¡vit s
Ġalar mante
Ġbeneficia dos
Ġocul tar
ĠMEDI O
Ġflex ibilidad
ĠInvesti gadora
Ġconex iÃ³n
ĠclÃ¡us ula
ĠDEFENS ORÃįA
Ġcoti di
Ġparticipa tiva
Ġconlle va
ĠFrancis co
4 6
E LE
G IMEN
H asta
T en
d ÃŃas
g ma
ar Ã¡
qu ir
ci en
Ġpr ol
ic ha
Ã¡ is
bi to
Ġdi rÃ¡n
ĠL G
ĠR Ãī
Ã©n donos
Ġtra tan
Ġcons tar
Ġab ol
rim ir
Ġplan e
Ġdu do
Ġ7 794
Ġinvesti dura
Ġsolici tarle
20 19
Ġintegr almente
pital izaciÃ³n
Ġol a
Ġinterpre tarse
Ġafir maciones
Ġemple abilidad
Ġconsul tiva
Ġvuel to
39 48
Ġequiv oc
ĠCo to
Ġauton omÃŃas
Ġperman encia
Ġalim ento
Ġcoinci dir
Ġmues tran
Ġconcen trar
Ġcivil es
Ġperten ecen
Ġele var
Ġconsta tar
Ġadolesc encia
fortun adamente
Ġacci dente
Ġagrup aciÃ³n
Ġentien den
Ġliter almente
ĠRÃī GIMEN
5 19
C ele
E J
U A
t Ã©r
Ġ Â
Ġm Ã³
in ete
Ġen trÃ³
Ġf echas
Ġin oper
di ar
cu las
ĠD A
ĠA bel
Ġcons tando
Ġcons tancia
Ġma quin
ĠEs tas
Ġan u
Ġley endo
ĠI gual
ĠT iene
Ġrec reaciÃ³n
Ġter ceros
Ġexp lor
Ġapoy a
ĠEj ecu
id ando
Ġev oluciÃ³n
Ġeduca tivas
Ġsos tenido
In s
Ġinde fin
Ġmane jado
EC U
Ġproteg iendo
Ġdesa fec
ĠAr ro
Ġcir cular
Ġcome tiendo
Ġconcl u
Ġata ca
Ġata ques
Ġreflex ion
Ġconj un
38 8
Ġaus ente
Ã©m onos
65 48
Ġentr en
Ġpaci encia
Ġcalifica doras
ĠREGL ADO
Ġtex tos
Ġhere dar
Ġarch ivo
CuÃ¡n to
Ġasumi mos
Ġmone da
Ġaconte cimientos
ĠINTEGRA L
Ġtonela das
ĠfÃ³rm ula
3 16
4 200
5 1
R ecu
V ER
f ac
i de
l la
Ġl la
ar llan
Ġen mar
ÃŃ v
ĠC r
ĠE V
ĠN ada
ĠG er
ul tas
Ġcre ada
Ġver Ã¡n
Ġar cas
Ġr omp
ig ase
ĠJ U
Ġmen udo
En tre
Ġaten ta
Ġval ga
Ġrepres ento
cis os
cis amente
Ġban deras
Ġvol viÃ³
De fens
Ġinicia do
Ġesper emos
Ġleg almente
Ġdistin gu
iar es
Ã¡ndo la
Ġch o
Ġentender se
ĠVal ores
ĠmÃŃn imas
Ġdistribu ir
Ġinconstitucional es
Ġtes oro
arco trÃ¡fico
Ġdespa chos
Ġconstituy en
Ġpus imos
oli ciÃ³n
Ġacel era
Ġabusiv as
Ġparcial mente
Ġtesti go
Ġbra zos
Ġasumi Ã³
Ġaeropu ertos
ĠRegu la
ĠAgr ÃŃcola
Ġentu sias
I ONES
i mp
p le
p ala
r Ã³n
r ieron
Ġ Ãļ
Ġp ec
Ġcon tamos
Ġin oc
Ġin acciÃ³n
ĠP u
ue tar
Ġle ÃŃ
ĠA t
ĠN arcotrÃ¡fico
Ġme du
Ġme tiÃ³
Ġap unta
Ġcons ign
ri an
ce menta
ez can
Es cu
Ġej es
Ġdiscu ta
Ġgener arÃŃa
len cias
Ġcan je
Ġexp resiones
Ġra tificar
Ġconf ia
Ġhaber lo
Ġobje tividad
AN O
Ġdemoc ra
RE C
AM O
Ġencon tra
Ġrealizar se
Ġtecn olÃ³gicas
ĠEx p
Ġtram o
Ġcapaci taciones
Ġdepen der
Ġasign ados
ĠĠ ĠĠ
Ġservi do
Ġventa ja
Ġhar emos
Ġmol es
ĠcÃ¡ maras
ĠSus crito
Ġreglam entaciÃ³n
ĠsÃ³l ida
Ġfar m
Ġreglamen tario
Ġps ic
later ales
ĠdepÃ³ sitos
ĠEd gar
Reci entemente
Ġcond onar
ĠTr Ã¡nsito
Ġecos iste
Ġrit mo
cementa zo
C om
U BL
j ecuciÃ³n
n i
ar la
or gan
tr ibuy
Ã© coles
ĠP Ã¡rra
ĠP uerto
pu l
us to
Ġcu yos
Ġi dÃ³n
Ġpa tente
Ġj al
Ġtra ge
ĠcompaÃ± ÃŃa
Ġpres cripciÃ³n
Ġdeci dida
ĠEs paÃ±a
EN CIAL
ĠJ ULIO
Ġmi Ã©coles
ĠCon ten
ĠB i
Ġclar ÃŃsimo
Ġcambi an
Ġconc esion
Ġba talla
Ġconf ron
Ġpregun tamos
Ġmin orÃŃas
Ġcri ticar
Ġ6 7
Ġregu lado
Ġgaranti cen
Ġparticip ado
Ġsuper mer
Ġpresen ten
Ġconte mpl
ne x
Ġdetermin a
Ġincorpor ando
Ġro bo
Ġher encia
ĠMa gna
Ġasegu rados
ĠdemocrÃ¡ ticos
Ġtrasla da
Ġnega tivos
ĠEsto y
Ġotor gamiento
Ġmoder na
Ġimag in
Ġintro duce
Ġconstruy Ã³
Ġunir me
Ġexcesi vo
Ġsober ano
Ġsindic ales
Quer ÃŃa
Ġsane amiento
Ġalma cen
Ġequivo cado
Ġafrodescen dientes
Ġbienven ida
TRUC CIÃĵN
Ġvergonzos o
Ġmaravillos o
Ġflu jo
Ġcomputa doras
Ġcocin eras
undan cia
ĠAgropecu arios
Ġpatrul la
EL ECCIÃĵN
ĠDig ital
7 58
H A
l ico
r encia
ar los
Ġa Ã©
ci das
Ġque hacer
in dustr
Ġen ga
Ġse g
Ġre tra
Ġin jer
Ġin va
Ġin unda
ĠC A
Ġdi jera
Ġg a
ĠS UP
Ġimp res
Ġpl ur
ĠG re
gun a
Ġcons is
Ġsal v
ĠH uetar
Ġcol um
Ġhech as
Ġtrans acciones
Ġrev el
Ġvol viendo
Ġexis tiera
Ġsolici tÃ©
20 1
Ġren dimientos
Ġide olÃ³gica
Ġcaus ales
ĠOr den
pro duc
Ġtram ito
Ġutiliz Ã³
Ġayudar le
Ġrespon da
ĠCu ba
Ġcoopera tiv
Ġsir ven
Ġcoordin ar
Ġextre mo
Ġdictamin Ã³
Ġinclu ida
To da
Ġarti culaciÃ³n
Ġderiv ados
Ġmic rÃ³
Ġcerc ana
Ġconvic ciones
Ġeconom ÃŃas
Ġdero gar
Ġproduci endo
Ġagrup aciones
Ġdesafortun adamente
Ġtempran o
Ġinquie tudes
Ġprota gon
ĠDA TOS
A GO
I gual
M in
e Ã±a
m io
Ġ Ã©s
Ġp untar
Ġde ficiente
qu eros
ic an
Ġre poner
di ales
Ġsu g
ĠG aran
ĠEs p
EF ON
ores tal
ĠF om
cur io
ĠH e
Ġag reg
Ġfun dad
ĠU pala
isi ble
isi bilidad
Ġsocial dem
Ġpe lo
Ġpe dÃŃ
Ġpermi to
ĠLa tino
Ġreci ban
Ġplan o
Ġquer ida
Ġmer ecemos
Ġmer curio
mple mente
Ġorgan ismo
Ġparticip Ã³
Ġcompe tentes
Ġinici os
50 9
Ġquedar nos
ĠmÃ© rito
Ġpubl icÃ³
Ġargu mentar
Ġsolid arios
Ġolvi de
Ġotor gado
Ġreconoci dos
ĠCor re
Ġcoinci de
Ġfirma mos
Ġindustr ias
Ġmues tras
ĠturÃŃs ticos
128 9
pera mos
Mi deplÃ¡n
Ġom iso
68 39
Ġprepar ado
Ġdescar bonizaciÃ³n
Ġexcluy e
Ġmod alidades
ĠDeclar atoria
Ġadop tar
ĠCI UDAD
Ġmens ual
ĠAra celly
ĠCOOPER ATI
Ġsiti o
Ġresidu os
Ġaduan era
Ġexen ciones
Ġbio diversidad
ĠcÃ³ mpl
Ġembarc aciones
ĠTEL EFON
Ġfij aciÃ³n
Ġpuntar en
ĠTELEFON ÃįA
4 49
5 76
5 780
C ru
b es
i ona
p io
p amiento
Ġ tro
an ario
in co
Ġen cen
Ġpr esionar
Ġv ar
de pen
ĠA TENCIÃĵN
ĠS I
Ġ20 00
iz os
ĠPA TR
ĠG AR
Ġpresid entes
Ġpres taciones
el ici
Ġcre ciÃ³
CI E
ĠH UEL
ĠRe publicano
Ġcor te
Ġcor pora
Ġmedi anos
si mos
ĠB om
ren e
Ġcondi cion
ÃŃn ese
Ġ19 60
IN A
Ġpagar le
Ġinicia mos
Ġenf ocar
Ġpreten siÃ³n
Ġpreten demos
Ġall an
Ġdestin a
Ġaclar a
gen tina
73 2
Ġreconocer lo
Ġconta gio
Ġdescon ocer
Ġvin culado
Ġof en
Ġresuel ven
Ġconver sa
Ġarreg lo
Ġprome tiÃ³
ĠPresupues tario
Ã©c ord
Ġencar gada
Ġimag inar
Ġuniversi tario
ĠAmbi ental
Ġbanc arias
Ġelabor ar
Ġderiv a
Ġcoher entes
ĠengaÃ± ar
ĠAutor idad
Ġcobr ando
Ġexcel encia
Ġintelig ente
Ġencontr aron
Ġperiod istas
Ġconcluy e
Ġaccesi ble
Ġsane ar
Ġer ario
ĠNav idad
Ġsecu es
uste d
Ġdialo gar
ĠescÃ¡n eres
chin illa
ĠHel io
ĠPrÃ©s tamo
Ġenga ve
ĠHUEL GA
2 13
D i
E videntemente
f iz
u ta
Ġ ero
ta lo
ta dor
Ġcon gel
Ã© ctor
ĠP oc
ĠP EN
ĠP ENS
Ġal um
Ġg ri
ĠA MPLI
Ġpa gÃ³
ĠM in
Ġta m
Ġcons ervar
Ġpre cedentes
Ġsol idar
ĠI rene
Ġcre encias
ĠT ar
Ġr Ã©cord
ĠH Ã©ctor
Ġdiscu tamos
Ġven den
ĠB CIE
Ġcan ales
ĠU CR
Ġcr ono
car bonizaciÃ³n
Ġden om
Ġllam ando
Ġcal ific
Ġem isiones
Ġfinanci an
Ġpreocup ada
Ġseguir Ã©
ĠPa peles
Ġnom inal
Ġpu ra
ĠSo to
ĠPro duc
Ġpos tura
Ġpos turas
Ġgesti onar
23 0
Ġsac Ã³
Ġreiter ada
73 9
Ġobliga torias
Ġreda cta
ĠUN A
ĠElec toral
Ġav ales
Ġenorme mente
Ġder r
Ġinsu ficientes
Ġdiv ul
Ġservi dores
Ġservi doras
Ġmig raciÃ³n
Ġdedic ar
Ġdepor tivos
Ġasis tir
Ġprepar aciÃ³n
Ġcelebr ando
Ġofrec en
Ġconce jo
Ġescon der
Ġperci bir
Ġesque mas
Ġbenem erita
ĠInfor maciÃ³n
CES O
Ġinad ecu
ĠÃ³p tica
Ġvincula das
Ġrece ta
Ġape lar
ĠSOSTEN IBLE
iten ci
Ġsubra y
Ġgar ante
Ġantecedi eron
ĠTERREN O
ĠBom beros
fiz er
I ON
i p
Ġa ver
ci an
Ġe col
Ġv icepresidente
Ġre a
Ġre bajo
ĠP as
ĠP fizer
ĠL ibre
ĠN aranjo
ĠR enta
ba te
ici embre
Ġdeci dimos
vi da
Ġhacer la
Ġca tÃ³
Ġni ega
Ġprim or
Ġtrans f
ĠMinis tro
ĠSe gÃºn
Ġseguir Ã¡n
20 21
Ġpi Ã±a
ice o
Ġconven cida
Ġinten tos
AM IL
Ġrefle jan
13 7
Ġdiscutir lo
Ġexplic Ã³
Ġadecu ados
ĠdifÃŃcil mente
ĠHa ce
Ġtes or
Ġnorm alidad
Ġinteg ran
Ġsatisf echo
Ġfirma da
ĠPÃļBL ICOS
Ġcontes tÃ³
Ġrecha zo
Ġestuvi Ã©ramos
Ġventa jas
Ġdepor tivas
Ġrazona bilidad
Ġelabor ado
Ġmol esta
Ġinvier ten
Ġapla udo
Ġfem icidio
Ġlimp i
Ġencontr Ã©
Ġaliv iar
Ġgir ar
Ġcrimin al
Ġmanipu laciÃ³n
Ġtej idos
Ġafron tar
Ġadvier te
Ġsegur amente
Ġcigar r
ĠRegula dora
T ARI
c ci
e b
e dor
i ada
o cu
Ġc aÃ±a
in stitucional
Ġen um
ÃŃ na
ÃŃ rez
al l
ic ando
tra er
Ġdi ariamente
Ġg e
Ġg oz
Ġi di
Ġcomp osiciÃ³n
ĠM inas
Ġimp o
ĠDE C
ĠG rupo
ĠF AMIL
tarricens es
Ġmedi as
Much os
Ġcol or
Ġnecesi to
ud ente
Ġmayor itariamente
Ġpermi tiera
Ġmejor ando
Ġreci bÃŃ
ĠSe x
Ġdu plic
Ġbus quemos
Ġefec tividad
Ġtu it
Ġnom brado
Ġcul min
ĠPro ducciÃ³n
36 7
Ġ14 4
eci era
Ġide olÃ³gicas
Ġhi pote
Ġalcan zado
Ġempez aron
Ġrealizar on
ĠAr gentina
Ġpubl ica
Ġexig encia
TER IO
95 1
Ġdirig idas
Ġauto mÃ¡tica
Ġbar rios
Ã©ndo me
Ġllen as
Ġcorri ge
Ġmor osidad
38 2
Ġconvo cados
Ġaprue ben
Ġmatr iz
Ġadver tencias
Ġpareci do
ĠRam ÃŃrez
Ġtranquil os
Ġfirm antes
Ġconvier ten
Ġdepor tiva
Ġfavora blemente
Ġagropecu arios
Ġasis ten
ĠAN TE
Ġprogresi va
Ġcomien zan
Ġayud an
Ġcontemp lado
ĠvÃ¡l ida
Ġacel erar
Ġflex i
Ġhumil de
Ġrin c
Ġrepercu siones
ĠTrabaja dor
813 8
Ġexpedi ta
ĠJUN TA
Ġces an
Ġrespi ro
Ġgubernam entales
Ġcuad rados
ĠCANT ÃĵN
6 71
9 3
D igo
F onseca
s ec
Ġ x
Ġc uel
Ġc ÃŃr
Ġque brar
al la
Ġha bilidades
bl ecer
Ġpara di
Ġal za
ĠL O
ĠA i
lo gos
Ġac eras
Ġres u
Ġma te
Ġman io
mi gos
ĠT or
duc ciones
OR AS
cion ismo
Ġpermi tieron
ren de
Ġexp residentes
Ġgas tan
Ġllam amos
Ġbus que
Ġafec te
men tÃ³
Ġinteres antes
Ġinvesti gue
Ġrefer ÃŃa
Ġfal tado
Ġsolu cion
ĠConstitucional idad
Ġall ÃŃ
Ġequi par
DE BATE
Ġrealiz ados
Ġespera ba
IB IL
Ġexig en
Ġform alidad
Ġayudar les
Ġmuer tos
Ġaplica ble
Ġinsis tencia
Ġfa una
gl Ã©s
Ġinform Ã³
Ġtrasladar se
Ġanti cip
Ġsecre taria
ĠCons ultas
Ġfer iado
Ġfirme mente
Ġmani pular
Ġdesemple adas
ĠTribu taciÃ³n
Ġceder me
Ġmach ista
grÃ¡ fica
Ġnefas to
ĠPLA ZO
ĠAvan cemos
Ġcomplej idad
ĠDef ensa
Ġtramito logÃŃa
5 04
C AN
L A
P O
V e
g ios
m bol
Ġde ven
ti eran
Ġpr esion
Ġpar ecÃŃa
Ġf ase
ari ta
Ġg arro
ĠD os
ĠN unca
yec to
Ġdis im
ĠPA ÃįS
ĠcompaÃ± ÃŃas
Ġma dera
for maciÃ³n
Ġsol ar
por que
ab inete
Ġgener almente
Ġab oliciÃ³n
ES CA
esti a
qui la
Ġda ta
Ġapoy an
Ġem ble
ĠEl los
Ġlu cro
ĠEn erg
Ġconstru ctor
Ġfunda ciÃ³n
ĠdÃ© jeme
Ġobje ciones
Ġdirec ciones
duci do
UL O
Ġejecu tando
Ġ14 3
Ġgesti on
Ġtranspar entar
Ġtrabaj Ã³
Ġtrabaj emos
18 0
Ġol vid
Ġafir maciÃ³n
Ġpudi endo
Ġolvi dado
22 2
Ġmor ir
Ġabier tamente
Ġcoopera tiva
Ġadver timos
Ġcrea tividad
Ġine vi
Ġign ora
Ġele v
abe tizaciÃ³n
Ġcompro bar
Ġpolici al
Ġinneces ario
Ġvolv amos
Ġadi cionar
Ġrecomen dar
Ġconfun dir
Ġza pa
Ġdespi dos
ĠSem anario
Ġfres cos
ĠASOCI ACIÃĵN
Ġangusti a
Ġinjer encia
B ER
b Ã¡is
i ana
z Ãº
Ġ Ãº
ci e
Ġm ari
Ġcon gruencia
Ġin glÃ©s
Ġo puesto
di era
Ġsu yo
Ġdes me
ĠG o
Ġva can
pe a
ia das
ric as
ĠF OM
Ġar re
Ġvo ten
por aciÃ³n
ab emos
dem n
Ġcan jes
Ġexp an
Ġapoy emos
Ġsa cado
ĠÃºn icos
Ġespecial izado
Ġobje tiva
Ġparticip an
gistra do
23 84
Ġsub par
Ġadu anal
Ġvig ilar
op ro
Ġdemos trÃ³
39 5
39 50
Ġexig iendo
Ġconsens uar
Ġtransi tar
Ġreconoci da
ĠCOM P
Ġalim entar
Ġsens i
gÃ¼ edad
Ġprohibi das
Ġcuestion amiento
Ġcandida turas
ĠPER ÃįO
Ġnaci miento
ĠMA Y
94 19
Mi re
Ġconden ado
Ġresta u
Ġarti cular
Ġindispensa bles
Ġpier da
Ġcens o
Ġdur ar
Ġtitu lares
Ġaspir aciÃ³n
CuÃ¡n tos
Ġalquil er
Ġfronter iza
ĠaltÃŃs imo
Ser Ã¡
Ġnie tos
Ġutilic e
Ġsobreviv ir
ĠHo epelman
Ġaleja das
Ġatrac tivo
ĠSISTE MA
Ġenc am
ĠLI QU
ĠApoy o
Ġaccion istas
Ġinconsis tencias
ĠEjecu tiva
ĠFom ento
ĠPERÃįO DO
5 74
U RAN
i onal
Ġ ordinarios
ar te
Ġc Ãº
Ġm uel
an to
tr ina
is as
Ġre porte
Ġper cepciÃ³n
ma cÃ©
ĠD urante
ĠN ecesitamos
ĠS en
ĠM ientras
Ġimp resiÃ³n
lar on
Ġinter nas
CI ENDA
Ġsobre pre
ĠJ es
tal idad
Ġcam is
ĠB e
ĠIn d
Ġcar encia
Ġcar encias
Ġter res
Ġcompr endo
TA M
Ġraz onamiento
Ġsa g
ĠUn iversi
ĠseÃ±al o
Ġfuncion aria
Ġespecial izada
Ġpagar on
Ġfal lado
ĠPro pi
Ġcorrespon dÃŃa
Ġcl ientes
iza dores
23 3
Ġinici ando
iter o
Ġpen itenci
Ġobs er
Ġanal iza
Ġequi tativo
Ġch at
Inter pelaciÃ³n
Ġro bar
34 038
Ġ200 7
tÃŃs imo
ĠPRO DUC
ĠAn te
Ġgu ÃŃas
Ġadicional mente
Ġlibre mente
Ġprov ienen
Ġsuje tas
ĠMA GIS
ĠVI AL
Ġremun erado
Ġbal anza
ĠINTER AMERICANO
ĠMÃ© dicos
ĠCons ervaciÃ³n
Ġacum ula
Ġagil idad
Ġjuz gar
Ġlimon ense
ĠHA CIENDA
Ġvendr Ã¡
oro tega
Ġ73 19
Ġburoc rÃ¡
Ġexclu idos
ĠUste des
Ġafrodescen diente
Ġcolo cado
Ġlis tos
Ġinfer ior
ĠGe ologÃŃa
Ġparticul aridades
Ġinti midad
ĠPROYEC TOS
Ġacostumbra dos
ĠBRIN DAR
Ġirraci onal
Ġinoper ancia
ĠLIQU IDACIÃĵN
macÃ© u
A dicionalmente
B a
g aciones
r aron
s ol
s us
Ġd ama
Ġque do
Ġe bÃ¡is
Ġm ando
ti mo
ic h
Ġcon tras
Ã¡ ticas
ĠC ada
ĠC arr
ĠC TP
Ġg abinete
Ġesta f
Ġle o
ĠA udi
ĠR econ
Ġpa de
Ġex puestos
Ġdes venta
Ġres tante
ĠG estiÃ³n
Ġpers egu
Ġpers eguir
Ġsin cero
ez as
ĠI glesia
bil aciÃ³n
Ġimpor taciones
Ġag encias
dr Ã¡n
Ġcam pes
cional es
Ġextra er
Ġad s
Ġsocial mente
Ġpla ya
Ġ4 19
Ġbus cado
Ġ19 48
Ġafec taciones
ĠÃ© tico
Ġcumpl ida
Ġelec tos
Ġinf ra
Ġtal ento
Ġbenefici an
Ġagra v
Ġrepresenta tividad
Ġnecesita das
26 17
Ġobs erva
Ġgus te
Ġdetermin Ã³
Ġconta ba
Ġdescon oce
ĠTRA V
Ġnorm ales
Ġpopu lares
Ġincumpl iendo
Ġescri torio
Ġrepar tir
Ġdepor tes
Ġsue Ã±os
Ġcateg orÃŃas
208 19
Ġenca b
ĠAgu as
Ġvalios a
Ġdeses peranza
Ġtradicional es
Ġclam or
Ġasal aria
Ġene migo
Ġcritica do
Ġsensa tez
366 44
Ġanto ja
ĠZa pote
Ġimpos ter
Ġfues e
ĠPUS C
Ġcole tilla
ĠREL ACION
ĠAt lÃ¡n
opro com
Ġ419 96
1 590
3 12
C reemos
e Ã±os
t ariamente
or ro
te m
Ġn ul
Ġen ve
Ã³n ico
Ġv es
Ġre quiera
ĠP es
Ġpro cu
tu oso
Ġg or
le mos
ĠL abor
Ġme ga
Ġti rar
du la
Ġtra diciÃ³n
ga bles
ĠPA RT
Ġcons tantes
ĠEs tÃ¡n
vi as
Ġus ualmente
Ġcas ualidad
Ġmi ente
ĠB lan
ENT A
Ġaten didas
Con si
Ġparti endo
menta l
Ġtrans nacional
OL O
Ġcier ra
Ġu j
Ġhum ani
ĠAl gunos
ĠseÃ±al amos
IS MO
Ġban ano
Ġutil idad
IN FORM
Ġinteres ado
ID OS
Ġejer ciendo
Ġpi dieron
Ġcuar ta
Ġsem illa
Ġpatr iar
Ġrefle jado
Ġaclar e
Ġencuen tren
Ġgan as
Ġconsul torÃŃas
Ġdebi eron
Ġrepresen tando
Ġenvi ando
Ġvia jar
Ġperman entes
ĠEJ ECU
Ġcontribuy endo
Ġmoder no
Ġinclusiv o
To das
Ġrepar aciÃ³n
Ġtriste za
Ġfom ento
eno f
ĠAD UL
Ġalar m
Ġacum ulado
ĠacadÃ©m icos
Ġcaden as
Ġmos trar
Ġmos trado
ĠDI REC
ĠPAR TIR
Ġproductor as
Ġmens uales
Ġposici onar
Quer emos
Ġsimpl ificaciÃ³n
Ġdeleg aciÃ³n
Ġentien dan
Sab emos
ĠAdul to
498 54
Ġatraves ando
ĠpolÃ©m ica
ĠvÃŃn culo
Ġreeleg ir
Ġinconven iente
Ġsubsan ar
Ġbos que
Ġportu aria
ĠEstad ÃŃstica
Ġobligatori edad
Ġmiti gar
Ġprol on
Ġcrono grama
ĠDEC RE
Ġx enof
: Â¿
D ON
I FR
N uevamente
Ġ um
Ġd orm
ta je
am ar
ĠC ul
ĠC AS
tu vieron
Ġlo able
ĠL anamme
ĠD en
Ġex ti
Ġex hor
ĠM ON
oc ÃŃ
Ġap ego
Ġdis puesta
iv as
ĠG ana
Ġas enta
Ġas pi
des a
Ġdeci dieron
ce ler
ĠT en
Ġsal imos
ĠV e
Ãĵ R
gr os
Ġven diendo
cion ados
ĠB er
Ġdere cha
Ġnecesi tar
Ġentre gado
Ġter g
Ġpe trol
ĠO ro
par encia
Ġcal cula
Ġplan os
Ġpreocup antes
Ġbus es
Ġsa que
ĠAl ianza
Ġinf antil
Ġev olu
Ġluch ado
ĠCh iles
Ġrecor da
In icia
Ġju icios
Ġrevis ado
50 8
ĠSal om
Ġmane jan
Ġcomer ci
Ġadministra do
Ġincluy eron
Ġincorpor e
ĠMar ta
Ġrealiz amos
bier to
ĠME IC
Ġcap ric
âĢĿ .
Ġil usiÃ³n
Ġsabi durÃŃa
94 1
An Ã¡lisis
Ġimpe di
ĠPERSON A
Ġorgullos a
Ġat letas
Ġdim ens
Ġpopul istas
Ġhumil dad
Ġalcoh ol
Ġarbitr aria
ĠAdministra tivo
Ġbols illos
Ġexpedi to
Ġconsensu ado
ĠNa die
Ġreplante ar
Ġrestring ir
Ġcobi ja
ĠreÃºn e
ĠRel aciones
ĠPla zo
Ġconsum ir
Ġfemen ino
Ġmicroemp resas
ĠBen em
ĠRecur sos
Ġcondo lencias
Ġuj ier
5 738
8 5
9 1
B an
C as
M ir
V AS
m bres
Ġc ÃŃv
Ġcon cuerdo
Ġin demn
Ġpro ac
ten to
ĠA unque
im amente
tor iales
cial es
Ġman dado
uev o
Ġsal as
Ġca talo
ĠIn genier
Ġentre dic
udad os
El los
Ġval ora
Ġquer ÃŃamos
dic e
Ġli bros
Ġcompr ando
Ġplante adas
Ġante cedido
Ġbas a
Ġpregun tado
Ġfal sos
Ġexis tiÃ³
Ġcer cen
Ġcomple mento
Ġcomple jas
Ġcomple mentar
Ġejecu ta
Ġ11 3
Ġintegr ales
Ġmane jando
Ġdesa celer
ĠmÃ© todo
Ġindi que
Ġvisi tan
Ġtram ita
Ġprev ia
Ġdocu mentaciÃ³n
Ġconoci dos
Ġpelig rosa
17 1
ila ter
Ġcontinu a
ĠQue pos
Ġoper an
ĠVI OL
Ġsete cientas
Ġdep rim
Ġrazona bles
Ġbanc aria
Ġhar Ã©
Ġhor ario
208 28
ĠContra to
Ġconfir ma
Ġmez cla
ĠautÃ³n oma
Ġinstal aciÃ³n
eropu erto
ĠCU AL
Ġabandon ados
Ġhumil des
Ġbom bos
Ġdesapar ecer
Ġconvir tiÃ³
Ġreligios a
Ġexcepcional es
Ġespal das
Ġpilar es
Ġdestitu ciÃ³n
ĠINVESTIG ACIÃĵN
ĠCOOPER ACIÃĵN
Ġintr omisiÃ³n
Ġperpe tu
Ġsaluda ble
QUI ER
ĠhÃ¡bil es
Ġimpresion ante
Ġfrij oles
Ġmaquin aria
ĠmicrÃ³ fono
Ġcigarr illos
ĠAi res
4 38
F MI
T ENCIA
e amente
f lu
Ġde duci
ti bles
ti can
Ġcon ducir
Ġin mer
ĠC e
Ġti ran
Ġpa peles
Ġac era
Ġas c
ul t
Ãºn el
ĠJ USTI
tir ro
Ġinc Ã³mo
Ġvi Ã¡ticos
Ġpresupues tado
Ġven cimiento
Ġfis co
Ġob viar
Ġpla tillos
ĠO TRA
Ġor gÃ¡nica
Ġdec enas
Ġacuer dan
PE TENCIA
Ġtrans cur
Ġreci ba
Ġcal ificar
Ġcomun icar
Ġdici Ã©ndoles
ĠSala zar
Ġhis torias
Ġmin era
Ġdirec tivos
Ġenf a
Ġenf oca
Ġsigu iÃ³
Ġregu lan
Ġtermin amos
Ġsuper flu
ĠCh orotega
76 04
Ġespec tro
Ġapor tan
Ġdiscutir se
DE MI
Ġincorpor an
Ġform ular
Ġrenta bilidad
Ġcomprome tida
Ġacer camiento
ĠCOM PETENCIA
Ġincumpl imientos
Ġinteg rado
Ġdese quil
ĠpÃ¡rra fos
ĠAm eric
Ġentr ante
gra fÃŃa
Ġom isiones
Ġreco ge
ĠmÃ¡x ime
Ġconfir mar
Ġprogresi vo
Ġestric to
Ġayud ando
educ to
Ġdeses pera
Ġequilib rios
Ġexitos o
Ġfar macÃ©u
glesi as
Ġinfl uencias
Ġdeleg aciones
ĠIMP UES
Segu imos
Ġplu rian
ĠRom Ã¡n
ĠAcos ta
ĠTEC N
Ġocurren cias
ĠautÃ©n tica
Ġcontrapes os
Ġentusias mo
ĠPÃ¡rra fo
Ġtrage dia
Cru ickshank
ĠPropi edad
ĠLabor al
ĠGana derÃŃa
DEMI A
1 00
I magÃŃnense
u lo
Ġ ul
ci tamente
Ġre cup
ĠC ara
ch en
Ġto pes
ĠD ÃįA
ca da
ÃŃs tico
aÃ± o
co fer
gis terio
vi era
vi tud
ĠI sa
Ġinter n
Ġdic tÃ¡
ĠV ic
Ġqui tan
Ġcor tos
Ġej e
Ġve ÃŃa
Ġcol ores
Ġdar Ã©
ud al
ĠU so
Ġter ror
ĠO IT
Ġda das
Ġri ego
Ġante ces
ĠÃ© p
Ġbas tantes
Ġinvesti gado
Ġjur amento
Ġmencion ando
Ġdistin ciÃ³n
ĠprÃ³ s
49 1
ual quier
Ġalcan zÃ³
Ġ15 1
55 8
ĠmÃ© ritos
ĠMe di
Ġcaus ado
Ġvisi taciÃ³n
Ġcir cul
Ġdescon oc
Ġtram pa
ĠInternacional es
ĠECONÃĵM ICOS
Ġcomprome tiÃ³
ĠTe le
Ġlic ores
Re pito
Ġsatisf ac
ĠAUTOR IZ
Ġcasti go
ĠCan tÃ³n
Ġinno va
ĠInf ocoop
Ġsacri ficios
Ġton o
Ġcontemp lados
ĠparÃ¡ metro
Ġadmi tir
ĠPRESID ENCIAL
Ġos cur
ĠpÃ©s ima
Ġatribu ciones
Ġ76 00
ĠESTA DO
Ġadm isibilidad
Ġvisual izar
67 56
Ġpose e
TRUC TURA
237 70
Ã³cra ta
ĠsoÃ± ar
ISI TA
ĠFun daciÃ³n
ser Ã¡
Ġreve la
7043 34
PAR EC
ĠMir anda
Ġvacan tes
ĠJUSTI CIA
ĠdictÃ¡ menes
4 55
L uego
c encia
h um
m icos
t n
Ġd ÃŃgan
Ġm ien
Ġn Ã³
Ġen com
Ġv ice
ec ÃŃan
Ġo x
Ġle e
ĠE mi
ĠA eropuerto
Ġti pi
Ġcomp la
ĠM ORA
du jeron
Ġpre ver
ĠF on
Ġins pir
ĠV an
Ġcor tar
Ġcor rig
Ġven ce
Ġcar gar
Ġacu educto
Ġpermi tÃŃa
Ġestudi ado
Ġra dica
Ġt Ãºnel
Ġnacional idad
Ġempres ariales
ĠRo bles
Ġpregun tÃ³
ĠdÃ© jenme
Ġenten damos
Ġsos tiene
cl uy
Ġimpac ta
Ġempez ado
Ġ15 4
Ġro de
Ġconten tos
Ġcir u
Ġconta bilidad
Ġdescon tento
Ġileg almente
Ġcur sos
Ġcomen zamos
Ġlevan tado
Ġalcal dÃŃas
Ġampli tud
Ġdese arÃŃa
Ġsatisf echa
Ġbol sas
Ġcoinci den
ĠSin ac
Ġbru tal
Ġtemp orales
ĠAUTOR IDADES
Ġatras os
90 9
183 18
Ġrepe ti
Ġmol estia
ĠAN ÃģLISIS
ĠacadÃ©m ico
Ġfem icidios
Ġgrav ÃŃsimo
Ġcel ular
Ġsorpren de
Ġpele ando
Ġperjud icar
Ġagar rar
Ġeconom istas
Ġsurg ir
Ġrefir iÃ³
Ġcontral or
Ġprove edores
RES PON
ĠINTEGRA CIÃĵN
Ġauxil io
Ġtute la
Ġminim izar
voca toria
ĠpacÃŃ fica
Ġescla vitud
UBL ICA
ĠPoc ocÃŃ
ĠFOM ENTO
ĠPes ca
Ġentredic ho
1 50
7 59
8 926
P a
P r
S omos
T ICO
U AR
Ġl ento
Ġl lan
ci mo
Ġes can
Ġse pamos
Ġun ilater
Ġpr udencia
Ġcom unes
Ġo fens
ĠC OL
ĠL amentablemente
ĠL iceo
ĠA ten
Ġb eca
Ġdes ac
ba da
ir u
Ġac titudes
Ġres tan
Ġ1 23
Ġma quil
Ġpre parados
Ġsol os
emp leo
Ġan ualmente
br ando
ĠI F
Ġemp oder
ĠH on
Ġca bal
Ġhabl en
Ġcor recciÃ³n
Ġvi ejo
Ġentre gÃ³
Ġmejor ado
Ġplante aron
ĠÃ© ticos
ĠIN C
Ġinf lex
Ġaf Ã¡n
Ġmencion o
Ġgaranti zado
Ġparticip ando
Ġeduca dor
Ġrecor r
ĠZ ON
Ġpatr io
Ġcompar tido
50 95
Ġaprovech ado
Ġurg en
ĠPL AN
Ġcele bra
Ġactual izado
Ġsosten iendo
Ġsosten ibles
Ġro b
ĠMun ici
Ġnoti ficaciÃ³n
Ġata cando
63 2
Ġgolpe a
86 1
Ġperman ecer
Ġinmedia tas
Ġav is
Ġinform ales
Ġcolec tivos
ĠSEG U
Ġprov iene
seÃ± or
Ġfran ca
Ġcompeti tivo
Ġsuje ta
Ġcua dro
Ġadquir ido
Ġorien tar
Ġimpi diendo
Ġdesas tres
Ġpesqu erÃŃas
Ġremi tir
ĠINCI SOS
Ġestim ular
ĠÃ³ igase
Ġdiscipl in
Ġacre edores
ĠMINIS TERIO
Ġequival e
Ġadquisi tivo
ĠTrabaja dores
Ġpresencial idad
dil la
Ġirregu lares
Ã¡rse lo
Po demos
Ġene migos
Ġpatrimon iales
769 04
Ġdecom is
priv adas
Ġfrus traciÃ³n
Ġapell idos
Ġgig antes
Ġenvia mos
ĠGer encia
ĠGre cia
Min uto
ĠcÃŃr culo
Ġcamis eta
Mir en
ĠCUAL QUIER
ĠÃ©p ocas
1 589
4 1
D ES
I R
M ENT
r esi
r endo
u lares
v imiento
Ġp ida
ci eron
Ġque mar
or ado
Ġn ar
Ġn Ãº
Ġpar lam
Ġf lor
Ġpor ta
Ġpor quÃ©
ĠP ESCA
ĠC lar
Ġal m
pu s
esi ona
ter eo
ra ba
ma go
Ġle tras
ĠD IC
ĠD iciembre
gu es
ĠS ostenible
oc arse
Ġap liquen
du zcan
Ġser Ã©
ER C
ri a
Ġdon ar
Ġdeb ÃŃan
ĠF A
el Ã©ctr
Ġinter institucional
Ġver sus
CI N
obi a
Ġpas adas
Ġcam ine
Ġven tana
cion adas
Ġob vio
Ġra dic
Ġda tÃ¡
cos tas
Ġfu tbol
Ġ19 82
Ġop tar
ĠPR EN
Ã³g ica
cedi mientos
20 3
Ġagra va
Ġpreten da
Ġ14 2
Ġinten tando
Ġlegis lando
Ġam erita
Ġ15 5
US TRI
Ġch or
Ġch iqui
Ġnoti fica
Ġfel ices
ĠMa gisterio
Ġapar tado
86 60
ĠCo chinilla
Ġconcep tual
Ġreconoci Ã³
84 258
Ġsustitu ciÃ³n
ĠDES AF
Ġproba ble
Ġmeter se
ĠSEG REG
Ġmanda tario
Ġimplic an
Ġdolor oso
ĠAS Ãį
Ġpare d
104 5
Ġarti culado
ĠestratÃ©g icos
Ġimpi den
Ġconce jos
Ġmez quin
Ġregional izaciÃ³n
Ġdivi den
Ġartes an
Ġdiscipl inario
Ġabusiv o
Ġregres ar
Ġtrascend entales
Ġredac tado
Ġacredi taciÃ³n
ĠsocioeconÃ³m ica
ĠFe deraciÃ³n
Ġlatino americanos
Ġanim ales
ĠCompaÃ± eros
Ġcolabora dores
Ġll Ã¡
Ġpropici ar
Ġalf abetizaciÃ³n
Ġmonitor eo
Cele bro
Ġconjun tamente
Ġpatrulla je
Ġinunda ciones
ĠLatino amÃ©rica
Ġalarm antes
ĠIsa ac
ĠSEGU RO
ĠnÃº c
USTRI AL
ĠDESAF EC
E mp
H u
H an
P IDO
i es
n ier
u a
u f
w w
in ti
al os
Ġpr udente
Ġf o
Ġre dujo
Ġdel e
ĠP Ã¡
Ġal a
ĠD OS
ĠR Ãģ
Ġmu tu
ca zÃº
ĠM OR
ir iendo
Ġte atro
Ġso ca
Ġtra ctos
Ġdis ertaciÃ³n
lar se
ER S
Ġpres tig
Ġdeci da
Ġmo da
ĠEs cazÃº
vi os
Ġus ado
Ġus ur
Ġhabl Ã¡bamos
Ġvi eja
pi dez
Ġesp aÃ±
Ġpe at
Ġdifer en
Ġtrans misiÃ³n
Ġcier ro
Ġcomun ica
Ġsa co
ĠÃºlti mamente
TR UMENTO
Ġevi tando
ID A
Ġcul tivos
Ġcer radas
Ġampl ÃŃa
cios a
Ġce do
Ġoblig an
Ġ10 5
Ġcompar ar
Ġtrata mientos
50 08
Ġnecesita ba
Ġsignifica tivamente
Ġam arr
Ġjus tas
Ġmucha chas
ĠmÃ© todos
ĠEX PEDIENTE
tÃ¡ bamos
Ġenvi Ã©
Ġenor gul
Ġnega tivas
Ġagr esi
Ġagr esiones
Ġincen tiv
Ġiden tific
Ġfelici taciÃ³n
Ġtor ta
Ġdesta cado
ĠINS TRUMENTO
Ġempren dimiento
Ġinclusiv a
ĠAC CESO
Ġvigil ante
Ġmulti parti
Ġsentir se
Ġfren o
Ġbe b
Ġsien ta
Ġarri es
ĠCU MPLI
Ġsil la
Ġcuri osamente
Ġ86 90
Ġexminis tra
866 79
ĠSAL UD
Ġlider ar
Ġlabora torio
ĠPRIM ER
Ġadvir tiÃ³
Ġgre mi
Ġimpre ci
Ġdefec tos
Ġoponer se
ĠLIB RE
ĠLG T
ĠConten cioso
Ġlimpi eza
PAREC ENCIA
ĠDIC TAM
ĠRÃģ PIDO
1 48
8 7
8 71
8 116
C AR
F ER
T res
V IN
l ÃŃn
p iles
s ta
Ġd Ã¡ndoles
Ġde mo
Ġl Ã¡
Ġc aÃ±
or erÃŃa
an zas
Ġcon tÃ³
Ġper ro
tar lo
ma das
Ġsi em
Ãº tbol
ĠR EN
Ġpa tro
Ġex ha
Ġdes viar
ĠM ERC
du r
Ġso bres
Ġtra te
gun as
Ġcons erva
Ġcons ejos
Ġpre cep
Ġan h
Ġcre ÃŃ
ĠT el
Ġah o
ĠLA B
Ġven cimientos
pi Ã©
Ġgener aron
Ġco tiz
Ġreg alo
Ġmun diales
PE C
Ġcal am
dic aciÃ³n
ĠdÃ© mos
Ġespecial izados
Ġejer ce
ĠPro cedimientos
Ġregu lados
Ġejecu tados
36 574
Ġ14 7
cl usiv
Ġce dido
Ġconsider Ã³
Ġpromo vido
ĠDes puÃ©s
Ġmanifes tando
73 44
mes e
Ġindi fer
Ġpubl icar
Ġocur rencia
Ġconta ble
10 19
Ġgolpe ados
Ġabier tas
Ġvia je
Ġemi te
ĠORDEN Diputada
ĠCor rupciÃ³n
Ġexcep to
ĠcrÃŃti cos
Ġcaracter iza
Ġcontradic torio
Ġpareci Ã³
Ġdisminu ido
Ġregis tros
Ġsel lo
Ġdemues tre
Ġenfo cado
Ġhor arios
Ġdescu ento
Ġescas ez
Ġsecre tismo
Ġbloque o
Ġdisfru te
Ġbarr io
Ġbor rador
Ġbor rÃ³n
Ġdinam ismo
ĠRes ulta
Ġinscri pciÃ³n
416 6
TIV OS
Ġexpon iendo
Ġelig iÃ³
Ġmillon arias
Ġequilib rado
Ġvaria ble
Ġfru tos
ĠDECLAR A
Ġindis cu
Ġpriva tizaciÃ³n
536 71
Ġreafir mar
Dis cu
Ġsiti os
ĠmacroeconÃ³m ica
Ġaguinal dos
ĠobstÃ¡ culos
mill ones
Ġrecons trucciÃ³n
ĠGuÃ¡ piles
Ġsimp les
ĠDENOMIN ADO
Ġbelle za
Ġw eb
Ġpuntaren enses
ĠTar as
Ġrestau rantes
ĠMAGIS TRA
ĠTRAV ÃīS
1 36
1 58
A h
C OM
F odesaf
Y AR
c rÃ©dito
e ver
en tre
Ġs enda
in i
Ġh alla
da ciones
Ġdel icada
ĠC AJ
ĠC ELE
Ġdi arios
Ãº l
ĠN OM
Ġmu riendo
Ġdes esti
ĠM icit
ĠM icha
Ġte la
Ġtra tamos
Ġtra duce
Ġ1 76
for mes
Ġsol idez
Ġdeci den
ĠI II
Ġins pec
Ġinter pelaciÃ³n
ĠV ial
gr Ã¡fico
ĠsÃŃ mbol
Ġab uelos
Ġci tas
Ġsen ti
Ġval er
Ġcal lada
OL U
ĠEl im
Ġlu pa
Ġafec tÃ³
Ġavan zamos
Ġrespe ten
Ġaprob ara
Ġgaran tes
Ġponer les
Ġabs or
Ġfal las
ĠPro fesi
Ġagra var
Ġrecor damos
In f
ĠPOL IT
Ġinde fens
Ġ13 8
ĠAL CAN
Ġ12 9
Ġ15 2
Ġvolun taria
Ġgus tado
Ġcuesti ones
Ġincorpor Ã³
Ġpubl ici
Ġcome tieron
Ġocur ra
ex iÃ³n
Ġolvi demos
Ġtor menta
Ġapren dido
Ġregula dores
Ġsatis fa
ĠPresupues taria
Ġperm ÃŃ
Ġinclu idas
Ġger encia
ĠSeÃ± ora
Ġresca te
ĠTER RI
Ġbeneficia do
Ġexplica ba
Ġexcluy endo
ĠAPO YAR
Ġeconom ista
Ġadelan tar
ĠDiputa da
Ġrefir iendo
Ġinneces aria
ĠTE A
ĠCOR RESPON
Ã³lo gos
ĠSec tor
Pre cisamente
cor por
Ġconcil iaciÃ³n
Ġurb ana
Ġrecord ando
ĠPRE VENCIÃĵN
ĠmÃºs ica
Ġrecol ecciÃ³n
Ġsosp ech
ĠTes orerÃŃa
Ġpropa gan
Ġidi oma
ĠUniversi tario
ĠIF AM
Ġexha us
ĠCELE BRA
ĠMicha el
ĠPOLIT ICO
4 21
S S
c ara
d Ã¡
d ante
d arias
e os
g ÃŃas
n ina
x a
Ġ tÃ³
Ġl ech
Ġa vi
ci amiento
Ġm us
Ġm Ã¡r
Ġcon ozcan
Ġv icepresidenta
ec un
Ġcom bo
Ġo brero
ĠC ana
ch ar
ĠL iga
Ġi glesias
ĠA FEC
Ġpa tentes
Ġdes le
ens ible
ER ACIÃĵN
inis mo
Ġhacer los
ĠF MI
ĠF orestal
Ġcre aron
Ã©s emos
Ġpas emos
Ġag entes
pi as
Ġmar cado
ĠB el
Ġad quier
zo bra
Ġcan sados
jer ÃŃa
Ġpon ÃŃa
ĠU r
ĠIn der
Ġdef ina
ĠCom petencia
ĠO l
Ġra tificaciÃ³n
par te
Ġcal lado
Ġcier res
Ġ19 57
TI N
Ġespecial ista
Ġfundamenta ciÃ³n
20 22
Ġcorrespon der
Ġtermin o
iza dor
RE MA
Ġoblig ando
Ġ11 8
Ġsignifica tivos
Ġpropon en
Ġanal izÃ³
Ġconfi gu
Ġvisi bilizar
Ġro tun
39 1
dera do
70 32
Ġases ora
Ġcapaci tar
ĠUN IDAD
Ġof rez
Ġimple mentado
86 50
Ġcoleg as
Ġcontribuy an
Ġgobern abilidad
Ġdese os
Ġfacil ita
128 73
Ġpronun ciado
ĠEm il
Ġpropor ciÃ³n
Ġveci no
ean nina
Ġsubsi di
Ġofer tas
Ġele va
Ġgi ro
ĠraÃŃ ces
Ġpertin encia
Ġsindica to
Ġdivi dir
Ġdim ensiones
ĠINV U
Ġpopul ista
Ġbom beros
Ġasf Ã¡l
ĠCOR TE
ĠJurÃŃd ica
Ġdeten imiento
Ġpresencial es
ĠSAL A
Ġprote ctor
ĠAc ceso
Ter minals
inten dencia
Ġpatrimon ial
Ġlis tado
Ġeduc ar
Ġhorizon tal
Ġsilves tres
Ġsubsis tir
Ġpervers o
ĠridÃŃ culo
ĠNUE VO
Ġrenova bles
Ġzo zobra
Ġanu encia
ĠArro yo
nex o
ĠSUP REMA
ĠCorre dores
Ġcesan tÃŃa
ĠEJECU TIVO
Ġdesaceler aciÃ³n
Ġrecorr er
ĠllÃ¡ mese
ĠPÃ¡ ez
9 7
C N
I OS
J E
S Ã©
g esti
h echo
l im
z ara
Ġde partamento
an des
Ġen cer
Ġun imos
Ġre me
Ġre habilitaciÃ³n
ĠC iertamente
ĠC ULTURA
Ġal turas
ĠD ISC
ĠA gua
ord ero
Ġap ega
Ġac e
Ġte m
Ġas om
Ġas cen
Ġan si
Es peramos
Ã©s el
Ġver ti
gar on
ĠH is
ĠH arllan
uch a
Ġcor tinas
per s
Ġvi tales
fic as
Ġmar ino
Ġab ord
âĢ¦ .
Ġhum anas
Ġsalud ar
Ġ22 07
Ġpregun tan
Ġmin tiendo
Ġpos teriores
Ġveinti uno
Ġ14 1
Ġ10 1
Ġaca demia
Ġrequ erÃŃa
Ġpeque Ã±
Ġalcan zan
EC TOR
Ġobs ol
Ã¡r coles
Ġquedar Ã¡
Ġquedar me
Ġafir mar
Ġdesa cuerdo
Ġgan ancia
Ġcaus ando
TU DI
48 0
Ġreca e
ĠPRESUPUES TOS
tocol o
ĠES TUDI
ĠCONS ERV
Ġmatr ÃŃcula
Ġencar gadas
ĠTer ri
ĠTer minals
Ġcaracter ÃŃstica
Ġperfec ta
Ġintro ducciÃ³n
Ġrecha zada
Ġamor tizaciones
Ġpus e
Ġatras ar
Ġsuscri bir
Ġagropecu aria
Ġmarch amos
ĠestratÃ©g icas
Ġprepar ar
Ġherm ana
Ġsecre tario
Ġpreven tiva
Ġmaes tro
Ġmez qu
Ġinjus ta
Ġlimp ias
Ġrecuer dan
lÃŃ cito
548 95
ĠPOLÃįTICA S
gru ente
ĠlegÃŃti mo
ĠDECLAR AR
Sab en
BIL IDAD
Ġarran car
ĠNor mas
Ġcafe tal
ĠFER I
Ġvelo cidad
ĠCONTRIBU CIÃĵN
ĠON U
cci dente
ĠPART E
Ġrob usta
Ġartesan ales
ĠCUMPLI MIENTO
COM PARECENCIA
ĠCONSERV ACIÃĵN
5 18
F elici
L le
R estauraciÃ³n
c rimin
d ecen
i gamos
n y
r arse
Ġp Ã³l
Ġp echo
er ia
Ġa ven
Ġque jas
or ar
Ġen trado
al an
ic arse
Ġin ac
Ġin cisos
Ġcom ete
Ġdel im
bi eron
ĠP E
Ġpro c
tra fic
Ġdi Ã©sel
Ġper if
Ġto que
Ġex ce
Ġdes fas
Ġcomp ran
bre mos
Ġres istencia
Ġtra ducir
Ġtra cto
Ġ1 04
Ġ1 50
ER ÃįA
Ġas imismo
br Ã¡
Ġsal do
ĠH asta
lam iento
ber ÃŃa
Ġcam isa
Ġaten tos
Ġdesarrol lan
Ġpermi timos
Ġapoy os
Ġcal ma
AL IZACIÃĵN
Ġefec tivos
ĠRo jas
Ġba jado
terior mente
AS E
Ġautor izando
ĠRE ELECCIÃĵN
ĠCON TEN
ĠPro tocolo
Ġrequier an
Ġlog ÃŃstica
Ġdoc encia
Ġtoma das
76 4
Ġrecu ento
Ġequi pamiento
Ġgan arse
Ġbr ill
Ġcontribu ido
Ġdemos trando
44 56
Ġimpuls Ã³
Ġconoc ÃŃa
Ġconci en
Ġenfer mos
Ġdistribu idos
Ġincen dio
Ġprohibi do
33 3
Ġrequer ido
Ġnarco trafic
Ġvac ÃŃas
Ġtransfor maciones
Ġreclam ando
94 0
Ġpare des
ĠenseÃ± ar
183 14
Ġmulti laterales
Ġ963 2
Ġsustancial mente
Ġcerc anos
Ġlimp ia
Ġintelig entes
Ġprem isa
Ġabandon ado
Ġpreval ecer
Ġpaque tazo
ad yu
Ġrigu roso
Ġextranjer as
Ġdespilf arr
âĢĻ ,
Ġproduci do
Ġaccesi bles
Ġconstruc tiva
Ġendeud arse
Ġtej ido
Ġnutr ici
Ġmigra toria
Ġconvoc Ã³
Ġrenego ciar
ĠbenemÃ© rito
ĠSOSTEN IBIL
Ġcorrup tos
ĠPROC EDI
ĠcÃ© dula
Ġcaute lares
ĠJURÃįDI CA
ĠÃ¡rbol es
Ġdiferenci aciÃ³n
quir res
EJ O
Ins isto
Ġindefin ida
ĠDECRE TO
Ġterg ivers
Ġpetrol era
ĠAten as
Ġalm uer
ĠSEGREG UE
ĠDECLARA TORIA
ĠCAJ A
ĠSOSTENIBIL IDAD
M ES
N unca
S teller
U J
c ÃŃas
g encia
y en
Ġd aban
Ġde di
os iciones
Ġl lor
Ġque brado
Ġm ÃŃas
Ġcon tro
Ġcon mo
Ã© tica
Ġdel ega
ĠP O
Ġo pacidad
de mi
ĠC ordero
Ġdi la
ter n
Ġcu yas
Ġle vante
ĠE FEC
ĠA R
ĠA yer
era mos
Ġpo zos
Ġpa usa
Ġex ma
Ġdes apro
ĠM ari
ĠM IN
yec tos
ĠseÃ±or ÃŃas
raci ones
Ġcons umen
ico tina
ĠF anal
uev os
ĠT ampoco
Ġar tistas
Ġvo tan
ĠCon assif
tin tamente
min ente
Ġrec lu
ĠO B
ĠO M
Ġmejor en
Ġcal la
Ġrep as
Ġfavor ece
Ġfavor eci
ĠseÃ±al Ã©
ĠIN CL
Ġ22 0
Ġvotar emos
Ġestabl ecÃŃa
Ġsan as
Ġgaranti zan
Ġcl ari
Ġru ido
Ġinten tÃ³
Ġrevis emos
Ġ13 9
Ġmane jos
Ġconsider en
Ġencuen tre
Ġdicta dura
ĠPLEN ARIO
Ġcontribu tiva
Ġsuf rim
Ġreun ÃŃ
Ġhuel la
Ġargu menta
Ġbrin car
ĠâĢ ĵ
Ġconoci Ã³
Ġmuer e
Ġenfer m
Ġjerar quÃŃa
Ġmor talidad
Ġinconstitucional idades
Ġami gas
ĠTRA S
Ġav oc
Ġcontribuy en
Ġregi dores
Ġprome tido
Ġ199 0
Ġelimin Ã³
Ġeng or
Ġnaci dos
Ġcasti ga
Ġbloque os
Ġpesqu erÃŃa
AP ACI
ĠelectrÃ³n ica
Ġmez c
Ġviceminis tra
Ġingen iero
Ġarm onÃŃa
ĠTribu taria
Ġreglamen taria
813 88
Ġendeud ando
Ġinad m
Ġnutr iciÃ³n
Ġlegiti midad
ĠRom ero
Tal vez
Ġsopor tar
ĠclÃŃn icas
Ġconmemor aciÃ³n
ĠAÃĳ O
ĠAÃĳ OS
Ġasegur amiento
ANTI ZAR
Ġintelec tual
Ġmedu lar
ĠGAR ANTIZAR
Ġcongel amiento
ĠEnerg ÃŃa
ĠInd ÃŃg
Ġdorm ir
Ġcomerci antes
Ġujier es
Ġdividen dos
OLU CIÃĵN
ĠDISC APACI
ĠPROCEDI MIENTOS
9 22
E G
G u
N Ãºmero
l ecen
o te
x im
Ġh el
Ġse ver
Ġcon tado
Ġf ÃŃ
am as
Ġpa gados
Ġten der
gu iente
Ġex im
Ġimp lique
Ġap res
Ġres tantes
ga ces
Ġpres cin
ĠEs pero
Ġan ualidad
Ġdeb an
ĠF ORM
Ġinter ro
Ġar ena
Ġsal dar
Ġpoder le
Ġpoder osamente
ig all
ĠJ OS
Ġhabl aron
Ġfun cional
Ġven gamos
Ġcol a
Ġcol ch
Ġinfor mÃ¡ticos
ES TRUCTURA
Ġdar emos
RA ESTRUCTURA
Ġcin e
Ġpon i
Ġco ca
Ġpermi tamos
car bur
Ġpens aba
Ġne gro
Ġplan ificar
Ġfu tura
gue mos
Ġescu cho
Ġcomun icaciones
Ġorden a
Ġfavor eciendo
Ġconstitu ciÃ³n
Ġconstitu ir
BL EC
ID EP
Ġmencion ados
Ġfi jo
Ġ14 6
Ġdoc trina
Ġinten ta
Ġ10 9
Ġalcan taril
Ġmanifes taron
Ġgan Ã³
Ġocup ado
Ġdetermin ados
ĠAr mas
Ġch am
pl ante
29 80
Ġcome ten
LE MENT
Ġtor tura
Ġgobern antes
Ġale da
Ġexten s
ĠAU T
Ġcrea tivos
Ġrepar to
Ġparlamen tarios
Ġcontun dencia
Ġfirm Ã©
Ġtrami tando
Ġele vado
Ġhones to
ĠÃī l
Ġquis ieran
ĠEuro pea
Ġdeses peraciÃ³n
Ġdelincu entes
Ġelig ieron
ĠPre venciÃ³n
Ġexitos a
Ġtri un
ĠESTA BLEC
Ġcertifica dos
Ġdesperdi cio
cuÃ¡n to
cuÃ¡n tos
Ġacercar se
ĠAra ya
ĠsÃŃn tesis
ĠdepÃ³ sito
Ġinvisi bil
Ġacord Ã³
Ġimpar cial
Ġpeda g
Ã³cra tas
Ġmercan cÃŃas
ĠMer cado
Ġgratu ita
ĠINF RAESTRUCTURA
UER DO
Ġapremi ante
Ġarquitec tÃ³n
Ġpidi Ã©ndole
Ġater r
Ġfundad or
ĠMunici pales
ĠCONTEN IDO
ĠJOS Ãī
carbur os
IDEP LAN
1 56
4 26
C or
S ESIÃĵN
a ce
g ica
h os
l Ã³n
l antes
m ano
m onos
s tas
Ġl esion
Ġc inismo
ci anos
or cio
Ġe p
Ġe dades
Ġla dos
in idad
ÃŃ mp
ÃŃ tulos
Ġpar to
ol iber
de termin
ĠC iencias
ĠC oprocom
Ġal iados
Ġdi versi
ma dos
Ġsu ena
ca te
Ġdes vi
Ġcomp lace
Ġmo tiva
vi das
Ġins tar
Ġver ificaciÃ³n
ĠT ras
ĠT Ãī
Ġsal gamos
Ġcor ren
dr ÃŃamos
Ġmar es
ĠB ene
ĠB CR
Ġcol igall
Ġlegisla turas
Ġdesarrol le
ĠO b
ĠO tros
tun a
Ġmejor e
Ġexp ro
if ique
Ġne u
Ġne oliber
Ġinver tidos
udi r
Ġhu ra
pa tr
ĠPa go
Ġcumpl imos
Ġviol a
Ġreac tiva
Ġabr en
eg as
Ġorgan iza
Ġaplic Ã³
Ġparticip antes
Ġcl andes
Ġrecor rido
Ġju bi
Ġinde bida
Ġhi dr
Ġsub com
Ġprior itaria
Ġprior itarios
Ġapor ten
Ġanal izamos
Ġgarantizar le
ĠNi Ã±os
Ġconfor mado
Ġprofun das
Ġincorpor arse
Ġbrin dado
Ġbrin dando
Ġvin imos
Ġrevisar lo
Ġelector ado
14 1
Ġutilizar on
Ġtrasla dando
Ġinvi ola
ĠFinan ciar
Ġliqui daciones
Ġinteg rada
Ġfacil idades
Ġevidencia do
Ġdigital izaciÃ³n
Ġoper ando
Ġenfrenta do
Ġevalu aciones
Ġconvier tan
ĠelÃ©ctr icas
Ġsome tido
Ġarreglar lo
ĠTrans porte
Ġfom en
Ġexcesi va
Ġaspir ar
ĠÃ©x itos
Ġremo de
ĠSEGUR OS
Ġexpon encial
Ġaccesi bilidad
ĠPROP ON
760 30
ĠdiseÃ± ar
Ġza f
ĠPRIM ERA
Ġaguinal do
Ġriguros idad
Ġsupre mos
Ġderoga toria
ĠCENTRO AMERICANO
Ġimpera tivo
Pue de
Defens ora
ĠSex ual
Ġdesventa ja
Ġencab ez
Ġum bral
Inicia mos
ĠFon abe
ĠnÃºc leo
Ġdesle al
ĠDISCAPACI DAD
Ġcoca ÃŃna
ĠTÃī CN
4 33
5 77
G ourzong
M ar
g Ã¡monos
u ma
v isi
qu idad
Ġa tribuy
Ġe go
Ġla var
un cia
in c
tr arse
ic al
Ġf l
Ġo di
Ġo ÃŃdos
tra cciÃ³n
Ġle an
Ġto cando
gu Ã©
Ġdes er
ĠS a
ĠS omos
Ġ20 04
onal d
Ġac ordar
Ġpres as
Ġpre para
Ġas ciende
EF ICI
ĠF eminista
Ġinter ior
Ġver des
Ġr ica
ĠV oy
Ġdiscu ten
Ġven ti
ab ÃŃa
Ġmar inos
Ġad ic
RA L
Ġdef iendo
Ġfinan ciado
Ġmenos pre
TA D
Ġconc ord
Ġri g
Ġfuncion e
Ġcumpl ieron
Ġvotar se
Ġban das
TI L
IN AR
Ġpan tal
Ġrespec tivos
Ġenten dÃŃ
20 2
Ġcomple tos
Ã©di tos
Ġpasar Ã¡
og ando
Ġ10 2
Ġpasa ba
ĠacompaÃ± ando
Ġobs ta
Ġpron tamente
inar te
Ġinterpre tado
Ġdetermin adas
78 90
Ġro pa
Ġindica dor
Ġexig imos
UN TOS
Ġases in
Ġform ul
95 129
Ġconoci mos
Ġgolpe ada
Ġdev alu
22 58
Ġllen os
Ġasign an
Ġcap tura
Ġmanten gan
ĠPatr imonio
Ġcarre ta
Ġado pciÃ³n
Ġinteg rante
Re itero
ĠTer ren
Ġcontinu aciÃ³n
65 49
Ġuniversi tarias
Ġlidera zgos
208 23
Ġalcaldes as
Ġmol Ã©
Ġofre ciendo
Ġbarr eras
Ġparal ela
Ġreduci da
Ġcla ves
Ġresol viÃ³
Ġvalios os
Ġmir ar
CuÃ¡n tas
Ġindis tintamente
Ġcertifica do
Ġutilic en
ĠJUN IO
47 440
ĠREGUL ADORA
ĠenergÃ© tica
ĠobstÃ¡ culo
Ġhermos o
Ġsilves tre
ĠBEN EFICI
Ġmascaril las
ĠCIUDAD AN
Ġgoz an
tem ala
Ġimpedi mento
1589 39
Ġpropagan da
ĠEmil ia
5 26
6 29
8 36
A nexo
F ES
I P
U Z
V ECH
h t
re di
tr aron
Ã¡ menes
Ġf eminista
Ġre organ
ĠP era
Ġo igan
cu Ã¡ndo
Ġg oce
ra fo
Ġcu b
Ġcu bre
Ãº car
Ġti cos
Ġsu puesta
Ġex cesos
ÃŃs ticos
ens os
tor as
ues o
io van
Ġtra tÃ³
Ġtra iga
raci adamente
ĠG iovan
Ġcons igna
ez ol
br il
ĠT aba
ĠT UR
Ġr ÃŃg
Ġpas arÃŃa
tre mos
ĠJ ulio
ĠV ir
ĠAs ign
En ten
AR O
Ġhaci n
Ġhaci Ã©ndole
Ġsen tarnos
Ġra pidez
Ġdec ente
Ġapoy aron
Ġviv iÃ³
Ġpriv acidad
Ġante mano
IS T
men tan
Ġprimer amente
Ã³g icamente
ĠCON VENCIÃĵN
Ġcri tic
gos to
Ġfr ases
Ġfal tar
Ġpan talla
ĠPro vincia
Ġmencion an
Ġejecu tan
Ġsem brar
Ġ10 3
Ġrevis arse
Ġcien cias
Ġaprovech an
Ġ13 5
ĠSal Ã³n
Ġestableci eron
Ġaclar o
Ġcumplir se
Ġcaus ar
Ġentender lo
Ġvisi ble
Ġro gar
Ġdefender se
Ġconsu me
ĠEx tran
Ġargu mentando
Ġvin iendo
10 9
Ġrespon diÃ³
Ġrenta ble
Ġasegu ro
Ġirresponsa blemente
ĠseÃ±ala dos
Ġtransfer ir
Ġresul tar
ĠREFORMAS Diputado
ĠPRO FES
Ġiden tificaciÃ³n
Ġcoopera tivo
Ġampli ando
Ġencar gados
Ġsim ul
Ġcoinci dencia
ani tario
Ġreclam a
Ġben diciÃ³n
ĠCONTRA L
Ġestima da
Ġlimi tando
Ġnove dos
Ġarti cula
Ġexplo tar
ĠAG ENCIA
ĠAPRO VECH
Ġsecre ta
Ġsepar ar
Ġjuz gados
Ġpele ar
su b
Ġsaca mos
788 7
Ġincur rir
Ġaco ge
ĠpÃ©s imo
Ġacus aciones
Ġpul per
ĠaltÃŃs ima
ĠDECLAR ACIÃĵN
Ġnombra dos
Ġlin do
237 74
ĠvÃŃn culos
Ġrecol ec
Ġtransmi tir
ĠORGAN IZ
Ġblin dar
Ġrobus to
ĠGua temala
Ġllu via
4449 6
rie to
Ġcomenta ba
Recu erdo
Ġprimor dial
Ġnul idad
Ġenve je
Ban crÃ©dito
ĠVIOL ENCIA
Ġfo tos
Ġdiferen ciar
ĠElim inaciÃ³n
Inf ocoop
ĠPera za
ĠAPROVECH AMIENTO
1 59
E D
V eo
g arita
i tan
l ece
Ġp ur
Ġp istas
Ġde mago
Ġl ecciÃ³n
Ġa man
ci c
on ada
que l
is tos
Ã© an
Ġin du
ĠP ilar
ra bes
Ġcu ida
Ġto mo
ĠA h
Ġdes ap
Ġac ces
Ġtra ÃŃa
Ġpresid encia
Ġ1 28
Ġley Ã³
Ġinter rupciÃ³n
fer encias
ĠV ÃįC
um ir
em bar
Ġpresupues taciÃ³n
Ġven ezol
uer on
enda mos
Ġcar b
Ġcal lados
Ġcambi aron
Ġfinanci ando
Ġri gen
Ġconstru ida
Ġfr ÃŃo
Ġtras lados
Ġexis tÃŃan
Ġdemoc racias
Ġregu le
ĠSan tos
Ġfir mes
Ġampl ios
Ġide ologÃŃas
Ġinternacional mente
Ġ11 2
Ġpatr iÃ³
Si empre
Ġ13 1
Ġ12 2
Ġam er
Ġho teles
Ã¡r s
Ġprom ueven
Ġocup ando
Ġvisi ones
Ġvisi bil
29 9
Ġgol pes
Ġafirma tivas
Ġdisp ara
Ġconta gios
Ġpesca dor
Ġcerr aron
Ġprev isiones
Ġdign amente
Ġauto cr
ÃŃg ame
ĠCo opera
Ġfa br
Ġcap taciÃ³n
Ġacep ta
Ġcuestion ando
Ġcoordin adora
52 4
Ġempi ecen
Ġinclu ÃŃa
Ġcontradic e
Ġconcen tra
Ġconcen trado
ĠMuch os
Ġcontes te
Ġbo tel
Ġdepor tistas
Ġanti gÃ¼edad
ĠcontinÃº an
ĠTo das
Ġproce dente
Ġaumen tan
Ġmandar on
Ġsien tan
Ġhere di
ĠautomÃ¡ ticas
ĠMINIS TRA
Ġperf iles
ĠSuper intendencia
Ġconcluy Ã³
Ġbra zo
Ġmone taria
ĠDon e
ĠBanc ario
Ġdr amÃ¡
Ġliberacion istas
ĠtelÃ© fonos
Ġinmue ble
Ġanim al
Ġlabora torios
Ġaj ena
ĠSISTE MAS
ĠPROC ES
Ġencan ta
Ġqued ara
ĠBEN EM
Ġdesaperci bido
Ġtraspas o
Ġarr enda
Ġpec ado
Com par
Ġcolum na
ĠMin erÃŃa
Ġmanio bra
ĠSen ara
Ġsobrepre cios
Ġobser van
ĠLGT BI
Ġcalam idad
Ġlech e
ĠCana dÃ¡
Ġsufrim iento
ĠGiovan ni
ĠExtran jerÃŃa
Ġautocr ÃŃti
. ,
B R
C REACIÃĵN
M IDEPLAN
R EF
V o
d y
d istas
f ir
t Ã¡ndoles
Ġ tin
Ġ 04
Ġde bilidad
Ġde parta
Ġa tin
Ġa diciÃ³n
Ġc Ã³n
Ġc usto
or io
Ġes pi
al cal
Ġh in
Ġv os
Ġre tenciÃ³n
Ġre ad
Ġin mor
Ã± e
ĠP rieto
Ġo ciosos
Ġpro vecho
de os
ĠC ele
tu to
tu alidad
ter ÃŃas
ra tos
Ġle j
ĠL OC
era dos
tan d
Ġsu biÃ³
Ġsu biendo
ici das
oc ales
Ġtra yendo
Ġ1 36
Ġperson eros
ĠF el
obiern os
Ġsobre pas
ĠH UM
Ġag res
ĠCon formidad
ĠRe al
Ġsegu ras
Ġve ge
Ġprim as
Ġaten dida
Ġrec rea
Ġco adyu
Ġ9 11
Ġrespe tamos
ĠÃ© ramos
Ã³g eno
Ġren gl
Ġtermin en
Ġsuper an
Ġsuper inten
Ġtur ista
Ġrepresenta do
Ġgeneral izado
ĠprÃ³x imamente
49 78
Ġpermitir le
Ġgrave mente
Ġsuf riÃ³
Ġpubl icaciones
39 23
ĠdaÃ± ar
Ġsacar lo
Ġlevan ta
ĠHa bl
Ġaplica da
Ġacep table
Ġprohibi ciones
Ġarreg la
Ġanalizar lo
Ã³s iles
ĠEsta tuto
Ġcontes ta
Ġreclam an
Ġsustan tivo
ĠAC UERDO
ĠEdu arte
Ġconden ar
Ġub ica
Ġub icados
183 28
Ġfacul ta
Ġger entes
ĠVar ela
Ġbara tos
ĠengaÃ± o
ĠDec reto
Ġindign ante
Ġpopular mente
Ġestad ÃŃstica
Ġpronunci arse
pan demia
Ġfer ro
ĠREC REACIÃĵN
Ġacon di
Ġinscri bir
Ġfideicom isos
Ġpele a
ĠApro vech
Ġcorre os
Ġmodifica do
ĠBol sa
Ġmodific Ã³
Ġamnis tÃŃas
âĢĻ .
Ġrestr in
Ġabaste cer
Ġexdiputa da
Ġpostu lantes
Ġconsensu ada
Ġsometer se
Ġdetec tar
Ġposter gar
ĠIns pecciÃ³n
Contin Ãºa
Ġgubernam ental
ĠGar rido
Ġincorrec to
Ġinto ca
pres upues
ĠCAP ITAL
ĠORGAN IZACIÃĵN
Ġempa tÃŃa
Ġingenier ÃŃa
Ġnumer aciÃ³n
Ġimprovis aciÃ³n
ALIZ AR
Ġtarif ario
tÃ©r pre
Ġdesafec taciÃ³n
Ġalum nos
Ġsolidar istas
8138 76
ĠRELACION ADAS
ĠMOR ALES
Ġexpro pi
ĠTaba co
ĠVÃįC TOR
REF ORM
Ġdeparta mentos
B ON
D el
F ICI
M en
M UE
T L
d Ã©
e t
u lados
v iene
x ic
as tas
Ġque bra
Ġes tru
Ġh uevos
Ġse v
Ġpr ima
ic tim
Ġcon ceder
Ġv el
om al
Ġf ocal
Ġf Ãºtbol
bi o
bi dos
de ar
Ġdi le
Ġper damos
Ġper versa
ĠE duca
ĠD URAN
Ġb aÃ±o
ĠM en
go ci
Ġap ari
Ġproyec ta
ĠG AS
Ġan tic
ĠI tal
ĠF in
Ġcre zca
Ġcre dencial
Ġemp eÃ±
uev an
ĠT a
ĠT u
ĠT res
Ġpas ara
ĠH IST
ĠJ ul
ĠCon tenido
Ġcor tina
Ġinstitu to
Ġesp oso
Ġcan tidades
jer os
Ġob tuvo
ENT ARIO
Ġentre mos
Ġapoy Ã³
Ġne gÃ³
pec to
Ġrep os
Ġinv as
ona ble
Ġpes car
Ġavan zada
ĠIN MUE
Ġban da
Ġban queros
ĠRE AC
Ġvol umen
Ġinteres an
Ġrespec ta
Ġcer ti
Ġtermin ando
Ġejecu tivos
Ġ14 5
Ġrecor ta
Ġide ales
Ġrevis a
ĠEN ERO
Ġhom bros
Ġgenera dos
Ġencu estas
Ġurg entemente
Ġsub ca
76 2
Ġcuan ti
Ġprom ueva
Ġgus tÃ³
Ġexper to
ĠÃģ rabes
Ġindica ba
Ġnegoci ando
Ġpel ÃŃcula
Ġexig encias
Ġorganiz ada
ĠUnivers al
Ġutilizar se
Ġcomen zÃ³
Ġlevan tando
Ġincre menta
Ġincre mentado
ĠCor poraciÃ³n
Ġagradecer ÃŃa
Ġav ala
84 2
ĠDES CAR
Ġdetal lado
Ġinteg ramos
Ġrequer ida
Ġcontinu o
Ġsatisf echos
Ġil um
Ġexplicar le
128 7
Ġequili brar
Ġub icado
Ġinm enso
Ġtrami tado
Ġderiv adas
Ġlimita da
Ġbill Ã³n
Ġtercer as
ĠTER C
Ġrepro duc
Ġton tos
Ġviceminis tros
Ġprovoc Ã³
Ġprovoc an
Ġintermedi arios
Ġpreval ece
Ġsurg iÃ³
ĠPRESID ENCIA
Ġbarb aridades
TIV ACIÃĵN
Ġconex idad
Ġrees truc
Ġdesign aciÃ³n
Ã¡rse le
ĠSERVICI OS
Ġrenego ciaciÃ³n
ĠNues tro
Ġcristi anos
Ġpreju icios
Ġsube jecuciÃ³n
Ġdesn ivel
703 29
tÃ³r ica
ĠIND USTRIAL
ĠÂ ¡
Ġcho fer
ĠÃļ n
ĠAudi torÃŃa
Ġxenof obia
ÃĵR ICO
ĠEmi ratos
Ġpatro cin
BON IZACIÃĵN
ĠDURAN TE
ĠHIST ÃĵRICO
ĠREAC TIVACIÃĵN
ĠDESCAR BONIZACIÃĵN
8 74
b icos
d ecemos
g al
m ia
r ÃŃ
Ã ¶
ti que
Ġf es
Ġf us
Ġre pÃºblica
Ġre portes
ĠC RE
Ġcu br
Ġqu ÃŃm
Ġest ÃŃm
cia da
gu ero
ĠM I
Ġac tivamente
Ġso porte
Ġpres te
Ġcos echas
Ġas fi
Ġman dos
Ġplen as
Ġins in
Ġver Ã¡
Ġsobre ende
Ġtraba je
me x
ĠJ un
ĠAs imismo
Ġve cin
Ġcontra produc
si der
Ġven cer
AR ÃĵN
ĠB ern
Much o
Ġtar dar
Ġdef ienda
Ġt Ã³nica
AL IDAD
pa go
Ġconf iar
bo a
Ġevi dentes
Ġinf ancia
Ġmon tones
Ġreac cion
Ġnorma tivas
Ġaf inar
Ġ14 9
Ġhabi tante
cri ta
Ġide olÃ³gicos
Ġsem ia
Ġmodi fique
Ġqueda ba
so bre
Ġpal ia
Ġpal iar
Ġrefle jar
tis f
Ġconte x
Ġresolver lo
Ġelim ine
Ġquedar ÃŃa
16 0
ĠMar garita
Ġdesi dia
Ġobliga da
Ġsum ando
Ġbrin dan
Ġrespon den
Ġcorri ja
Ġllamar nos
ĠCOM B
Ġacep to
Ġopera tiva
ĠPresupues tos
ĠX II
Ġcontinu amos
Ġesc ru
Ġculpa ble
Ġsustan tiva
Ġinvoluc ra
Ġoficial ismo
ĠCONTRA TOS
Ġpare jo
Ġconec tar
ĠTo da
Ġpesqu era
Ġrecur rente
Ġinvestiga doras
ĠFinanci ero
ĠCR UZ
ĠPAR CIAL
Ġsurg ido
icÃ³ p
Ġmonop ol
ĠdomÃ©s ticas
Ġexclu idas
Ġsenta da
ĠSUSCRI TOS
ĠsÃ³l idos
Ġequilib rada
Ġestre lla
ĠlegÃŃti ma
Ġdesin formaciÃ³n
Ġadm isiÃ³n
ĠescÃ¡nd alos
ÃģN TICA
Ã¡rse la
Ġesca pa
Ġvincula da
ĠDIS P
Ġmental idad
Ġprocura dor
Ġadvir tiendo
Ġincorrec ta
ĠDomin go
Ġdesf inan
9228 70
Ġdesmante lar
ĠCONVEN IO
Ġepi demia
ĠComun icaciÃ³n
ĠhÃ©ro e
ĠVAL ORES
ĠCAM ARÃĵN
Ġexplor aciÃ³n
Ġecosiste mas
ĠJes Ãºs
ĠAmeric ana
iru be
Discu timos
Ġhel icÃ³p
ace ta
ĠTÃīCN ICA
TL ÃģNTICA
Ġdile ma
Ġasfi x
A r
G AS
S iendo
T ra
V en
a tisf
c omo
j uel
en tonces
Ġp Ã³n
Ġen lace
Ã³n icas
Ġcon tenta
Ġin esta
Ġcom entado
ĠC Ã³
ĠC Ãģ
tu so
Ġdi r
ĠA TLÃģNTICA
ĠR ecu
Ġex entos
Ġex can
Ġdes gar
ĠS IN
Ġres is
ĠDE RO
ĠG eannina
ĠG obiernos
ĠG aceta
Ġma tric
quÃŃ n
Ġas ig
des carbonizaciÃ³n
Ġmo tivar
Ġman dando
vi ado
Ġan ivers
Ġan omal
Ġmi de
Ġmi la
Ġmen tido
ĠRe v
gr uentes
fic amente
Ġab rimos
tur almente
Con ap
Ġtran quila
Ġdef a
Ġci tado
ĠO sa
Ġdec ÃŃamos
Ġmenos ca
Ġden ig
Ġba jando
Ġfuncion an
bo o
Ġtre m
Ġescuch aba
Ġreac cionar
Ġtras ciende
Ġfal la
Ġfal lÃ³
Ġnego ciado
Ġdirec tas
Ġtermin aron
Ġeduca dora
Ġhabi tan
ĠLu cas
Ġdefen diÃ³
Ġinici e
Ġllevar lo
Ġsac aron
Ġpatr onal
Ġgenera dor
Ġtoma da
Ġ13 3
ĠSal arios
Ġ12 6
EC O
Ġadministra dos
26 9
gen o
Cu atro
Ġlograr lo
Ġpol arizaciÃ³n
73 449
Ġincon ex
Ġdetermin e
79 7
ĠMar ce
Ġvacun ar
Ġobliga das
10 53
Ġcontar Ã¡
14 5
Ġequiv oco
Ġotor gados
Ġreconoci das
Ġcorregir lo
Ġrenun ciÃ³
Ġayuda do
Ġaus tero
Ġgobern ante
Ġlic or
ĠVi ejo
Ġjue zas
ĠturÃŃs ticas
Ġsabi endas
Ġpien sen
fi quen
Ġreser var
Ġconstituy entes
Ġrecha zÃ³
Ġcoloc aciones
Ġbreve dad
Ġexpor tar
Ġresponder le
ĠSeÃ± ores
Ġproce da
Ġenter rar
Ġbor de
Ġapla uso
Ġeviden cian
ĠAB AN
Ġges to
Ġexcesi vos
Ġbra z
ĠdomÃ©s tico
quiÃ©n es
Ġadm ir
Ser Ã©
Ġaz Ãºcar
Ġinquie tud
ĠactÃº a
ĠNues tra
Ġdesalo jo
hu ana
Ġratifica do
Ġgre mio
ĠGua tuso
tÃ³r ico
ĠAlf aro
Ġdeud ores
Ġfarm acias
Ġcuel lo
Ġinevi table
Ġmari huana
Ġasenta mientos
ĠIMPUES TO
ĠCara zo
Ġescan dal
ĠdatÃ¡ fonos
Ġmezquin dad
Ġala juel
ĠsÃŃmbol o
Ġexma gistrado
Ġinadm isible
B AN
I G
L im
T ICOS
Y A
b is
b ene
e ar
h n
h ab
Ġ osten
Ġp il
Ġa ci
on ando
Ġm ueve
ti tos
Ġen r
Ã³n imo
Ġpr orro
Ġcon no
Ã¡ di
Ġno tarios
Ġre m
Ġre goci
Ġre tÃ³rica
Ã© ricas
Ġpro bar
tra je
ter ia
ĠL ocales
ĠD ic
ĠA Ã±o
ĠR en
Ġti bur
Ġpa pa
ĠS abemos
Ġap icultura
Ġser emos
Ġdis tan
con tra
ia ble
br icio
Es per
Ġemp e
Ġins atisf
EN DEN
Ã¡n ico
ĠH an
Ġpoder se
Ġmi x
Ġbi olÃ³gica
Ġmar cas
ĠB ASE
Ġab ismo
min o
ud an
Ġco bar
av or
uel vo
Ġcier ren
Ġescuch ados
Ġautor izados
TI EMBRE
Ġabs ten
Ġfal tando
Ġbenefici arias
Ġcorrespon diÃ³
Ġsoci os
Ġpi on
Ġpi el
Ġsom br
ĠMon tes
Ġrevis amos
Ġtrata ba
49 4
Ġdestin an
Ġol vidad
ĠDes a
73 39
Ġconfor mamos
ĠAr quitec
Ġch ance
ĠReg ional
Ġanun cios
Ġutiliz adas
Ġvin e
Ġvin cular
Ġfortale zca
Ġlegal izar
Ġasum an
ĠdemocrÃ¡ ticas
Ġlevan tÃ³
Ġacer tada
Ġllega ba
Ġreconoci mientos
Ġresuel van
Ġleer lo
Ġinform aciones
Ġsim b
Ġdoctor a
Ġdiv isas
Ġexclusiv o
Ġrepar ar
Ġtranquil o
Ġdue Ã±o
Ġcuen ca
Ġanti gu
Ġcalifica do
Ġmulti plica
ĠhistÃ³ric as
ĠÃģlvar o
Ġagrade cida
Ġmas cul
Ġformal izaciÃ³n
155 4
Ġdescar o
Ġpronunci amientos
Ġacog ido
Ġjefa tura
Ġfer iados
Ġasocia das
Ġvari ar
Ġos cu
416 61
ĠFa bricio
Ġcris tal
Ġ89 04
Ġcomplaci do
259 19
Ġinfer iores
Ġapropi ado
ĠGar nier
Ġfrecu encia
Ġderro tero
Ġasegura doras
Ġaguan ta
Ġincoher encia
ĠmarÃŃti mo
Ġretroce der
Ġdenom ina
Ġpenitenci arios
ĠBenem Ã©
tereo ti
clusiv e
Ġhidr Ã³geno
ĠAprovech amiento
REFORM A
Ġanivers ario
Ġdefa ult
6 48
9 18
P os
m ica
u re
Ġ âĢ¦
Ġa fortunadamente
Ġes tereoti
in amente
ti Ã©ndose
Ġf eminis
Ġre ma
Ġre vocatoria
Ġin ha
Ġin tÃ©rpre
cu esta
ue ga
tar Ã©
Ġto can
Ġi glesia
Ã¡s icamente
Ġme tidos
Ġsu po
Ġex enta
ĠS IL
Ġ20 50
Ġ20 30
du l
Ġj oya
Ġso da
Ġtra igan
ĠG am
ĠG ara
Ġpres ten
Ġma tando
ces a
pe di
Ġman tuvo
ĠI lÃŃcito
Ġus e
el ecciÃ³n
Ġins pi
Ġver la
Ġ202 3
Ġpoder osos
ĠV arios
ĠV ida
Ġmedi ciÃ³n
Ġmis eria
Ġcam ina
IC UL
Ġob tenido
Ġpon gÃ¡monos
Ġau mente
Ġproble mÃ¡ticas
ib us
Ġllam e
Ġorden ado
Ġplante o
ĠAl coh
Ġante pas
Ġref uer
AS A
Ġfal se
Ġgenerar le
ID AS
Ġenf Ã¡tico
Ġpu ro
Ġcer e
Ġsuper fici
Ġampl ias
Ġcompe tente
Ġllevar se
Ġllevar nos
Ġhici eran
ĠZ onas
Ġdeclar an
tran s
Ġadministra dores
Ġ15 6
Ġinterpre te
Ġpol ÃŃg
Ġvisi tado
Ġexpres Ã³
Ġliber ar
Ġargu mentaciÃ³n
Ġestablecer se
Ġprev Ã©
ĠVal or
Ġform ales
63 7
Ġrepi ta
Ġrepi tiendo
Ġconsidera dos
Ġapar eciÃ³
Ġinsis ten
Ġotor gan
Ġsani tarios
12 4
Ġaclarar le
Ġgobern ando
Ġgana deros
Ġdese an
tima dos
ĠCal dera
Ġperspec tivas
Ġcoloc ando
Ġresta uraciÃ³n
Ġorien tado
Ġquitar les
Ġtriste mente
ron ter
ĠCons u
Ġignor ancia
Ġenter ado
Ġamp ar
Ġentra das
Ġunir nos
Ġexcesi vamente
Ġaspir aciones
Ġcompro bado
ĠAp ren
Ġsupera do
Ġenv uel
Ġlan zar
Ġdesen v
Ġatropel lo
Ġidentifica do
Ġinfl uy
Ġenrique cer
Ġaz ul
Ġgenu ino
Ġextern ar
Ġcomputa dora
Ġurb ano
Ġhorizon te
Ġarmon izar
ĠTRABAJAD ORAS
Ġinsul tos
Ġrefu gio
Ġobe dece
Ġcercan as
Ġcercan ÃŃa
Ġsalvaguar dar
Ġcans ado
ĠBi bl
Ġrinc ones
ĠÃº til
ĠMERC ADO
ĠTel ecomunicaciones
Ġhalla zgos
ĠNOM BRA
Ġnarcotrafic antes
Ġcoligall eros
Ġsubcom isiÃ³n
ĠTerren o
ĠTUR ISMO
boo k
9 55
F ISCAL
L ONES
P AC
V OR
b Ãºs
g ible
l in
w it
es to
qu ido
ta me
Ġe gresos
Ġel udir
tr aciones
Ġpr isiÃ³n
Ġcon tando
Ġpar ezca
Ã© l
Ġin o
Ġpara f
bi ble
Ġo cu
tu vimos
cu ar
Ġper dimos
ĠD inarte
ĠA ctualmente
ĠN uevo
Ġqu eramos
Ġme xic
Ġti jera
gu lar
Ġdes an
ir i
oc res
Ġdiputa ciones
ER TI
Ġpres tando
Ġma f
ce book
ĠF itos
Ġcre cen
Ġinter pe
ĠJ a
uch as
Ãĵ G
dr as
Ġven ia
fic os
tin io
ENT AL
ĠU s
Ġestar se
Ġco hecho
Ġpla cas
Ġcar tel
Ġci egas
Ġplan taciones
Ãį N
Ġem is
uel ita
OL ÃĵG
Ġfinanci eramente
ios a
ĠEn cuesta
Ġmin or
Ġbenefici ando
Ġejer ci
Ġregu l
Ġprogram aciÃ³n
cri tas
Ġcompar te
Ġcompar ado
Ġgenera mos
Ġpropi etario
Ġ13 0
Ġ13 2
Ġsub empleo
18 7
Ġterri blemente
Ġespec tÃ¡
ĠacompaÃ± ada
Ġinterpre ta
Ġincon gruencia
Ġincorpor ada
16 3
Ġindi cios
ĠSi quirres
TOR IOS
ĠSE TIEMBRE
70 35
ĠTra tado
Ġimpuls ada
Ġutiliz amos
Ġform almente
ĠMa teo
Ġhabr Ã¡n
Ġ200 1
Ġ200 5
Ġauto determin
Ġmuer en
Ġimple menta
ĠmÃ©d icas
Ġmor ales
Ġtransi torios
Ġfac tibilidad
ĠPRO VIN
Ġmateri almente
Ġmanten emos
Ġagro quÃŃ
Ġfelici taciones
ĠMAR ZO
Ġmunici pio
Ġesc Ãº
Ġperio dos
Ġrestric tiva
Ġguar de
Ġfirm ante
ĠelÃ©ctr icos
Ġub icar
Ġbrindar le
ĠcontinÃº en
Ġsentir nos
Ġofre ciÃ³
Ġabra zar
Ġinvier ta
Ġkil o
Ġsacri ficar
Ġaval ar
Ġingen io
523 4
Ġsil las
Ġplas mar
Ġacel er
Ġmonop olios
Ġinven tando
ĠConven ciones
TIV AS
Ġlig er
Ġdisminuy e
Ġdisminuy endo
Ġmillon arios
Ġpap Ã¡s
ĠFa cebook
Ġsimpl ificar
Ġpriva tizar
Ġ75 30
Ġasal tos
Ġtempran a
Ġaz u
ĠbenemÃ© rita
Ġflo ta
Ġsignific an
Ã©mos le
ĠNav as
ĠenergÃ© tico
ĠTRABAJAD ORES
Ġcafe tÃŃn
ĠMIL LONES
ĠEstu dios
SE G
Ġsanciona torio
Ġparado ja
ĠPu ente
367 28
ĠMAY ORES
Ġgor da
ĠOro tina
ĠTECN OLÃĵG
Ġcompla cencia
Ġllan amente
dur ismo
ĠEFEC TIVA
Ġalcantaril lado
Ġinviola ble
Ġego ÃŃs
Ġobsta cul
ĠmolÃ© culas
Ġhacin amiento
ĠPROFES ION
Ġread ecu
ĠGam boa
ĠPROVIN CIA
0 5
4 29
9 70
C ar
E A
N a
P ER
S oy
c re
d ÃŃsimo
f un
m emos
o tes
o pe
s ÃŃ
s ab
y un
z ones
Ġ -
Ġde ducciÃ³n
Ġh ol
Ġh ur
Ġf olios
Ġha gÃ¡moslo
ĠP os
di ciones
tu guero
Ġdi lu
ones up
Ġper don
ĠE ra
ĠA gosto
Ġqu inta
Ġpa ula
Ġten dencias
gu ay
Ġex puso
Ġdes fa
Ã©n tesis
ens ar
Ġac al
Ġso f
Ġso br
Ġso bor
Ġdis yun
ĠG uerra
Ġins truc
Ġfor os
Ġdecir me
Ġmedi ana
Ġcontra ctu
Ġven ÃŃamos
IC E
cas o
Ġclar ÃŃsima
Ġco tizar
Ġparti darias
ĠDe be
Ġdesarrol len
ĠO bando
Ġpens amientos
Ġval idar
Ġem ba
Ġfinanci arse
Ġbus quen
Ġmer ca
Ġ9 9
Ġba je
Ġpobl acional
Ġadminis tran
Ġgra va
Ġinf r
erg io
AN OS
Ex iste
Ġjusti ficaciones
Ġdefin idos
Ġpreten dido
In copesca
og ra
Ġmagistra tura
Ã¡ndo me
Ġintegr alidad
49 80
gas e
Ġ12 5
Ġcorrec tos
Ġcorrec ciones
Ġresolver se
Ġvig or
Ġinterpre tando
13 3
Ġvolun tario
Ġahor rantes
Ġpol i
79 3
Ġch oc
Ġro bado
Ġreun ido
Ġconten cioso
ĠIC D
Ġexig irle
Ġprev istos
Ġorganiz ados
Ġasum en
Ġcentro americanos
Ġresul tan
Ġemi tidos
Ġami ga
Ġcontribuy ente
Ġsur gen
ĠCONS TRUCCIÃĵN
Ġimag ÃŃnese
Ġdese amos
Ġperj udicial
Ġedi torial
Ġcompeti tivos
Ġrecha zado
Ġparlamen tarias
Ġaband onadas
ĠMo vimiento
Ġllegue mos
ĠPAN DEMIA
Ġ0 2
Ġadolesc ente
Ġhones ta
Ġpros titu
Ġentregar on
Ġinscri tas
Ġprotes tas
Ġvendr ÃŃa
IT AR
Ġgir as
ĠilÃŃ citas
Ġrigu rosa
Ġlig era
Ġmanifies tan
Ġama ble
Ġdesin ter
dil las
Ġfru to
Ġencaden amiento
Ġprote ja
Ġnum eros
Ġdescentral izaciÃ³n
Ġprac ticar
Ġcubier tas
Ġalber gues
ĠBr unca
Ã©mos lo
Ġbu ques
Ġaj eno
ĠPue de
ĠAcos o
Ġpremi os
Ġqued Ã©
Ġhidro elÃ©ctr
Ġdistor siones
ĠJo hn
mill on
Ġsufra gio
Ġmales tar
ĠhÃ©ro es
ĠPal mar
Ġsocialcristi anos
Ġeurope os
Ġdesconcen trados
Ġromp iendo
ĠcÃ³mpl ice
Ġredacta da
Ġasisten cial
Ġparadi gma
Ġolvid ando
Ġsubpar tidas
Ġdeduci ble
Ġtipi fica
Ġcabal l
Ġsiem bra
ĠmÃ¡r genes
ĠHis tÃ³rico
Ġdesapro vech
ĠMIN ERÃįA
ĠautocrÃŃti ca
Ġescru tinio
ĠGara bito
SEG UN
0 52
C orte
D ALIDAD
g Ã³n
h ay
i quen
i brio
p ado
Ġd uer
Ġde pl
qu esta
Ġa me
Ġc ac
al ter
Ġpar Ã©ntesis
Ġf oco
Ġf Ã³siles
Ġre di
Ġin minente
Ġper demos
idad os
Ġle a
Ġto tales
ĠA TRA
ĠA bril
ĠN in
era da
era bles
Ġti ro
Ġti jer
Ġex pone
Ġdes ech
ĠS ergio
go bern
Ġac tor
Ġdis eÃ±os
Ġpre vios
ĠI magÃŃnense
Ġus ual
Ġins ol
Ġins iste
Ġins trucciÃ³n
ora ble
ora bles
ĠT ÃįT
Ġ202 5
Ġpoder lo
ĠJ ac
Ġdecir se
Ġvi deos
Ġven cido
Ġmar cÃ³
Ġmar gin
Ġfiscal a
Ġcar ecen
Ġter na
Ġra tific
Ġor gÃ¡n
Ġcal ibre
ARI AS
Ġplante ados
Ġsab ÃŃamos
Ġpes a
TR OS
Ġevi ta
Ġbas ados
Ġejer cen
Ġagra vado
Ġpos t
Ġpos poner
Ġcl ub
Ãģ S
Ġpreten diendo
Ġrecor tado
cri tos
Ġju rada
Ġcompar ecer
18 8
26 7
Ġobs truir
Ġ15 3
US IÃĵN
Ġmanifes tÃ©
Ġemple ador
Ãī N
ĠdiÃ¡ logos
Ġnegoci Ã³
Ġher manas
UN ES
Ġcapaci tado
Ġdeman dan
Ġtraer Ã¡
Ġconoci das
Ġaplicar Ã¡
Ġapar ecer
Ġtrasla dados
86 65
Ã©ndo los
Ġlevan tarse
Ġcomprome ten
Ġagr aria
Ġcapital izaciÃ³n
ĠMunicipal idades
Ġsens aciÃ³n
Ġfelici dades
Ġcontribuy a
Ġeficiente mente
Ġsur f
ĠAg re
Ġmeter nos
Ġ199 3
Ġjue gos
ĠLEGISLATIVA Diputado
Ġobserv ando
ĠMO DALIDAD
ĠAC TIV
ĠMarch amo
Ġub icaciÃ³n
183 13
Ġaleg ando
Don de
Ġmas iva
Ġdesas tros
Ġbon dades
Ġparal elo
Ġacor dado
Ġsolicitar les
Ġexcluy entes
Ġcomien ce
Ġcomien zo
Ġremi tido
Ġperjud icando
Ġrefir iÃ©ndose
Ġ54 76
ĠMay ores
Ġprocur ando
ĠTribu tarios
Ġcuatrien io
Ġfronter izos
Ġpul se
CES A
Ġacomo dar
ĠPROMO VER
Ġpeligros os
Ġsupervis ar
Ġcubier to
ĠdÃ©bil es
Ġaudio vis
Ġafil iados
Ġjustific an
ĠRO D
Ġabar ca
ĠclÃŃn ica
Ġple ito
USTI BLES
Ġingenier os
ĠCONVEN CIONAL
Ġregresi vo
ĠFRAN CESA
Ġpropu simos
Ġfantas mas
Ġlla ve
Ġencontra ba
Ġsupermer cados
HA BIL
Toda vÃŃa
depen diente
ĠCOMP LEMENT
Hu bo
Ġmutu o
ĠProfesi onal
ĠCORRESPON DIENTE
Ġreclu tamiento
Ġep iso
Ġhura cÃ¡n
Ġdeser ciÃ³n
ĠORGANIZ ACIONES
ĠItal ia
Ġcontraproduc ente
ĠCOMB USTIBLES
Ġinesta bilidad
ĠCÃ³ mex
Ġregoci jo
ĠFitos anitario
A G
A TURA
D iay
M ENTE
V emos
a cu
a jes
e vi
f amil
i tes
i po
j ense
Ġ ĠĠĊ
en cio
Ġde pu
Ġde ficiencia
Ġl enta
qu ismo
Ġque ja
or rupciÃ³n
Ġla p
in aria
in ales
ÃŃ en
Ġun idos
Ġpr isa
Ġcon gruente
Ġre torno
Ġre duzca
Ġre ub
Ġin ap
Ġin habilitaciÃ³n
am parados
Ġg rÃ¡
Ġlo bo
tar los
ch or
res pon
ĠA f
ĠR u
Ġex Ã¡menes
Ġser lo
Ġpers igue
Ġdeci les
Es tÃ¡n
ĠF ARO
Ġcre adas
los ivos
se lo
ĠV ARIOS
Ġmi to
Ġmi ra
Ġqui taron
Ġvi ales
Ġcontra tan
ĠB arr
Ġinfor man
Ġnecesi te
Ġcan sar
jar se
Ġfra u
ĠO TROS
Ġcr ÃŃmenes
Ġden o
Ġdu dos
Ġfavor ecen
Ġop osi
Ġconf in
Ġingres a
Ġpregun tando
man era
Ġfal los
Ġur nas
iber aciÃ³n
36 64
eci eron
Ġoblig Ã³
Ġ11 5
ap Ã³n
Ġhubi esen
Ġhi p
Ġsub ordin
Ġnombr Ã³
Ġpresentar se
Ġpromo tora
Ġ16 5
Ġgus tos
Ġconsul tÃ³
olÃ³g icamente
Ġincon ce
Ġindi ferencia
Ġreferir nos
ĠcuÃ¡n ta
Ġconten ida
34 129
ĠMa ca
ĠMa tina
Ġtrasla dado
Ġcorreg ido
Ġrecomenda do
Ġmedicam ento
Ġresul tÃ³
Ġalim enta
Ġcuestion ados
ĠDES TIN
Ġregula das
ĠCONS EJO
Ġgana mos
ĠFor tuna
Ġaumentar on
Ġil Ã³gico
Ġinci de
ĠVI VI
Ġreel ec
Ġaband onar
Ġfil tro
Ġglo b
Ġresta blecer
Ġmovil izaciÃ³n
90 3
183 1
Ġaleg ro
ĠAG R
2376 4
Ġfer ias
Ġremi te
ĠHid ro
Ġaval ado
Ġdenunci an
Ġsorpren der
ĠPr iv
Ġdiscul pe
Ġdiscul pa
Ġflex ible
Ġabsur das
Ġarbitr ariedad
Ġsecun dario
Ġenv ÃŃo
Ġmarca da
iÃ©n donos
Ġtradicional mente
Ġrepercu siÃ³n
Ġprove er
ĠsÃ³l ido
Ġpostu lados
Ġreligios as
Ġacus aciÃ³n
Ġfalle cimiento
Po drÃŃa
Ġdr ama
Ġcomplaci ente
Ġgenu inamente
ĠRegu laciÃ³n
ĠactÃº e
Ġconcil iar
Ġempu jar
Ġresidu ales
Ġcolap s
Ġabar car
Ġinto l
ĠAM BI
Ġinser ciÃ³n
Ġdeud or
ĠRECON OC
ĠConap dis
Ġabol ir
Ġconclu ido
Ġimpres cin
Ġbenemerita zgo
Ġequipar ar
ĠcÃº bicos
ĠCarr illo
Ġasalaria dos
Ġhumani taria
Ġrecorda torio
Ġdimens ionar
Ġenfa tizar
ĠHon duras
ĠMAGISTRA DO
Ġneu tral
Ġindu da
ĠcÃ³n yu
Ġsubca pitalizaciÃ³n
bene ficio
Ġenr um
ĠApren dizaje
ĠVIVI ENDA
2 29
5 28
9 08
J A
M IS
d Ã©n
d eco
v iles
y ente
Ġp ales
ci ente
Ġs tand
Ġes quina
ta ban
re mo
Ġen s
ÃŃ das
om bra
Ġo dios
Ġo cÃ©
ĠC inco
ĠC ualquier
tu ar
tu aciÃ³n
Ġal udi
Ġdi gÃ¡moslo
ter ap
tiv aciÃ³n
Ġle en
le to
ĠL UNES
Ġti ra
ba blemente
ĠS ECTOR
ici da
Ġproyec tado
Ġj er
Ġdis tra
iv e
Ġmil i
Ġan ular
Ġan cianos
ĠaÃ± a
Ġins tru
ĠT engo
Ġr Ã³
Ġpas iÃ³n
ven il
um ento
Ġcor por
gan che
ctor es
cion amiento
Ġmar ina
IC ULTURA
Ġaten diÃ³
ĠIn versiÃ³n
Ġpla tas
Ġexp residenta
Ġne f
Ġne g
gres istas
Ġir nos
Ġrep lic
Ġorden ada
Ġavan zÃ³
Ġri gi
Ġ7 558
Ġvotar Ã¡
Ġvotar la
Ġhablar le
Ġbas adas
ĠCON TROL
Ġespecial idad
Ġabr up
Ġenf oc
eg ado
ifica do
Ġllegar Ã¡
Ġparticip en
Ġeduca doras
Ġru p
ĠSocial c
Ġconven cional
Ġinici aron
Ġreiter amos
Ġsub astas
Ġtrabajar on
Ġdestin ando
ĠPL N
Ġ15 8
TU ACIÃĵN
Ġvacun ados
Ġcome dor
Ġdescon exiÃ³n
Ġbrin de
Ġcapaci tados
Ġprev isiÃ³n
Ġdign as
Ġcur ric
Ġlevan tamos
Ġajus tado
ĠAn dr
Ġav iÃ³n
Ġdesp res
Ġdetal lada
Ġred undancia
Ġrespal da
ĠMAR CH
Ġina udi
Ġjue za
65 7
Ġcora zones
Ġescri bir
Ġeven tuales
Ġlidera do
ĠAu to
ama cho
Ġbo de
Ġestima das
Ġdepor tivo
Ġsuscri bimos
704 16
Ġtrami tÃ³
Ġagrade ciendo
Ġdescu ido
Ġrela tivos
Ġcompren de
Ġmaterial izar
Ġcens urar
Ġconstruy en
Ġacum ulando
Ġcru cial
Ġtex tual
Ġrepro cha
Ġdedica das
Ġaso ciado
96 1
Ġestric ta
Ġarbi traje
Ġges taciÃ³n
Ġquis e
ĠJur isdic
Ġolvida da
470 76
Ġvari aciÃ³n
Ġregres o
Particip aciÃ³n
Ġprove edor
Ġretro traer
Ġconstruc tivo
Ġanunci ando
ĠDEFENS A
536 78
ĠsocioeconÃ³m ico
ĠsÃŃn to
Ġdiscrimina torio
Ġdif un
Ġgenu ina
ĠCompaÃ± eras
ĠAgr ario
Ġdispens ar
Ġacord es
Ġincapa ces
Ġdebili tando
Ġsignific Ã³
ĠmacroeconÃ³m ico
Ġdespla zamiento
ĠnicaragÃ¼ ense
Ġcomentar les
ĠRO JA
ale tes
ĠASOCI ACIONES
Ġrepu dio
Ġdesconoci endo
Ġembaja dor
ĠSI TUACIÃĵN
ĠPATR IA
ĠGo bern
Ġterres tre
Ġpatriar cal
ĠIngenier os
Ġempoder amiento
ĠDICTAM EN
ĠTRAS L
ĠAsign aciones
ĠCONTRAL ORÃįA
Ġsobreende uda
Ġbraz aletes
Ġsimb Ã³lico
ĠpolÃŃg rafo
Na die
ĠAgre gado
ĠMaca ya
MIS O
ĠMARCH AMO
2 76
6 55
9 29
9 30
9 65
A caso
B IS
L IN
O tros
e cimiento
f ÃŃas
m Ã¡s
r gan
es c
Ġd ados
Ġc ord
Ġes for
an ti
in ito
Ġen tor
Ġen tera
ÃŃ geno
Ġel abora
Ġh ito
Ġcon gruentes
Ġpar ce
Ġf ic
Ġre public
Ġin el
Ġcom isi
Ġo ccidente
di eran
ĠC ambi
cu er
Ġdi aria
Ġdi eran
Ġcu idando
ĠA ca
Ġti rando
Ġpo tencia
Ġsu pedi
Ġex ento
Ġdes al
ĠS EX
ues tos
Ġtien de
Ġte mÃ¡tica
ier ro
Ġpre lim
Ġan ac
ul an
Ġson ris
se gu
Ġsal to
Ġsal ve
Ġsal vado
Ġah on
ĠJ apÃ³n
ĠV E
ĠV er
ĠV ac
Ġqui ten
gan tes
Ġmar cando
Ġab ramos
Ġrec lamos
Ġco oper
Ġfra g
Ġparti darios
Ġdesarrol lÃ³
van tes
Ġpe gar
zar se
Ġsen tidos
Ġne gado
Ġviv as
Ġejemp lar
Ġem an
ista d
Ġdu re
ĠEL IM
Ġinver timos
Qu ienes
Ġcompr ensiÃ³n
Ġba jÃ³
Ġop inar
Ġrepres ente
Ġconstru imos
Ġfuncion ado
Ġref inan
Ġrev ista
Ġban an
Ġevi tado
Ġreac ciones
Ġactiv ar
Ġlabor ar
Ġabr an
Ġabr ieron
Ġbenefici e
Ġejer cido
Ġcorres ponsabilidad
Ġcer rada
Ġpos pon
Ġejecu te
Ġdefin ida
Ġ11 1
ĠEN ERG
Ġaca tar
Ġpal o
Ġgeneral izada
ĠAL IM
Ġam bul
Ġol igo
Ã¡r qu
Ġgarantizar les
ĠDes amparados
Ġconsul tarle
Ġreconocer le
Ġocup aciÃ³n
Ġsosten ida
Ġdetermin ante
ĠMe dio
Ġch ay
ĠSi xa
00 9
Ġcerr Ã³
ĠseÃ±alar lo
Ġdeman dar
Ġcur va
17 7
ĠfÃ¡ br
Ġtrasla dan
ĠlÃŃ quido
Ġincre mentando
38 1
Ġinsis tente
ĠAn tes
Ġincen dios
Ġacep tamos
Ġampli ado
Ġcandida ta
Ġincumpl ir
Ãĳ AMO
risti ano
Ġsor dos
Ġsor das
Ġindustr iales
Ġexplicar les
ĠFran k
Ġdolor osa
Ġconden ando
Ġlimi tados
Ġdemues tren
Ġsome tidos
Ġbanc arios
Ġmulti millon
Ġprepar ando
ĠEnrique cimiento
Ġconec tados
Ġfamos os
Ġimpe dido
Ġbur bu
ĠTER AP
Ġarras trando
Ġdur Ã³
Ġbor rar
Ġrol es
3413 84
Ġreglam entar
Ġjuz gado
Ġrom pe
Ġcel ulares
ĠMEDI CIN
Ġprotes tar
ĠPac to
Ġadelan to
Ġlicencia do
ĠGuar da
Ġinvir tiÃ³
Ġmillon aria
ĠFlor encio
Ġcomparec encias
Ġprovoca da
Ġdependen cias
Ġadjud icaciÃ³n
ĠplÃ¡s ticos
cuÃ¡n tas
Ġporcen tual
Ġpresi de
Ġmach ismo
ĠINVESTIG ADORA
ĠCAN NA
Ġdr Ã¡s
ĠTal vez
70433 3
ĠREGUL ACIÃĵN
Ġconozca mos
Ġdilig encia
Ġtestimon ios
Escu ch
Ġdemocra tizar
Ġvar ones
951 23
Ġmuel les
ĠBe bidas
sol idar
lecen tral
Ġreorgan izaciÃ³n
Ġcarb ono
Ġrengl Ã³n
ĠJul ia
ĠCÃģ ÃĳAMO
Ġautodetermin aciÃ³n
ĠagroquÃŃ micos
Ġinstruc ciones
Ġtijer eta
Ġpales tra
Ġinel udi
Ġprelim inar
ĠALIM ENTARIO
ĠSixa ola
ĠTERAP Ãī
ĠMEDICIN AL
ĠCANNA BIS
0 1
9 17
C uar
I CIÃĵN
T om
V uelvo
c omp
f u
g es
i remos
i onadas
p ando
t Ã©s
z co
en os
ar roz
Ġes pu
in visi
ti blemente
Ġn icotina
Ġh omo
Ġh ilo
Ġse xto
Ġv ici
Ġv iento
Ġpar tÃŃ
Ġre ducciones
Ġin embar
Ġo pone
Ġpro puestos
ĠC amacho
ter rÃ¡n
ĠL le
ĠA bo
ĠN eg
Ġmu riÃ³
Ġex or
Ġdes aci
Ġdes vir
ĠM or
ĠM Ãĵ
ĠM UJ
ir iÃ³
oc racia
der ÃŃas
Ġta pe
io tas
Ġtra tarse
Ġtra jeron
ĠG uev
ĠG erar
Ġpres a
emp la
Ġhacer las
ĠF UN
Ġcre ÃŃa
Ġvo tada
Ġqui tado
Ġqui tamos
ĠCon tin
Ãĵ S
DI R
Ġcontra tista
Ġcan cel
ENT UAL
Con s
Ġco ger
Ġpla gu
Ġacu ÃŃ
Ġdef ra
Ġmayor itaria
mar ÃŃa
Ġter remo
Ġdifer ir
Ġtrans forma
Ġgas tado
Ġne gando
Ġcal en
cos tarricense
Ġoportun as
Ġcompr Ã³
Ġafec tarÃŃa
ina das
ĠAl cal
ĠAl desa
Ġrespe tarse
Ġconstru ya
ĠPARA FISCAL
ĠPR EP
Ġescuch Ã³
Ġautor izaciones
Ġfundamenta da
20 84
Ġcer tificar
Ġagra do
Ġprop osi
Ġfe o
UL OS
cri bir
23 4
Ġinten tan
Ġpatr ones
Ġreiter ando
Ġsub s
Ġaclar ando
Ġaclar ado
ĠacompaÃ± en
Ġproteg idos
Ġpol ari
Ġpol arizar
Ġ16 0
Ġ16 8
DE VA
Ġincorpor en
Ġexplic ando
Ġro ban
Ġgol ler
Ġclas ificaciÃ³n
Ġprev iendo
Ġform ando
Ġfortale cido
tÃ¡ ramos
Ġgolpe an
14 2
86 8
Ġincu mple
Ġacep tado
Ġaus entes
30 3
Re forma
Ġesc lar
ha ts
ĠSin irube
Ġcrea tiva
ĠfÃŃs icos
21 5
Ġfil ibus
Ġdedic arse
ĠenseÃ± anzas
Ġhar Ã¡n
ĠSiste mas
Ġdescu idar
Ġindividu o
Ġapre cio
ĠCons trucciÃ³n
Ġalar gar
ĠTRANS FER
Ġparal el
Ġdur m
AP DEVA
Sol ici
Ġhones tamente
Ġsorpren dido
Ġresol vemos
Ġasesor ÃŃas
Ġprem ura
Ġadmi te
Ġabsur da
548 955
Ġenv ÃŃan
ĠCI VIL
788 34
Ġatre ver
Ġadap taciÃ³n
Ġclam ando
Ġdisminuy Ã³
Ġestre chez
Ġcay eron
Ġviolen tan
Ġdesg raciadamente
later al
Ġauxil iares
Ġdespropor cionado
Ġinex is
Ġlegiti maciÃ³n
ĠCENT RAL
Ġdispens ado
Ġcolap so
Ġais lado
Ġgeo grÃ¡fica
Apro vecho
Ġcristi ano
Ġconmemor ar
Ġparticul aridad
Ġconge lar
Ġasesina tos
Ġhidro carburos
Ġautobus es
Ġsupon go
Ġaplaudi r
ĠPOS TP
Ap p
ĠConap am
Ġredis tribuciÃ³n
ĠEV ENTUAL
Ġsalv amento
Ġcorpora tivo
Ġtesor era
Ġflexi bilizar
Ġsag rado
ĠAtlÃ¡n tica
ĠfarmacÃ©u ticas
Ġrepeti damente
Ġunilater al
ĠZON AS
Ġconcord ancia
Ġenveje cimiento
Ġsemia uto
ĠAlcoh Ã³lico
Ġliger eza
Ġinconce bible
ĠDESTIN ADA
Ġnef asta
ĠJurisdic ciÃ³n
Ġoligo p
ĠMÃĵ VIL
ĠMUJ ER
ĠGuev ara
ĠPREP AGO
hats App
0 2
0 35
8 34
D olanescu
I TO
N in
P U
U TICO
V iv
V iernes
i ando
m ora
p lan
Ġd Ã¡di
Ġp ene
os ex
ar Ã©
ci pe
Ġs Ãº
Ġque ma
Ġe h
Ġe tique
Ġm ueven
te cta
ti cia
ti cular
Ġn aran
Ġv ÃŃs
ec era
Ġha bilita
Ġin un
Ġo igo
Ġpro dujo
Ġdi bu
Ġper dida
us os
ĠE fec
ĠE fectivamente
ĠL IM
ĠD om
ĠA lex
Ġb ul
Ġsu cesi
ca piÃ©
Ġex ag
ba dos
ĠM es
das e
ens as
Ġcos echa
ri da
Ġma ta
Ġma pa
con su
Ġpre po
Ġsin Ã³nimo
Ġman damos
Ġan Ã³n
ric amente
Ġinter vin
Ġsal idas
Ġ202 4
Ġpas ivos
Ġca ble
ven ir
Ġcontra tando
min entemente
Ġmom en
jer an
ĠIn cofer
Ġco pi
Ġfra c
Ġci tando
Ġforma do
ĠO tra
ĠO ctubre
Ġra dial
Ġcr uel
Ġor aciÃ³n
Ġpens Ã©
Ġpens aron
Ġpens ionar
Ġcal ificaciones
Ġdu ran
Ġdeba tiendo
Ġrecon sider
Ġfav ores
ina deco
Ġante cedente
ĠÃ© ticas
ĠseÃ±al e
ĠseÃ±al aron
Ġconf es
Ġrev ictim
AS UNTOS
Ġviol ando
Ġescuch aron
Ġelec tas
ĠRE D
Ġaque jan
Ġmon seÃ±or
IN ACIÃĵN
Ġfundamenta do
Ġpagar lo
Ġejer za
Ġcer remos
Ġluch an
Ġrecor tan
Ġllevar Ã¡
Ġhom osex
Ġcompar tida
Ġgenera ba
ĠSu iza
Ġ12 4
Ġconsider arse
Ġapor tarle
Ġvuln er
Ġequi ta
Ġgan aron
Ġexper imen
Ġconfor mada
Ġreun irse
Ġpregunta ba
34 128
63 28
Ġconsidera das
Ġimple mentando
Ġlevan to
Ġaplica mos
Ġajus tarse
Ġotor gÃ³
Ġdenuncia dos
Ġcostos o
Ġacep taciÃ³n
Ġtor tu
Ġapren diendo
Que da
75 19
Ġrequer idos
Ġencar ecer
Ġinterven ga
Ġinsu ficiencia
Ġcoinci dido
Ġescri ta
Ġmues tre
60 3
Ġfran camente
Ġintro dujo
ĠMo der
Ġsumar se
Ġatras ando
Ġom ite
Ġlimi tan
Ġech ando
Ġmulti plic
CL IP
Ġestan d
Ġdur as
Ġgi rado
Ġjustifica do
ĠacadÃ©m icas
Ġamp ara
Ġayud arÃŃa
ĠINV ERS
Ġaler tas
Ġrecuer den
ĠcÃ¡n ones
470 18
Ġcrimin ales
Ġelig en
ĠperiÃ³d icos
Ġconvir tiendo
Ġopon emos
ĠcientÃŃfic as
Ġinversion ista
Ġatribu ciÃ³n
ĠTrabaja doras
ĠdiseÃ± ado
Ġ74 72
ĠSOCIAL ES
Ġdevuel ve
Ġequivo cados
Ġanunci an
Ġoptim ista
Ġoptim ismo
Ġapos tar
Ġbienven ido
Ġprac tican
ĠalcohÃ³l ico
Ġmigra torio
Ġcolo cados
Ġmilitar es
Ġextern ado
Ġrespi ra
ĠSem ana
Ġcorrup to
ĠexplÃŃ cita
Per dÃ³n
Ġtax istas
Ġcrediti cia
Ġcrediti cias
Ġrecog iendo
ĠIndustr ia
ĠGuÃ¡ cimo
ĠDo ta
Ġsesion ando
Ġretroac tivo
Ġincompa tibilidad
Ġdespre cia
Ġestudian tiles
ĠhipÃ³ tesis
Ġconcurs os
Ġcotidi ana
industr ial
Ġplur al
Ġagreg Ã³
ĠFAMIL I
Ġdesme dido
Ġantoja di
Ġimposter gable
ĠCul tural
Ġbeb Ã©
Ġsatisfa ce
Ġalmuer zo
Ġavoc aciÃ³n
Ġimparcial idad
Ġhin capiÃ©
Ġcredencial es
ĠINMUE BLE
Ġsombr illa
sab en
Ġhip ocres
Ġintol erancia
Ġrigi dez
Ġinaudi to
ĠTERAPÃī UTICO
ĠGerar do
Ġdurm iendo
ĠLIM ÃĵN
consu mo
. %
4 57
A Ãºn
C a
G UAR
L C
O OP
O key
S A
S al
T re
V OS
a tirro
b ero
c le
c arr
e y
f em
g ico
i pe
l um
s abor
t ÃŃamos
t Ã¡ndonos
t Ã¡rcoles
qu isi
Ġc enta
or dia
Ġm era
re do
Ġn ac
Ġun ido
Ġpr u
Ġcon gresistas
Ġre an
Ġre empla
Ġpor tada
Ġin da
Ġcom puesto
di to
pu e
ue mos
Ġlo terÃŃa
ter aciÃ³n
ĠE MI
Ġi dÃ©n
ĠD ON
Ġb y
Ġme tro
Ġpa teando
Ġten siÃ³n
Ġex cedentes
Ġdes vin
ĠM us
oc emos
Ġres umir
Ġtra ici
Ġdis con
Ġdis per
Ġcons egu
Ġcons ag
Ġsol as
Ġmo to
Ġsin ies
Ġsin sabor
Ġinter acciÃ³n
acional es
mi da
Ġr ue
Ġcas ual
Ġca pi
Ġqui tÃ³
ĠRe ci
ĠRe pito
Ġpresupues tados
DI S
Ġcontra tado
Ġgener osidad
ĠB io
ENT EN
ĠU c
ĠU ru
ĠIn ver
Ġentre gando
ĠO bviamente
par ques
ĠPar rita
car le
Se amos
Ġlu c
Ġpreocup ar
ĠConstitu yente
Ġraz onar
Ġafec ten
Ġna ve
ĠAl iv
Ġrespe tado
ĠPa ÃŃs
IS TA
Ġref rendo
Ġgra dos
Ġfunda ciones
Ġviol entas
ĠÃºn icas
Ġautor ice
Ġnom inales
Ġhablar lo
ĠRE TIR
Ġreac omo
Ex isten
Ġaprobar la
Ġrespec tivamente
Ġesper Ã¡bamos
Ġprop icio
Ġcorrespon dan
Ġsolu ciona
Ġdefin iciones
Ġpreten do
Ġsos tienen
Ġestable zcan
ĠPor tu
ĠInter na
ĠSu b
Ġaprovech emos
Ġurg encias
Ġterri toriales
Ġvalor ando
ĠAL IV
Ġpen almente
Ġincluy an
Ġobs tÃ©
mÃ¡ ticamente
Ġprom uevan
Ġapor tÃ³
Ġanal icemos
Ġvolun tariamente
Ġahor rado
Ãī RI
00 7
Ġenti Ã©n
ĠdaÃ± a
70 2
ĠEx teriores
Ġdefini tivo
Ġbre ves
Ġconoc ÃŃan
Ġenvi ada
Ġhon rada
Ġcur rÃŃ
Ġapar entemente
Ġdiferencia da
Ã©ndo la
Ġlevan tan
hibi r
Ġasign Ã³
Ġresul te
Ġimposi bilita
Ġdesp rende
Ġregula da
Ġdetal la
ĠÃŃn teg
ĠAg ra
ĠX I
Ġdictamin adora
Ġine ficientes
Ġservi dora
Ġconsumi doras
Ġbo chor
Ġfirm eza
Ġexpor tadores
104 55
Ġorien tados
Ġresguar da
54 0
Ġcalifica dos
Ġcalifica das
Ġfacul tativa
Ġvic tim
ĠNO TI
Ġderiv ado
ĠFINANCI ERA
Ġperten ecer
Ġbloque ar
Ġusu ario
Ġinvier tan
Ġsepar ado
Ġeviden ciÃ³
Ġocul ta
Ġalimen tarias
Ġdecre cimiento
ĠCU ER
ĠSanta marÃŃa
su be
129 73
ĠAdu anas
Ġincur riendo
ĠCam arÃ³n
Ġsupl ir
Ġvehemente mente
Ġopon en
Ġexitos os
Ġreligios o
Ġfronter izas
ĠRES GUAR
Ġidentifica dos
Ġapos tando
Ġreafir ma
Contin u
Ġpeda zos
Ġcompara mos
uste des
ĠmÃºs culo
ĠNor uega
ĠEstu di
Ġpromul gaciÃ³n
Ġllu vias
Ġcuestiona ble
Ġestatu s
Ġapremi antes
Ġuni formes
ĠTR Ãģ
inter pre
Ġreflexion emos
Ġdecidida mente
Ġsupermer cado
Ġalmacen amiento
ĠPENS IÃĵN
Ġdisim ular
ĠADUL TAS
ĠMON UMENTO
Ġindemn izaciÃ³n
Ġplurian ual
Ġanteces ores
Ġprestig io
Ġsenti mientos
ĠTEA TRO
ĠtÃ³ x
Ġproc lam
Ġperif Ã©ricas
ĠOM S
Gu anacaste
Ġodi osa
ĠBENEM ÃīRI
Ġanomal ÃŃas
Ġconno taciÃ³n
Ġdistan ciamiento
ENDEN CIA
ĠDesa fec
Ġdesfa cha
Ġdisyun tiva
ĠCOMPLEMENT ARIA
Ġcorpor aciones
Ġrup tura
Ġsonris a
ĠDom Ã©s
ĠRETIR AR
ĠALIV IO
ĠRESGUAR DAR
8 18
8 95
C AS
M an
P on
P as
S AF
S TRUCCIÃĵN
Y PER
c orte
d ico
d ismo
e ando
i ra
j imo
m ens
m ista
p ico
t Ã¡s
Ġde ca
qu er
ci arse
Ã³ logo
un dante
in to
Ġun iones
aci endo
Ġf usiÃ³n
Ġre cepciÃ³n
Ġin Ãº
am i
Ġlas tre
Ġpro tec
Ġper d
us tamente
ra z
Ġcu entos
ĠL ucha
ĠD oc
ĠN I
Ġsu curs
Ġex puestas
Ġdes o
ĠS AR
ĠS oci
Ġres tructuraciÃ³n
Ġcons er
Ġpres tarle
ri ma
Ġpre gÃºn
Ġas ever
ĠF ACI
Ġinter poner
Ġsus tancias
Ġver as
Ġver los
Ġpoder les
ĠJ OR
Ġmi tig
OR AR
ĠCon are
ĠRe ducciÃ³n
Ġcor dial
Ġmedi ados
Ġve ÃŃamos
Ġcontra cciÃ³n
Ġfun cionalidad
ĠB ienes
Ġab undan
Ġrec tificar
ĠU TIL
Ġpla cer
Ġhaci Ã©ndolo
ĠDe ber
Ġpe ti
lic aciÃ³n
Ġra ti
Ġacuer da
Ġtrans portes
til las
Ġlu cra
Ġli diar
ĠAl to
Ġref uerza
Ġref ieren
Ġgra tis
Ġrev iste
Ġz an
Ġtal ler
Ġespecial idades
Ġinteres ada
Ġinvesti gados
Ġtras parencia
Ġexis tiendo
Ġcer ramos
Ġdefin idas
encial es
ĠprÃ³ jimo
Ġlegis laciones
Si mplemente
Ã¡ndo las
Ġtoma dos
Ġrequ iriendo
Ġconsi go
ĠacompaÃ± aron
Ġam aril
Ġobs tru
Cu Ã¡ndo
Ġapor taron
Ġquedar Ã¡n
Ġpromo tor
Ġmucha cho
Ġindi quÃ©
Ġch ica
00 1
ĠMar ina
Ġexpres o
Ġliber al
Ġconten idas
Ġexig ido
Ġenfren tarse
Ġata can
Ġtraer ÃŃa
Ġauto bÃºs
Ġenfer mo
Ġsuce den
Ġsuce dan
59 4
Ġlleva ba
Al go
ĠPer io
ĠAn g
Ġaclarar lo
Ġaudi torÃŃas
Ġrenun ciado
74 5
Ġcuestion ada
Ġcandida tura
Ġgu iar
Ġjue gan
65 23
65 500
Ġrecauda do
Ġexclusiv idad
ĠMA TER
ĠHum ano
ĠVI II
Ġfirm ando
ĠimportantÃŃs imos
Ġregis trar
Ġconden ados
Ġdific ul
Ġsuscri ta
Ġcasti gando
Ġcab ezas
Ġcab ecera
ĠAG UA
Ġagrade cido
ĠÃĵ rgan
ĠPenal izaciÃ³n
Ġdisfru tando
15 7
Ġpreci siones
Ġignor ando
Ġtitu la
Ġconfir mado
Ġpension arse
Ġabandon ada
Ġintermedi ario
Ġpaque tes
Ġdesper tar
Ġdesemple ada
Ġneglig ente
Ġinneces arios
ĠBol iv
Ġofrecer le
Ġlen titud
Ġequivoca das
Ġgradu alidad
Ġembara zada
Ġindirec tamente
publ ica
Ġredac tar
866 60
Ġcubier tos
Ġsocialc ristiana
Ġentrev istas
Ġafil iaciÃ³n
ĠpolÃ©m ico
Ġcompa tible
Ġhermos a
Ġdiri ge
Ġrobus te
ĠRECON STRUCCIÃĵN
Imp uesto
ĠDIE E
Ġconqu istas
Ġexi jo
ĠmÃ³ vil
Ġenmar ca
ĠGaran tizar
Ġero gaciones
ĠFAMIL IA
ĠTor tuguero
Ġzapa tos
ĠRecon ocer
Ġtranscur rido
Ġsuperflu os
ĠAUTORIZ A
ĠespaÃ± ol
Ġgremi os
ĠdÃ©mos le
8650 38
Ġexim ir
ĠESTABLEC ER
Ġrig or
Ġdevalu aciÃ³n
Ġpulper ÃŃa
Ġdemago gia
Ġarrenda mientos
ĠÃļn ico
bis cito
ĠAf ro
ĠRECONOC ER
LIN K
Ġcord ura
ĠVac un
Ġtape te
ĠobstÃ© trica
YPER LINK
Ġmitig aciÃ³n
I TA
J APDEVA
L amento
P res
R econ
V ES
V ea
Y orleny
f r
g mas
i am
i ano
j ecu
m Ã³n
m ico
n ia
s al
Ġde ducir
Ġque demos
or tante
te mp
do min
Ġn ula
to m
Ġen ver
Ġen ven
Ġel ef
tr iotas
Ġh uy
Ġse para
ic ana
aci onadas
Ġv as
Ġpar ches
Ġf Ã©r
Ġin ne
Ġo cta
de cir
ĠC la
ĠC ur
Ġal ega
Ġlo cura
ĠE cu
ĠL lor
Ġto bil
ĠD ero
ĠD ual
tan ol
ĠR ena
Ġpa tas
Ġex tras
Ġdes h
Ġdes cripciÃ³n
lo gÃŃas
tor ga
der aciones
ĠseÃ± as
Ġres titu
iz Ã¡s
Ġtra ducciÃ³n
Ġtra temos
ga dura
ier as
Ġpre ca
quÃŃ as
Ġmo cion
Ġsin sen
ĠEs par
Ġus aron
Ġcre amos
Ġins osten
Ġinter con
EN AS
Ġsal udos
Ġr aro
Ġca en
ĠV ERTI
Ġag ru
OR POR
Ġcor ro
Ġinc omo
Ġve la
En tiendo
Ġcontra ta
Ġven da
Ġob vi
Ġcual idades
cip es
Ġ21 66
Ġgas tÃ³
Ġllam aron
Ġcal cular
na tural
Ġu Ã±as
Ġbus cÃ³
Ġorden Ã³
Ġcompr ue
Ġseguir le
Ġseguir se
ĠNo bel
ĠPa pa
Ġviol entos
Ġingres an
Ġpregun tarnos
Ġmal aria
Ġmin tiÃ³
De be
Ġactiv aciÃ³n
Ġrefer entes
Ġrefer imos
ĠPolÃŃti cas
ID OR
Ġenf Ã¡tica
Ġregu lando
Ġagra decemos
Ġren tistas
Ġpreten dÃŃan
ĠW hatsApp
Ġinten taron
Ġinici Ã©
Ġpasar le
Ġaca be
Ġpropi cia
Ġaprovech e
Ġtrabaj en
Ġalcan zando
Ġvalor ado
Ġestableci mientos
Ġdestin en
Ġcuan tas
13 4
Ġproces ales
pos e
Ġmanifes tantes
dÃ³ j
Ġch a
ĠSi empre
ĠSi mplemente
TU ARIA
Ġconten ÃŃa
Ġcir co
Ġconta bles
Ġelem ental
Ġsolid ariamente
Ġreca ud
Ġocas iona
34 12
Ġdocu menta
Ġdirig ente
Ġgolpe adas
li quÃ©
Al gunas
ĠPOR TUARIA
Ġemi ta
Ġhos pe
Ġarreg los
Ġami gable
Ġleer les
ĠCONS UM
75 3
ĠINS TAL
Ġgana derÃŃa
ĠFor maciÃ³n
Ġcolec tividad
Ġdese ar
08 5
Ġplantear nos
Ġconcen tran
Ġelimin ado
Ġsorp resas
Ġrecha za
Ġsustan tivos
Ġdedic Ã³
Ġorien tadas
Ġsue le
Ġub icadas
tec ario
Ġformal izar
lor ia
Ġofre cido
Ġbeneficia das
Ġcompon en
Ġhuman ista
Ġinjus tas
ĠdinÃ¡m icas
ĠImp ul
ĠautÃ³n omo
Ġdivi dido
Ġabre viado
Ġinsta lada
Ġcondon aciones
ĠRes ponsabilidad
Ġmotiv Ã³
Ġperjud ica
Ġincorpora dos
Ġinven tar
Ġinca paci
Ġreligios os
ĠFamil iares
Ġfalle ciÃ³
Ġarro ceros
ĠINFORM ACIÃĵN
Ġdestitu ir
Ġ78 00
Habl emos
Ġenrique cimiento
Ġ82 20
Ġexonera dos
4979 7
Ġinconven ientes
Ġcompa triotas
Ni elsen
Ġexen ciÃ³n
Ġurban as
Ġnumer al
Ġtranspor tistas
Ġtestimon io
630 20
ĠExp residentes
Ġplur alidad
Ġcooperativ ismo
ĠCOOPERATI VAS
Ġencam in
Ba jo
ĠBlan co
Ġtransnacional es
INFORM E
Ġexti ende
Ġcapric ho
Ġdesequil ibrio
ĠprÃ³s pero
ĠINC ORPOR
Ġmultiparti dista
421 230
Ġace ite
ĠHUM ANO
Ġsev era
ĠJun tas
ĠABAN DON
ĠArquitec tos
Ġestereoti pos
ĠUs ura
terap ia
Ġsobreendeuda miento
Ġgoller ÃŃas
Ġhipocres ÃŃa
ĠBio diversidad
ĠÃĵrgan os
ĠVERTI ENTE
ĠCONSUM IDOR
6 39
6 27
9 23
A un
C abe
D Ã©
M ERO
N ueva
T anto
a te
a tÃ³n
d hab
f en
j amiento
p Ã©
Ġde tenido
ar d
ar es
Ġa ch
Ġa ve
Ġc ÃŃn
ci aciones
Ġs anos
ta mbiÃ©n
Ġe minentemente
Ġla mentar
in versiÃ³n
ti ta
re gu
Ġen der
Ã© ricos
Ġin er
Ġin hum
ĠP UN
di almente
tra famil
pu simos
Ġdi a
Ġper me
ter no
Ġcu i
ĠE qui
ĠD em
ĠA b
ĠA cta
ĠA bierto
ĠN Ãºmero
tan me
ĠR ur
Ġpa tear
enta mos
ca ep
Ġten taciÃ³n
Ġdes natural
ĠS Ã©
oc rÃ¡
Ġap alan
Ġap egado
Ġj a
Ġte mer
Ġma tan
pe z
emp o
Ġmo tores
Ġsin cera
ĠF U
Ġcre encia
Ġins ign
Ġsal iente
Ġca udal
Ġcontra tadas
pi ta
ab el
Ġgener emos
ĠB ien
ĠB IC
ĠB ru
ĠB OM
Ġab undancia
sa ble
Ġgran o
Ġob tenciÃ³n
Ġfiscal ista
Ġau tos
Ġau tista
Ġco g
Ġdesarrol lada
Ġpe ajes
ĠCom ple
ĠPlen aria
ĠPar ece
Ġval ida
Ġne gra
Ġplan illas
Ġquer idas
ĠEl la
dic es
Ġpreocup arnos
Ġactu amos
Ġplante arse
TA DO
Ġrespe tan
Ġ7 494
Ġref res
Ġviol ar
Ġautor izÃ³
Ġelec tores
Ġmal interpre
Ġrefer ÃŃ
Ġobje tos
Ġgenerar Ã¡
Ġenten dida
Ġgaranti zada
Ġcompe ten
Ġrecibi dos
Ġdefin en
Ġrecor dado
Ġ" _
AM ENTE
Ġconsi gu
26 3
Ġobs truc
Ġpropon go
Ġpresentar le
cul pe
Ġlim bo
AC E
Ġactual izada
lan dia
Ġgus tan
Ġemple adores
Ġpudi ese
Ġvisi tando
00 6
Ġpubl icada
Ġro bando
Ġvacun arse
Ġcome tidos
Ġdescon v
Ġprev istas
Ġconocer lo
Ġconoc ÃŃ
ĠUN ED
Ġata Ã±e
Ġlegal izaciÃ³n
Ġasegu rado
Ġdiferencia das
Ġlevan tamiento
Ġambiental istas
Ġcomprome tiendo
Des eo
84 24
Ġconvo quen
Ġregi dor
Ġregula torio
ĠES P
Ġrespal dado
Ġmatr imon
Ġdiscrimin ados
Ġgana dero
ĠCal le
ĠMuch ÃŃsimas
Ġintro ducen
Ġsustan tivas
Ġeng ran
Ġentr aron
ĠPÃļBLICO Diputado
ĠHos tigamiento
Ġeleg idos
Ġcab alidad
Ġpier dan
Ġescas o
Ġtocar Ã¡
Par ece
Ġrela tivamente
Ġcelebr Ã³
Ġcompren dido
Ġclim Ã¡tica
Ġgi radas
ĠAsoci aciones
Ġagregar le
Ġrein corpor
Ġrom pi
Ġras gan
Ġincorpora das
ĠilÃŃ citos
Ġlig ado
Ġadap tar
Ġcance laciÃ³n
Ġrecomen dÃ³
Ġdesafortun ado
Ġtaba quismo
Ġindis crimin
ĠNa te
ĠIMP UL
Ġpose en
ly ing
ĠBr us
Ġdebili tado
Ġsuger encia
ĠRel acionadas
Ġjustific ando
ĠDomin io
Ġimpu gn
Ġsuminis tro
Ġpref iero
Ġcomplic aciones
ĠerrÃ³n ea
Ġincomp leta
ĠIndustr ias
Ġplanifica do
TAR ENAS
ĠIgual dad
Ġacelera da
Ġinva dir
ĠcÃ³mpl ices
Ġcalific an
Ġbenemerita zgos
Ġmate mÃ¡tica
Ġexpan siÃ³n
Ġves tir
Ġporta f
pus ieron
Ġdemo grÃ¡fico
ĠCULTURA L
Ġprescin dir
Ġcolch ones
Ġaleda Ã±as
Ġremode laciÃ³n
ĠBibl ia
wit ter
Ġejerci cios
ogra fÃŃa
Ġame dr
Ġinap lica
ĠUc caep
ĠAliv io
ĠXI X
Ġdesfacha tez
Ġenver gadura
ĠEcu ador
Ġtobil l
ĠEspar za
ĠPUN TARENAS
trafamil iar
/ /
0 3
1 73
4 30
9 49
: (
H abÃŃa
H YPERLINK
V ISITA
b ana
c tur
d ÃŃsima
g am
m al
t arial
u tas
y an
Ġ trop
es tamos
en ten
Ġp eces
Ġde cep
ar me
Ġc Ã¡mara
Ġm ero
Ġla va
Ġla titudes
Ã³ pez
re os
to l
is cales
ic Ã©
Ġv il
ec Ã©
Ġf ala
Ġno tar
Ġno ctur
Ġre h
Ġin al
Ġin gra
Ġo key
Ġpro duzca
ĠC in
ĠC onesup
Ġdi versa
ue bles
ra el
ma to
ĠL Ã³pez
ĠA v
Ġpa v
ca mos
Ġdes v
Ġdes men
oc os
io te
Ġso bran
Ġ1 20
Ġva pe
Ġma xim
Ġpers iste
Ġpre gon
Ġas im
ĠF u
ĠF acio
ĠT ENER
ton a
Ġsal ones
Ġsobre manera
ja dos
ĠV a
ĠAs torga
Ġmi tos
Ġmi xto
ĠCon ta
ĠCon icit
Ġhabl aban
Ġmedi Ã¡tico
Ġinc Ã³
Ġvi era
Ġcontra parte
ab ri
ĠB us
Ġnecesi ten
Ġad Ã³nde
Ġdar me
Ġpe aje
ĠO BRA
Ġestudi a
Ġexp lico
Ġsen tÃŃ
Ġrefor mando
Ġem b
AL ICE
tica do
Ġlu to
Ġli tera
Ġsa br
Ġsiste mÃ¡tica
AD AR
Ġrev isiones
Ġespecial izaciÃ³n
Ġrefer encias
Ġenten dible
Ġjusti fique
ifica da
Ġagra vando
Ġpos esiÃ³n
Ġunivers o
Ġsom ete
OC OLO
Ġhabi ta
Ġdenun ciÃ³
ĠZ ar
Ġcompar ten
28 5
50 10
Ġofici almente
Ġaprovech a
Ġdeclar e
76 5
Ġproteg en
Ġpermitir nos
Ġho jas
Ġanal ice
13 1
Ġafir mÃ³
Ġdicta dor
55 4
Ġ16 7
Ġcuesti onadas
ĠREP UBLICA
TOR ES
29 4
ĠEx tinciÃ³n
Ġreca paci
Ġprev ista
10 536
Ġolvi dan
Ġform ulado
ĠMa teria
ĠUN IDOS
Ġfortale zas
14 3
Ġincre mentÃ³
Ġllama ba
Ġvir tudes
Ġvia bles
americ anas
Ġcap ÃŃtulos
ĠAn dre
Ġcorregir se
Ġopera dor
Ġrenun ci
Ġrenun cias
84 23
guar dia
Ġsir van
Ġsir viÃ³
Ġale jar
Ġpoqui tos
Ġsim bÃ³
Ġdese ado
Ġdese arles
Ġincluir se
Ġinvoluc rado
Ġimpon en
ĠMo ÃŃn
Ġmig rante
Ġnove cientas
Ġhor ror
ĠSeÃ± oras
Ġdescu brir
Ġindividu os
Ġespeci fica
Ġproce dencia
ĠAN ALICE
Ġpesqu eros
Ġcru zar
Ġpotencial es
Ġmaes tr
Ġconfir mÃ³
Ġsuspen dido
3413 38
Ġjuz ga
Ġconfidencial es
ĠvÃ¡l idas
Ġencontr arse
ĠMEDI OS
ĠPAR ÃįS
Ġrepor ta
ĠDiputa dos
Ġbom ba
Ġlan za
Ġincur rido
Ġtempor almente
erita zgo
Ġgradu ados
Ġpuntual izar
Ġconvir tieron
Ġguanacaste ca
Ġatropel lada
760 256
Ġdevuel va
Ġdesarrolla das
Ġacostum brado
Ġjurisdic ciones
Ġdesg aste
Ġatien dan
814 04
814 13
Ġps ico
QuiÃ©n es
ĠPROT OCOLO
tori amente
Ter mino
Ġdespropor cionada
Ġer osi
Ġlatino americana
Ġamar rado
Ġalber gue
Ġdiplom acia
ĠDomin icana
Ġgratu ito
552 20
ĠApoy ar
Ġple biscito
Ġconge la
Ġasesina to
Ġasesina das
ĠFRAN CIA
Ġardu o
ĠTR IBU
Ġdespre cio
Ġventan as
ĠPu bl
Ġga to
Ġagreg ando
ĠCOOPERATI VO
ĠcatÃ³ lica
Ġemble mÃ¡tica
BER OS
INFORM ES
ĠMedi cina
Ġvice alcal
Ġox ÃŃgeno
Ġcorrig iendo
Ġparlam entos
1045 95
Ġindefens iÃ³n
ĠCELEBRA DA
ĠESTUDI E
ĠpÃ³l iza
Ġnutrici onal
ĠPROPON GA
Ġinmor al
Ġolvidad as
Pos teriormente
ĠTECNOLÃĵG ICOS
ĠPROFESION AL
Ġdilu ci
Ġdesinter Ã©s
ĠACTIV IDAD
Ġjer Ã¡rqu
53678 24
ĠTRASL ADAR
Ġinembar gable
Ġdesaci ertos
Ġplagu icidas
ĠEVENTUAL MENTE
Tre inta
Ġpru dencial
ENTEN ARIO
Ġbochor nos
ĠBoliv ia
ĠABANDON O
ĠBIC ENTENARIO
ĠBOM BEROS
. )
0 31
1 76
2 48
7 79
B asta
C omp
G E
G AMIENTO
c ompaÃ±
m Ã©
s tru
u le
Ġd uraciÃ³n
Ġe cu
Ġe tanol
in gÃ¼
ti le
Ã³n icos
Ġun ificar
Ġcon cur
Ġf ol
Ġre ina
Ġpor taciÃ³n
Ġin ta
Ġcom iendo
Ġpara dÃ³j
ĠP on
ĠC H
Ġal zado
Ġcu ch
le y
ĠA vi
Ġqu im
Ġme tan
Ġti co
Ġpa ti
Ġpa decen
tes e
Ġdes am
Ġdes ca
Ġdes ocup
Ġap untar
Ġres table
co der
ĠG AN
ĠG ACE
Ġpresid encias
Ġdeci s
Ġman de
Ġplen itud
Ġan tiv
ĠI coder
ac tivaciÃ³n
Ġus en
ĠF CL
Ġsus ci
ĠCos evi
mi tir
ĠT ienen
Ġsal iera
Ġdic tado
ĠH ipo
ig en
fer as
ĠCon arroz
tal ecer
Ġve tar
Ġcam as
Ġven ciÃ³
cion ario
Ġob tiene
Ġaten tar
Ġentre gan
Ġexp liquen
ĠNacional es
Ġmes ura
Ġpens arÃŃa
Ġcal do
Ġem bal
Ġpreocup Ã³
ona je
Ġplante e
Ġ19 53
Ġvien tre
Ġconf ÃŃo
Ġconstitu tiva
Ġvol vieron
ĠCON DON
Ġdejar nos
Ġfr Ã¡g
Ġ6 797
Ġpagar les
Ġfal acia
Ġjur ista
Ġcul tiv
Ġcul par
ĠPro yecto
Ġaplic aron
Ġagra da
Ġagra dece
Ġpos ts
Ġespaci al
Ġrecor taron
Ġambi cioso
Ġhabi taciÃ³n
ĠDi go
og ÃŃa
ĠInter no
Ġrevis an
Ġhom bro
ĠSu p
Ġdeclar ados
49 0
Ġnecesita ban
Ġinvestig Ã³
Ġrel len
26 0
Ġquedar ÃŃan
Ġgarantizar se
79 9
ĠMar vin
Ġ18 2
Ġdesi guales
Ġllev emos
48 9
Ġconta bil
Ġfel icidad
Ġform ula
Ġconci erto
Ġtrasla de
Ġgo ta
Ġgo za
ĠPer dÃ³n
Ġalterna tivos
dios inc
74 0
Ġmoder nos
Ġinterven ido
Ġ199 9
Ġimag inan
IM A
Ġpien se
Ġpareci da
Ġpronun ciar
gra fÃŃas
Ġexpor tador
Ġeleg ido
ĠFE BR
Ġbal as
Ġarti culo
Ġ0 36
ĠOrgan ismo
Ġderiv an
Ġcomplica dos
Ġcomplica das
Ġfamos as
208 20
Ġofer entes
Ġapre ciar
ific ando
Ġenviar le
Ġalar mas
Ġbarr era
Ġacum ular
155 68
Ġpronunci e
Ġvis lum
Ġjustifica da
Ġacog iÃ³
Ġayud Ã³
Ġinformar les
Ġanuncia mos
ĠDeclar ar
40 6
Ġmir as
Ġabusiv a
Ġrin da
Ġperju icios
Ġos tenta
Ġlici taciones
788 3
Ġclam an
Ġago bi
Pro vincia
ĠMUNICIPAL IDADES
Ġtri ple
ĠINSTITU CIÃĵN
Ġposici on
ĠpÃ©s ame
Ġrecomen dadas
mag ÃŃnese
Ġdesg los
Ġefica ces
Ġcoti zado
ĠAc tividad
Ġmaravillos a
Ġguarda costas
ĠBa gaces
Ġretras os
Ġracional idad
ĠSuge val
Ġescog encia
Ġfrecu ente
ĠMer ce
Ġocasion ado
Ġalcahue terÃŃa
Ġdescri bir
Ġfemen ina
3655 7
Ġalf ombra
Ġbel la
Ġtorpe za
Ġdebilita miento
Ġdesproteg idos
Ġepi demi
Ġapell ido
Ġestipu lado
Ġreivin dicar
ĠhipÃ³ critas
Ġconsign ado
Ġfarm acia
Ġecosiste ma
ĠidÃ³n eo
ĠÃ©s ta
Ġsubray ar
Ġelev ados
ĠdÃŃgan me
Ġciru gÃŃa
Ġdele gar
ĠLAB ORES
ĠMicit t
ĠpermÃŃ tame
ecun daria
Ġmezqu inos
ĠIndÃŃg ena
Ġinterro gantes
ĠarquitectÃ³n ico
Ġatribuy e
Ã©an me
Ġespi onaje
ĠFel ipe
Men cion
Ġantic orrupciÃ³n
Ġchofer es
Ġtrem enda
ĠintÃ©rpre te
ĠPalmar es
ĠELIM INACIÃĵN
ĠentiÃ©n dase
Ġenven en
Ġender ez
ĠAv ales
ĠsimbÃ³ lica
tile za
ĠGACE TA
ĠHipo tecario
ĠCONDON ACIÃĵN
Ġposts ecundaria
ĠFEBR ERO
2 17
9 704
A c
D AS
E O
E Z
E ra
L lam
P R
R Ãģ
a ja
d ara
f es
f Ã³nica
g rada
i ego
l iz
p ÃŃtulo
t Ã¡l
t entemente
u rado
w s
y Ã³
Ġ ,
Ġp if
qu inas
on ancia
or Ã¡n
Ġes col
un id
ti Ã©ndole
Ġen gros
Ġel i
Ġun en
is tÃ©
Ã¡ pido
om Ã©
ec an
ec encia
Ġre tor
Ġre cep
Ġin Ã©di
bl ar
bl ece
bi ern
am ile
Ġo puso
di tos
ĠC em
ĠC lÃŃn
ĠC ensos
Ġdi entes
Ġi diosinc
ĠD entro
il os
Ġme temos
Ġpa ta
Ġex tin
Ġdes pose
go biern
Ġac cedi
Ġproyec tar
Ġres el
lar amente
ĠPA I
ĠG ESTI
ER CIO
Ġpers igu
Ġpre ciado
Ġdeci dan
Ġman ch
ĠI si
Ġemp ecÃ©
ĠT om
ĠT ib
ĠT LC
Ġar ru
Ġsal ÃŃa
Ġr Ã©ditos
Ġpas illos
ĠV ig
ĠV ISITA
OR AL
Ġgen tileza
ĠRe publica
Ġinc an
Ġdiscu tan
Ġtener la
Ġtener los
Ġcam pe
Ġmar tillo
ĠB on
ĠB al
Ã©r ico
isi ta
ĠIn teg
Ġco e
izar lo
Ġminis tras
Ġforma mos
ĠO fici
Ġexp liquÃ©
Ġra quÃŃ
ĠCa pital
ĠCa pitalizaciÃ³n
Ġcal cul
Ãį AS
Ġfu Ã©ramos
Ġoportun os
Ġdu plica
ÃŃn s
Ġactu arial
ill iam
Ġ7 391
Ġhaber le
Ġviol entado
Ġcontr ar
Ġautor izada
Ġelec ta
Ġponer los
Ġdejar ÃŃa
Ġdejar se
Ġmon stru
De bate
Ġtras par
Ġtras plante
Ġbenefici arse
Ġenf rente
Ġestado unid
Ġreactiv e
Ġsom brero
Ġcomple menta
ĠprÃ¡c tico
Ġleg i
Ã³r ica
In forme
Ġgenera da
Ġgenera dores
Ġsub asta
Ġsub util
Ġnecesita da
Ġsignifica tivas
Ġconte mple
Ġesti mar
Ãī l
ĠCiudad ano
Ġvulnera das
Ġprofun dos
Ġch i
pl aci
ĠdaÃ± ando
ĠOr tega
Ġnoti fic
Ġrecordar lo
Ġbrin den
Ġbrin dÃ³
Ġvin iera
Ġhon rado
ĠseÃ±ala das
Ġbar bas
86 4
Ġexon erado
38 9
Ġasign ando
ĠCOM ERCIO
56 0
Ġinmedia tez
ĠPer la
Ġacep tÃ³
Ġprohibi da
Ġinteg ra
Ġprivileg iado
Ġinclu imos
Ġreclam ado
Ġrecha zadas
Ġinvoluc re
Ġinvoluc rar
Ġoficial istas
ude o
Ġimpon iendo
Ġasu mamos
FORM ACIÃĵN
Ġdep resiÃ³n
Ġresta ura
Ġresta urar
Ġorien tada
Ġaleg re
tribu ir
Ġasegurar nos
ĠAN ALIZAR
Ġenca je
Ġconstruy amos
ĠTRANS PAR
ĠTRANS FORMACIÃĵN
Ġdur os
Ġblan ca
Ġrecur r
98 9
Ġcontempla da
Ġmos trÃ³
olan da
Ġconvoca da
Ġpension ado
Ġhere dado
Ġinformar on
Ġlimp iar
ĠCU IDO
GA TORIA
Ġmotiv aciones
Ġcompor ta
Ġabusiv os
Ġrepor tar
470 14
Ġexpon en
ĠINTERN A
Ġrepercu te
Ġconviv ir
Ġtrim es
Ġcompl icidad
ÃįS TICA
Ġesca pe
Ġanunci aron
Ġnie gan
Ġdiagn os
Ġcartagin Ã©s
Ġgal l
IV OS
Ġlin da
ĠDIS TRI
ĠBr in
ĠAle jan
Ġrecar ga
Ġsemej antes
Ġano che
ĠexplÃŃ citamente
ĠPRE V
Ġarchiv ar
Ġpref ieren
Ġregistra do
ĠINF ANTI
Ġfiel mente
Ġefectu ar
Ġade uda
Ġrecons truir
Ġdistribuy e
Ġmonta Ã±a
Ġexperim entar
ĠAlf redo
Co in
Ġvision ario
Ġinfec ciÃ³n
Ġomi tir
Ġsocialcristi ano
Ġdesembol so
ĠMAN UEL
Ġmascaril la
Ġconfia ble
Ġcontempl an
Ġrevel Ã³
Ġsocialdem Ã³crata
Ġsocialdem Ã³cratas
ĠPENS IONES
Ve amos
Ġconstructor a
Ġimposter gables
Ġmien ten
Ġenorgul lece
ĠTERRI TORIO
Ġexhaus tiva
ĠasfÃ¡l tica
ĠFERI ADOS
ÃŃmp ico
Ġsimul tÃ¡n
Ã¡rs elos
Ġbotel la
ĠTERC ERA
ĠestÃŃm ulo
ĠDERO GATORIA
Ġasig nadas
Ġsobor no
Ġcontractu al
SEGUN DO
dependiente mente
528 95
ĠsÃŃnto mas
Ġparce las
Ġtijereta zo
ĠAlex an
ĠMus eo
ĠUru guay
Ġpreca u
Ġsinsen tido
Ġcorro bor
ĠINCORPOR AR
Ġlitera tura
ĠAndre a
amile th
ĠClÃŃn ica
ĠGESTI ÃĵN
ĠTRANSPAR ENCIA
ĠINFANTI L
0 33
1 44
1 70
6 552
A UD
B Ã¡sicamente
C laramente
F ran
L L
R BAN
S erÃŃa
i Ã¡
i di
j emos
j ante
t z
u tr
u ca
es os
Ġp ir
Ġde pre
Ġde ducciones
Ġes bo
Ġm am
Ġla zos
an ces
an cias
un iversi
in es
re am
Ġn acen
tr on
Ġh ue
Ġse p
Ġcon ducciÃ³n
Ġno ci
Ġpor tar
Ġin mo
Ġin her
ĠP av
ĠP UBLICA
pu lares
Ġlo co
Ġper didos
ĠL ocal
Ãº as
ĠA V
Ġsu ces
ca den
gu era
Ġex tral
Ġcomp re
ĠS te
ĠS OL
ici ar
Ġimp ida
Ġac ce
Ġte mo
Ġtra je
Ġdis eÃ±a
Ġcons tan
Ġpres un
Ġpre ocu
Ġman ual
ez co
ĠF L
Ġver siones
ĠT i
Ġpoder oso
ĠV ea
Ġpresupues tando
ĠB onos
tin amente
Ġab ri
Ġab uela
Ġcol on
Ġdar Ã¡n
Ġesp iri
Ġob is
Ġaten dieron
Ġpon ÃŃan
ĠU RBAN
Ġco bre
Ġhaci Ã©ndose
Ġmayor mente
Ġpe ga
Ġexp osiciones
Ġvan o
ĠCa pÃŃtulo
Ġapoy e
Ġne gr
Ġcal idez
OL ES
Ġcambi en
Ġir raz
Ġproduc ciones
Ġcondi cionado
Ġrecon versiÃ³n
Ġrecon ozcan
Ġcomun itario
Ġcomun icÃ³
ĠEn tidades
Ġ9 222
Ġavan zan
Ġsa tura
id ora
Ġescuch emos
Ġvol cÃ¡n
ĠCON C
Ġigual itaria
AN TE
Ġaun ado
Ġaplic arÃŃa
Ġmencion adas
Ġfe deraciones
Ġejecu ten
ino za
gistra dos
ĠW illiam
Ġatender lo
Ġatender los
28 1
28 4
Ġpersonal idad
Ġaprovech arse
ras ia
Ġestableci mos
dida to
Ġadministra dor
Ġses go
Ġam eric
Ġ16 2
Ġro to
Ġadecu ar
Ġreun imos
dera mos
Ġcir cu
Ġdescon ec
pro yecto
Ġgobiern a
Ġorganiz acional
Ġform Ã³
95 7
Ġsencil las
Ġrespon dan
Ġrespon dido
Ġrespon diendo
Ġdeman dando
Ġconsidera ble
59 6
Ġdev asta
Ġcomen zando
Ġsex ualmente
Ġtrasla den
86 504
Ġllen ando
Ġdie ta
Ġgo zar
Ġasign aron
Ġacer tado
Ġfa tal
Ġimposi bili
Ġdesp ren
Ġapren dÃŃ
Ġapren diza
Ġmoder nas
Ġcoordin ado
Ã³l icas
ĠTer esa
Ġdese ando
dol encia
Ġbol etas
Ġrespetu osos
Ġelimin arse
Ġcomb inaciÃ³n
Ġpronun ciÃ³
Ġdolor osas
Ġexac to
Ġadquir iendo
Ġbil le
Ġmovil izar
Ġub ic
Ġtrasladar le
Ġabo gada
Ġinno var
Ġdestru yendo
Ġdescu br
Ġescas a
Par eciera
Ġmas a
Ġsostener se
ĠAN UAL
64 1
Ġparal izar
Ġdedica da
Ġsacri fic
Ġconfir man
Ġadj un
Ġprogresi vos
Ġeviden ciando
Ġabordar lo
ĠREC AUD
Ġestim ulando
Ġdom ici
523 549
Ġaler tar
ĠvÃ¡l idos
Ġinn um
Ġrecuer de
Ġadop tado
Ġacel erado
Ġcostu mbres
Ġperci ben
Ġrin de
Ġvari aciones
Ġenv ÃŃe
ĠMay o
Pro bablemente
ĠFlor encia
Ġuniversal izaciÃ³n
Ġopon go
Ġembara zadas
Ġai res
Ġredac tÃ³
Ġregal ando
Ġdesin cen
Ġemo ciÃ³n
67736 5
Ġsincer idad
Ġdescentral izadas
Ġnombra da
814 136
Ġesperan zas
Ġvergonzos a
Ġdiscrimina das
ĠactÃº an
Ġsuger ir
Ġapropi ada
Ġgeo tÃ©r
Ġresid encial
ĠIs abel
626 63
Ġinti mi
Ġsosp echa
Ġsupre mo
Ġardu a
Ġcrey ente
Ap oy
Ġintens ivos
Ġafin es
Tu vimos
ĠartÃŃs tica
VER DE
ĠEsp ÃŃritu
ĠEsp inoza
Ġconversa mos
Ġero gaciÃ³n
Ġrea brir
Ġresu me
Ġmate mÃ¡ticas
Ġzapa to
Ġmuel le
Ġexti enda
Ġmaquil lar
ĠDESAFEC TACIÃĵN
ww w
Ġencer rados
ĠOB JE
Ġtriun fo
Ġvecin as
ĠRev oluciÃ³n
Ġemba tes
ĠJac Ã³
8665 10
Ġdespres tig
Ġburbu ja
ĠsÃº per
ticular mente
carr il
Ġrompi Ã³
Ġportaf olio
ĠAvi aciÃ³n
Ġidiosinc rasia
ĠIsi dro
6552 36
ream uno
Ġaprendiza jes
ĠRECAUD ACIÃĵN
4 04
8 11
I AN
I GA
L ICA
N ICO
T an
V E
V ol
a bles
a uto
d ental
i Ã©ndome
k er
m ero
n tonces
p ol
v ente
qu ilar
Ġa pu
Ġc ese
Ġs ic
as amblea
Ġque brada
te dr
Ġla ico
in cip
ti za
Ġen Ã©r
ÃŃ genes
al izar
Ġcon tienen
Ġpor te
di as
di rector
tu osa
Ġdi rÃ¡
ien dan
Ġesta l
Ġi mi
ĠD ecÃŃa
ĠR onald
ĠR Ã¡pido
Ġest or
cia dos
Ġpa pe
enta da
Ġex al
Ġcomp i
Ġcomp rado
Ġimp ago
Ġdis tancias
Ġpres u
Ġcos tando
Ġma ti
Ġma dr
ĠY amileth
Ġdeci diendo
Ġan damos
ul ti
ran ca
ac tas
Ġus amos
bil izadas
Es timados
ĠF o
el ec
Ġcre ados
Ġsus cep
Ġver te
Ġver ÃŃan
CI DO
EN D
EN DER
Ġca tÃ¡s
Ġlle guÃ©
ur os
Ġsegu ÃŃa
Ġdiscu tÃŃa
DI CIONAL
Ġmar inas
ĠB asta
uda ciÃ³n
RA S
po der
mpl imiento
Ã©r f
Con assif
ĠIn m
ĠIn cen
ĠIn stitucional
qui to
Ġpermi tidas
ĠCom p
dar se
ĠO ca
ĠO BL
Ġsen tidas
Ġcr Ã©anme
ĠPar lamen
Ġt Ã¡
Ġpens Ã³
Ġpens ionadas
Ġviv os
Ġactu Ã³
Ġ19 74
ida mente
Ġavan zara
Ġba ile
Ġsa quen
Ġ5 395
Ġcen ten
Ġcen trar
Ġcontr arias
TI DAD
Ġponer la
Ġmin ero
Ġmin tieron
Ġinteres adas
gram as
Ġlabor an
Ġbenefici ario
Ġquin cen
Ġllegar an
OC OOP
Ġru inos
Ġejecu tarse
imen tario
Ġagua cate
Ġcontin uemos
ĠDi ego
Ġinten tamos
ĠQ uer
ĠEN TIDAD
Ġconv ul
Ġtoma ba
ĠREF OR
Ġsub en
Ġvalor en
Ġprior izando
Ġtribu taciÃ³n
Ġpermitir les
Ġam istad
Ġol la
Ġesti gma
Ġrealizar Ã¡
Ġactual izados
Ġpromo vida
DE P
ono zco
ĠmaÃ± anas
Ġexplic an
Ġro jo
Ġindica dos
Ġgol fo
ĠEx iste
Ġsacar le
Ġases oras
Ġayudar nos
ĠMa x
trum ento
Ġtraer lo
Ġmuer ta
Ġimple mente
Ġagre gamos
Ġtrasla dÃ³
ĠREFORMAS Diputada
Ġabrir se
Ġrenun cie
Ġagro industr
Ġav iso
74 2
Ġcuestion amos
Ġimposi tiva
Ġcomercial izar
Ġapren dices
Ġprome ter
Ġdirector io
Ġale gar
08 3
Ġfirma dos
ĠSin fÃ³nica
Ġimplic aciÃ³n
Ġcontes tado
ĠFran cesa
Ġamena zar
Ġpus ieran
Ġadquir iÃ³
Ġresguar dando
ĠEmp resa
Ġbrindar les
Ġarti fici
TAL INA
ĠAG RO
ĠMODI FICA
Ġrela tiva
ĠInf inito
Ġvender le
64 0
Ġbeneficiar Ã¡
Ġacum ulados
Ġcru ceros
Ġindign a
ĠcÃ¡ te
Ġrein ven
Ġservir le
Ġcomplemen tarios
523 45
Ġunir se
ĠComer cial
Ġsober bia
jen os
Ġcompro bada
66 2
Ġpreval ezca
Ġpresidencial es
Ġremo jo
ĠilÃŃ cita
Ġexclu ido
Ġ86 60
Ġinca u
viv encia
Ġmanifies te
Ġdiscre cionalidad
Ġatropel lado
ĠSAN CIÃĵN
ĠSAN CHO
ĠFa cul
Ġdesafortun ada
Ġpolitiqu eros
Ġdevuel van
549 548
Ġcic l
RES AS
Agra decer
ĠINVESTIG AR
Ġpeligros as
Ġdetec tado
Ter cero
Ġinex plica
Pre gun
Ġvincul antes
ĠREGUL AR
ĠreÃºn en
Ġplu ricul
ĠIns trumento
Ġatrac tivos
Ġresid entes
Ġtax is
Ġpreju bilaciÃ³n
Ġcaute lar
Ġdecom iso
Ġautobus eros
Ġbos ques
ĠPROYEC TO
Ġcomplic ar
ĠerrÃ³n eamente
Ġsimp a
ALIZ A
Ġbelle zas
ĠTes oro
Ġconqu ista
ĠÃļ NICO
Ġinoc ente
ĠExp losivos
Ġseg mentos
ĠCA TALINA
ĠPEN ALIZA
Ġinadecu ada
Ġpresion ando
Ġterres tres
Ġcampes inos
312 1
Ġaspi ramos
ĠcÃŃv ica
Ġasc ens
Ġasc enso
ĠincÃ³mo do
Ġintern amente
ĠVic ente
Ġinflex iÃ³n
Ġpeat onal
Ġimpreci siones
Ġcotiz antes
Ġindiscu tible
ĠALCAN CES
Ġofrez ca
Ġcafetal era
ĠFORM ACIÃĵN
2980 1
ĠLOC ALES
Ġcoadyu var
Ġexpropi aciones
Ġquebra das
Ġpatrocin io
Ġfus ionar
ĠBern al
ĠMarce lo
Ġpil oto
Ġoscu ro
Ġfeminis tas
Ġantepas ados
acu me
Ġlap so
Ġconfin amiento
Ġglob ales
Ġimprescin dible
ĠCambi o
Ġterremo to
Ġnaran ja
ĠAng lo
Ġdia blo
ĠSup Ã©n
ĠTib Ã¡s
Ġcoe ficiente
Ġextral im
Ġnegr as
ĠcatÃ¡s tro
ĠOBL IGA
8 77
: //
A U
A ca
D a
E MP
F onatel
R G
T ienen
U AN
a co
a ve
b usti
g rantes
u tor
y me
es tan
Ġd udar
Ġde tecta
Ġa er
Ġa fer
Ġa tÃŃ
Ġc una
Ġes trÃ©s
te os
Ã³ lica
Ġn av
Ġen san
Ġcon gl
Ġv ernos
Ġno tado
Ġno toria
Ġre em
Ġre cesos
Ã© tn
Ġin curs
Ġo yendo
Ġo yen
ĠC re
ĠC el
ĠC uer
Ġg uer
tar ÃŃamos
us as
Ġesta ciÃ³n
Ġesta bilizar
Ġle ma
ĠD an
ĠN Ãļ
ĠN II
Ġest Ã¡s
Ġsu bido
ca paci
gu as
Ġdes plom
ĠM ES
Ġap elo
du ber
ĠDE P
io terapia
Ġj ud
ĠG an
ĠG abri
Ġpre te
Ġmo cionar
Ġsin f
Ġman dÃ©
EF IN
br Ã³
ĠLe al
Ġins ens
Ġinter ac
ora das
ĠT H
Ġca j
Ġca tas
Ġpoder osa
fer os
Ġmi el
Ġag ente
Ġni ego
Ġqui tÃ¡ndole
ber g
ĠRe activaciÃ³n
Ġmedi oc
Ġtan gible
Ġcontra ban
Ġven dido
cion e
Ġmar atÃ³n
ĠB I
Ġaten demos
âĢ¦ )
Ġau ge
Ġparti dista
Ġmayor itario
ĠO duber
Ġ21 60
Ġmejor an
Ġdec encia
Ġacuer de
Ġreci b
Ġcal ado
Ġrep resiÃ³n
Ġrep ensar
Ġpreocup arse
TA DOS
Ġ19 70
Ġconc ertaciÃ³n
Ġpriv ar
Ġrespe tos
Ġingres en
Ġmal gas
tad ora
Ġfal lar
Ġsan to
Ġenten diÃ³
Ġsolici tan
20 5
Ġprovin ciales
Ġaplic aciones
Ġanterior idad
Ġparticip amos
19 2
Ãģ C
Ġrecor tista
cri p
Ġide olÃ³gicamente
ĠLu z
Ġcontin ente
04 3
Ġgeneral izar
aste cimiento
Ġ13 4
Ġmejorar lo
18 1
18 2
Ġprior itarias
ĠacompaÃ± e
mÃ¡ genes
Ġcuan tificar
Ġprom ete
Ġanal izados
Ġpromo tores
UE DA
Ġmucha cha
Ġahor rando
Ġ16 1
73 5
Ġsuf rieron
Ġch an
Ġvisi tÃ³
ĠOC TA
29 38
Ġconta bilizar
Ġnoti ficar
Ġpreocupa ba
Ġcarr il
Ġauto mÃ³
Ġrepi te
Ġentrar les
Ġcontinuar Ã¡
Ġinvi tado
Ġaplica bles
Ġabor tos
Ġinsis timos
Ġajus ta
Ġacer c
Ġllega ban
ĠCor respon
Ġcorto placi
Ġincumpl iÃ³
Ġliqui dar
Ġ199 7
che lo
Ġendeuda do
Ġagu di
Ġcora je
Ġexclusiv as
Ġintro duciendo
Ġtele vis
Ġsumar le
Ġprofundi za
Ġbil ingÃ¼
orlen i
Ġmovil izarse
Ġbal uar
Ġsome tidas
Ġlimita das
Ġimpi diÃ³
ĠTrans parencia
Ġsecre tas
Ġvital icios
Ġacum ulaciÃ³n
155 6
Ġcru zados
Ġcontamin antes
ĠReformas Diputado
Ġnu lo
Ġsuspen de
Ġexcel entes
Ġhones tos
Ġges tar
ĠImp or
diputa dos
Ġcomenzar on
Ġ90 28
ĠMEDI ANTE
Ġneglig entes
tÃº an
Ġsupl ente
Ġfinancia dos
61 26
Ġmillon ario
Ġsup rimir
Ġindirec to
Ġposici onamiento
Ġbendi ta
ĠFa bi
Ġfalle cido
Ġfoto grafÃŃas
Ġconstruc ciones
ĠSegre gue
Ġoptim izar
Ġacredi tar
Ġconme mora
Ġconvoc ando
ĠharÃŃa mos
Ġposter gando
Ġflo te
Ġagricultor as
Ġsignific arÃŃa
Ġinaugu raciÃ³n
Ġaduan ero
Ġescog ido
Ġsecu elas
ĠdiagnÃ³s ticos
Ġencan tarÃŃa
ĠAgropecu ario
Ġreeleg irse
grÃ¡ ficas
ECH OS
priv ada
Ġdistor siÃ³n
ĠescÃ¡n er
Ġmicroemp res
Ġsubsis tencia
Ġendeudar nos
Ġeno jo
Ġestipu la
8400 8
479 75
Ġgr ueso
Ġgr Ãºas
Ġcliente l
Ġplane ado
Ġprotagon istas
Ġenfocar nos
Ġallan amiento
213 3
ĠAMPLI ADO
Ġenum erar
Ġimpo pulares
Ġrinc Ã³n
Ġagrav Ã³
Ġdesequil ib
ĠtÃºnel es
Ġparlam entar
ĠFA O
1019 52
Ġindiscu tiblemente
53671 50
Ġasom bro
Ġengor roso
ĠfÃŃ l
Ġneoliber al
ht t
Ġreestruc turar
Ġmix ta
ronter iza
Ġasistencial ismo
Ġcac erÃŃa
ĠGobern aciÃ³n
Ġineludi ble
Continu amos
ĠJOR GE
ĠCla udi
tÃ¡l ica
Ġcontrar res
Ġsep tiembre
ĠPUBLICA DA
Ġmadr u
ĠcÃ¡te dra
AU TOR
Ġcongl om
Ġreem bol
ĠNII F
) âĢ¦
0 56
4 69
6 18
6 58
6 60
C inco
C SS
G OS
H o
I TOS
J ustamente
M EM
R o
X IM
e to
h oy
m istas
n era
u as
y es
Ã ¬
Ġd ÃŃgame
Ġde teri
Ġl esionar
ar emos
or k
Ġe gres
Ġe cha
te cn
Ġla dr
an tan
in ec
Ġen la
Ġse mi
Ġse quÃŃa
Ġv era
Ġv aso
Ġv Ã¡monos
Ġpar Ã¡lisis
Ġpar itaria
Ġf um
Ġf ea
Ġre pon
Ã© ame
ol un
Ġin gobern
ĠC ir
ĠC UC
ten emos
tar emos
Ġesta dio
Ġesta bilizaciÃ³n
Ġle ÃŃda
ĠE va
Ġi mÃ¡genes
ĠN ICO
ĠR IN
Ġest Ãº
Ġti ca
Ġsu dor
Ġsu men
Ġsu icidios
Ġpa ja
Ġpa up
enta dos
Ġdes gas
Ġdes mej
Ġdes echos
ba das
ĠM il
Ġta gar
ĠDE UD
Ġtra emos
ordin ariamente
ĠG iselle
Ġcons orcio
Ġpres tados
Ġpre es
Ġsin ton
ĠI gualmente
Ġus arse
Ġins ensa
Ġinter re
Ġimpor tado
EN CIAS
ĠT ÃŃtulo
Ġar ra
Ġfin iqui
ĠH U
Ġca emos
me ga
ig ne
Ġfor zos
ĠJ O
ĠV EN
OR TE
Ġmen tes
Ãĵ LEO
dr ÃŃan
gr ar
Ġcontra er
Ġbi bl
Ġfun dÃ³
Ġmar g
Ġgener arse
ES PO
Ġcan san
Ġaten tan
Ġpla ca
Ġcar ÃŃsimo
Ġcar teles
Ġparti daria
ĠDe pÃ³
Ġpe dÃŃa
Ġforma dos
ĠO pera
ren es
ve inti
Ġt Ã¡c
Ġne to
Ġcambi ario
Ġescu do
Ġcomun icarse
TA DA
paci al
Ġmer ecido
Ġ9 00
resid encia
Ġdici Ã©ndonos
Ġsiste mÃ¡ticamente
ĠÃ© tn
Ġfuncion Ã³
Ġref ina
Ġfunda mentar
ĠIN DEP
Ġvotar a
TR ÃĵLEO
ĠCON MEM
Ġmin er
ĠdÃ© bito
Ġrefer ida
Ġfr entes
Ġpagar se
AN N
Ġfal lando
Ġabr uma
ĠPolÃŃti cos
Ġbenefici aria
20 6
ĠPro yectos
ĠPro dhab
Ġcer tera
Ġmencion ada
Ġcorrespon dencia
Ġreactiv ando
ĠSan dra
Ġfir man
19 9
Ġcomple tas
Ġfi tos
Ġejecu taron
Ġdefin iÃ³
eci entes
RE Z
Ġsem illas
Ġju bilaciÃ³n
Ġinici an
ĠQ R
ĠQ U
Ġrepresenta tiva
Esta ba
Ġsub terrÃ¡n
Ġvalor e
Ġdestin ada
Ġaclar Ã³
ĠacompaÃ± Ã³
Ġproteg ido
Ġmec Ã¡n
Ġpresentar a
Ġsosten imiento
Ġsuf rimos
Ġch is
ĠMar tÃŃn
Ġexpres an
48 5
Ġfortalecer lo
Ġconta ban
Ġ17 7
Ġtom Ã©
95 1289
Ġconci sa
Ġcarr iles
Ġauto consumo
ĠfÃ¡ ciles
22 4
Ġcentro americano
MI TA
Ġemi tidas
ĠCor tÃ©s
Ġacep tando
Ġiden ti
Ġimposi tivas
30 8
Ġproba bilidad
Ġgobern ado
ĠCol orado
Ġencar eci
Ġfron tal
65 479
77 1
Ġcontradic torias
Ġedi ficaciones
Ġine ficiencias
Ġintro dujeron
Ġsorp resi
Ġtemp era
Ġirre versi
Ġconduc tores
Ġbo tÃ³n
Ġpie dras
Ġaproxima do
Ġbal ances
68 7
Ġarti cul
Ġ0 1
ĠNO TARI
Ġderiv ada
Ġsusten tar
Ġrela to
Ġrela tivas
ĠengaÃ± emos
Ġindign ado
Ġinvestiga dores
Ġadj unta
Ġremi tiÃ³
Ġaval Ã³
3413 39
Ġgrav ÃŃsima
ĠRec ordemos
Ġocul tando
Ġdivi de
Ġsorpren diÃ³
ĠCR ESPO
31 269
CH OS
Ġinscri tos
Ġescon de
ĠPAR TI
Ġadministr ando
Ġflex ibles
ĠRa dio
Dic h
416 430
ĠDEF ENDER
Ġpac ÃŃfico
Ġdesen caden
ĠTE LE
Ġguanacaste co
Ġdiscre ciÃ³n
Ġdiscre cional
Ġbendi to
ĠlegÃŃti mos
Ġfronter izo
ĠaltÃŃs imos
4450 8
ĠdiseÃ± ada
Ġrelaci ona
Ġvaliente mente
Ġconsolida da
Ġfacili ten
ĠDEFENS ORA
Ġnombra das
Ġquisi mos
Ġbienven idos
Ġauxil iar
Dis culpe
Ġlatino americano
Ġsuger encias
Ġprefer encias
Ġ81 14
Ġescog iÃ³
ĠDERE CHOS
ĠDEN UN
Ġmercan tiles
Ġregistra dos
ĠLI MITA
vil idad
Ġdescal ificar
Ġriguros os
Ġsupon ÃŃa
ĠPOS I
Ġbel lo
Ġdebilita da
ĠIndustr ial
Ġprogres ista
Ġdefec to
Ġmonta Ã±as
Ġincoher ente
Ġgig ante
ĠIND EFIN
Ġincompa tible
ÃīR ICA
4988 59
ĠCr isto
Ġconfia mos
Ġencontra ban
Ġconsis tente
Ġrevel an
ĠProduc to
Ġdivul gaciÃ³n
Ġecol Ã³gico
TARI LL
Ġsubpar tida
Ġantoja diza
ĠDen omin
Cas cante
Ġproac tiva
Ġdesconoc en
ĠCOL ONES
ĠCOL EG
ĠFA VOR
Ġsobres al
ĠALCAN TARILL
ĠPE TRÃĵLEO
Ġconmo ciÃ³n
ĠINCL USIÃĵN
Ġenferm eras
Ġvenezol ano
Ġferro carril
presupues taciÃ³n
Ġvel ando
ĠDISP ONE
ĠhelicÃ³p tero
Ġtibur ones
Ġhur to
ĠocÃ© anos
ĠAndr Ã©s
ĠMUJER ES
Viv imos
Ġnac ÃŃ
Ġrean uda
Ġprotec cionismo
Ġdeso be
ĠRena to
Ġinsosten ibles
3412 74
ĠRur al
Ġembal se
gobiern o
Ġrecurr entes
Ġpreocu pe
Ġcompi tiendo
Ġverte bral
ĠMODIFICA CION
ĠRIN DA
Ġpaup Ã©r
ĠDEUD AS
ĠINDEP ENDENCIA
ĠCONMEM ORAR
ĠINDEFIN IDA
ĠCOLEG IO
4 28
4 27
6 128
C h
D icen
G ITAL
I VA
L IDAD
L AMENTO
M OS
M EDI
P e
V a
c p
c aciÃ³n
e ada
f iscal
m ÃŃ
m icas
n ar
p ica
p ymes
v ic
Ġ eros
Ġque brando
te a
Ġla c
in da
ti enda
Ġen un
da za
Ġcon cedi
Ã¡ ter
Ġv or
ente mos
Ġre van
Ġin mi
Ġin cul
Ġin apro
dad ora
ĠP osi
Ġo ye
ĠC AL
ĠC CSS
Ġal em
Ġal iado
Ġdi jeran
Ġuna mos
Ġg ris
Ġlo te
Ġper os
Ġle on
Ġto ler
Ġi tal
ĠD oÃ±a
Ãº o
ĠA ren
il ancia
Ġb aÃ±os
tan o
Ġme to
Ġti p
Ġsu ficiencia
Ġsu yas
Ġpa j
Ġpa to
gu lo
Ġex am
Ġdes is
Ġdes po
Ġdes val
ba jada
ĠM endo
ĠM ur
Ġimp lÃŃ
Ġac ar
Ġres orte
Ġj ac
Ġte mÃ¡ticas
Ġtra taron
Ġtra ducen
Ġdis capaci
Ġpres unta
Ġva iv
Ġva cas
Ġas iste
Ġsin tiendo
Ġsin ceros
ĠI G
ĠI r
ac k
ac ces
bil lo
ĠF aci
ĠT anto
Ġca ca
ĠCon tribu
ĠRe for
Ġmedi e
Ġmedi Ã¡tica
ON IO
Ġpresupues tÃ³
gr uencias
Ġtan tÃŃs
Ġbi parti
Ġbi cic
Ġcam a
ab ria
ĠB ra
ĠB renes
Ġinfor mÃ¡tico
Ġad her
min as
tur ismo
âĢ¦ ?
Ġco do
Ġco gn
Ġtar dÃŃ
ib ra
Ġentre vis
Ġter cio
qui ta
ĠO TOR
Ġexp los
Ġor ÃŃgenes
ĠPar ticip
Ġtrans acciÃ³n
Ġpens ada
Ġne ws
Ġreci cla
Ãį G
OL IDACIÃĵN
Ġfu ga
Ġnor mar
Ġir Ã³nico
Ġrep aso
Ġdo blemente
Ġ9 145
Ġba jen
Ġsa quemos
ĠseÃ±al ada
Ġhaber me
Ġvotar ÃŃa
Ġban dos
Ġautor izadas
Ġingres ado
Ġpregun tarse
del i
De ber
Ġpagar los
AN TES
Ġfalta ba
Ġbenefici en
Ġenten dÃŃa
Ġsolici tÃ¡ndole
enas a
Ġcul tivar
Ġsom eta
Ġtermin aciÃ³n
Ġsuper vivencia
Ġampl ÃŃe
Ġdefin iendo
Ġrecor tÃ³
In cofer
In clusive
Ġce de
Ġoblig ue
ĠÃ©l ites
Ġllevar los
Ġhici Ã©ramos
Ġinde fen
Ġcompar eciÃ³
Ġpasa jeros
Ġhi per
Ġhi po
Ġsub esti
Ġvalor aciones
Ġaclar en
Ġ15 7
Ġ15 9
Ġsalir se
Ġproces amiento
Ġvolun tarios
Ġlamenta mos
Ġ16 4
Ġgan e
Ġgan en
73 7
73 523
Ġincon gruencias
Ġch ino
Ġapoyar los
Ġdefender lo
Ġende udados
ilar Ã¡n
Ġdescon trol
Ġrecordar Ã¡n
Ġocas ionar
Ġsencil los
UP ERACIÃĵN
Ġdirig iendo
Ġinstrum ental
Ġenvi aron
Ġconsidera ba
ocar nos
17 13
Ġescuchar lo
Ġcomen cemos
Ġjerar quÃŃas
22 455
Ġcentro americana
Ġdistribu i
ĠCOM UN
Ġcapital izar
ĠPer Ãº
Ġemi tida
ĠMi re
Ġsustitu tivos
gl cp
ĠTe j
ĠCONS OLIDACIÃĵN
Ġrequer ÃŃan
ĠmÃ¡ quina
Ġgana dores
Ġexten so
Ġimporta dores
Ġdictamin amos
Ġinsu mo
ĠQu ienes
Ġvac ÃŃa
Ġescri biÃ³
Ġfran co
Ġcompeti tiva
Ġelimin aron
gre da
Ġon eros
21 1
Ġcoloc an
ĠGonz alo
ĠEm bajada
Ġsumar on
Ġbo ico
ĠenseÃ± Ã³
ĠPan demia
Ġconsol idado
Ġub icada
Ġsome tida
Cos tarricenses
Ġrepe tido
Ġbur ro
ĠÃģngel es
Ġdevolver lo
Ġtitu laciÃ³n
Ġreduci dos
Ġenter amos
Ġrepro ducciÃ³n
DUC CIÃĵN
Ġkil os
Ġcla vo
Ġingen iera
Ġmandar le
ĠREC UPERACIÃĵN
Ġgrav amen
ĠDI GITAL
Ġentregar le
Ġsorpren dente
Ġolvidar on
Res pecto
bon ada
taba co
Ġagar ra
Ġperci be
Ã¡mos lo
Ġdero gando
Ġinvir tieron
Ġatre ve
Ġago tar
Ġreza gados
Ġtempor ada
Ġmone tarias
Ġestre cha
Ġconsideran dos
Ġtri pu
ĠlegÃŃti mas
Ġacus ar
Ġadjud ica
ĠRES PON
Ġadi ciona
Ġproven iente
Ġaconte cido
Ġlider Ã³
Ġdiscrimina toria
500 86
Ġaleja dos
Ġinvisi ble
Ġurb anos
hor ita
Ġretras o
Ġvehem entes
Ġobten idos
Ġdiplom Ã¡ticas
Ġimpar tir
769 040
ĠexplÃŃ cito
Apro baciÃ³n
Ġalcahue tear
REG LAMENTO
Ġtonela da
Ġincomp leto
Ġgros ero
8400 88
Ġdesembol sos
Ġrenova ble
ĠON G
Ġdescan so
Ġventan illa
Tu ve
6548 60
Ġdemocra tizaciÃ³n
Ġencen der
Ġofen der
Ġderr am
Ġparadi gmas
ĠMAY OR
ĠburocrÃ¡ ticos
Ġpade cimientos
Ġads crito
Ġagrav ada
ĠAtlÃ¡n tico
Ġaspi ra
ĠprÃ³s pera
Ġofens as
Ġdesac redi
632 523
Ġchor izos
ĠDESAFEC TE
Felici to
Ġdedi que
Ġrepas ar
Ġpedag Ã³gico
patr onales
Ġencabez ado
ĠBENEFICI ARIOS
Ġcritic ando
Ġsobrepas a
Ġagres or
Ġcerti ficaciones
Ġcontex tos
Ġmila gro
ĠNOMBRA MIENTOS
Ġpaula tinamente
Ġinfr ing
ĠJohn ny
ĠgrÃ¡ fico
Ġcurric ular
Ġentor pec
ĠfÃ¡br ica
ĠGuarda costas
Ġprepo tencia
ĠAgra dezco
ĠDomÃ©s tica
ĠFACI LIDAD
ĠMATER IA
Ġrobuste cer
ĠVacun aciÃ³n
ĠIMPUL SO
Ġamedr entar
Ġantiv ir
Ġescol aridad
ĠVig ilancia
ĠBon illa
Ġpluricul tural
AUTOR IZACIÃĵN
Ġprees colar
ĠAren al
ĠMendo za
ĠOTOR GAMIENTO
Ġindefen dible
ĠRESPON SA
2 14
2 12
9 33
: âĢ¦
B AR
C in
C OLES
E AS
L P
M is
U r
V icepresidente
a quÃŃ
e tos
i Ã©ramos
l Ã¡ndose
t Ã¡ndolo
u vi
Â ł
Ġd uela
en es
en un
Ġp yme
Ġde dos
Ġl iv
er aciÃ³n
Ġa jenos
on cito
as h
Ġes tren
Ġe van
Ġm ina
an amente
ti se
al iciÃ³n
Ġse co
Ġse pul
Ġpr oli
ic ales
ic aron
Ġv uelo
ec lar
Ġf ibra
Ġpor ciÃ³n
ol o
Ã± ita
am ora
Ġo iga
di dad
de fin
ĠC ab
tu viera
Ġg inec
Ġcu estan
res tre
ĠD inadeco
ĠA z
ĠA dicional
Ġb ro
tan cial
Ġti l
Ġti bia
ĠS osten
ĠM ARI
Ġimp liquen
Ġap ela
Ġres pir
Ġpl ana
Ġtra zar
ĠG ini
ĠG LP
ER ITA
Ġcons erv
Ġpres ervaciÃ³n
ri dos
ri tas
Ġmil la
Ġas usta
ul nera
ĠF os
ĠF er
ĠF ISC
Ġver ifica
gar nos
se is
ĠT ASA
ĠT witter
Ġpas eo
Ġpas ivo
Ġqui te
Ġqui temos
dr Ã©
Ġdiscu tible
Ġcontra tÃ³
Ġcontra viene
fec to
Ġven i
Ġven za
cion an
cion arios
cion ista
arr as
ĠB U
Ġab is
Ġcol mo
Ġnecesi tado
ENT AR
OS O
teri al
Ġco cina
tÃŃcu lo
Ġforma to
ĠO mar
ĠcÃ³mo do
Ã¡l g
ĠPar cial
Ġtrans cen
Ġcal v
pec ÃŃ
Ġcambi emos
Ġrep osiciÃ³n
ĠEl iz
Ġpreocup adas
Ġcondi cionar
Ġactu ariales
Ġ19 24
Ġhu Ã©rf
id Ã³
AD ORES
Ġtu pÃ©
ĠGu arco
ĠPa dre
Ġref iera
Ġgra van
Ġrev iv
Ġfunda do
Ġfunda da
ĠPR IV
Ġ8 589
Ġingres Ã³
ĠRE DUCCIÃĵN
Ġponer me
Ġdejar le
Ġdejar los
Ġcri tican
Ġabs tra
Ġfundamenta das
Ġtras te
Ġtras torno
Ġpagar la
Ġfal acias
Ġaf renta
Ġlabor ando
Ġgenerar les
Ġsolici tados
Ġsigu ieron
Ġpi dan
ĠSan abria
Ġparticip Ã©
36 20
Ã³r ico
Ġrecor tarle
As amblea
Ġinten so
Ġllevar ÃŃa
Ġrevis Ã³
Ġinde bidas
Ġinde bido
Ġcompar tÃŃ
Ġpal an
Ġpasa jes
Si guiente
Ġdeclar adas
Ġhubi Ã©semos
Ġhi tos
Ġterri bles
Ġmane jÃ³
26 64
OM ÃįA
Ġpropon ga
cul um
Ġvul gar
13 0
Ġelim inan
Ġ16 3
73 440
Ġdebi mos
Ãī REZ
Ġbr oma
Ġcaus an
Ġro bos
58 4
ĠPRES TACIÃĵN
29 6
Ġpel liz
Ġsolid ari
Ġreca er
Ġtom ara
Ġdign ificar
quil los
Ġconci udad
Ġenfer mar
Ġcomen tando
Ġdiferencia dos
li tz
Ġllen ado
Ġdie tas
Ġotor gada
Ġllamar lo
Ġacer can
Ġvir tualmente
Ġmanten go
Ġemi ten
Ġprohibi endo
Ġarreg lamos
74 7
Ġimplica do
Ġproba do
ion ados
ben em
Re vis
Ġperm is
08 8
ĠrÃ¡pi das
92 7
Ġexplicar lo
ĠTÃ©cn ico
ĠREG IÃĵN
Ġrepar ticiÃ³n
ĠPER IO
ĠEMP RESAS
ĠAmpl iar
Ġirre para
Ġmentir osos
ĠimportantÃŃs imas
Ġvigil ando
Ġreco p
Ġresta urante
Ġtrascen der
Ġenfo cados
Ġpropor cionar
Ġeleg imos
Ġech arle
ĠCan al
Ġmanifesta ba
ĠPers onales
Ġ0 9
Ġmulti Ã©tn
Ġcreer le
ĠOrgan izaciones
com illas
ĠINTER MEDI
Ġespeci ficaciones
MO CIÃĵN
Ġrela jo
Ġapre ciaciones
tig litz
Ġbaja mos
Ġinvier no
Ġhospital aria
Ġconstruy eron
Ġalar ma
Ġorgullos amente
Ġacor damos
98 2
Ġadj unto
Ġfer ia
Ġmez cl
Ġcomien cen
Ġestric tos
Ġges tando
ĠImp uestos
Ġescal as
Ġmetodo logÃŃas
Ġexcesi vas
BAJ O
Ġequival entes
66 1
Ġplas mada
Ġperjud icados
Ġmir Ã¡
Ġpreval encia
ĠPAR QUE
Ġcorre dor
Ġcorre laciÃ³n
IT ULO
Ġeva diendo
Ġrepor tan
Ġrepor taje
Ġinven tario
548 8
Ġdero gados
Ġinneces arias
tÃº a
Ġanex os
ĠHu bo
Ġinforma dos
Ġdespilf ar
Ġgradu al
ĠAy uda
Ġdiscre pan
Ġama da
Ġpul so
ĠRES OLUCIÃĵN
LOS IVOS
Ġfru ta
Ġdevuel ven
Ġfoto grafÃŃa
Ġdescentral izada
Habl ar
Habl ando
Ġtol erar
ĠAdul tas
Ġmigra torios
ĠFe derado
Ġdespropor cionadas
Ġrestring ido
786 200
Ġprec aria
Ġempu je
Ġrecar go
Ġdisposi tivo
ĠextraÃ± ar
ĠBar ranca
Ġtute lar
ĠIs rael
Ġdesalo jos
ĠTRABAJAD OR
Ġocasion ando
ĠCAP ITULO
179 9
Ġsaluda bles
Ġfall ida
Ġestatu to
Ġdesproteg idas
Ġardu amente
Ġpropu se
Ġarquitec tura
Ġenre do
Ġomi tiÃ³
ÃīR COLES
ome ter
Ġinjustifica do
Ġequivoc Ã³
Recu er
Defens or
Ġdistingu ido
Ġpsic olÃ³gica
ĠGaran tÃŃa
Ġpelo ta
5780 58
Ġgarro te
Ġprocu rado
ĠCAS OS
Ġvice versa
Ġdisciplin arios
ĠLAB ORAL
ĠTERRI TORIOS
ĠCELEBRA CIÃĵN
Ġcorresponder Ã¡
Ġrotun do
Ġrotun damente
Ġeleva das
ĠasfÃ¡l ticas
Ġreme dio
Ġconcien tizar
ĠAR MAS
Ġcham b
Ġdiversi ficar
Enten demos
Ġnovedos o
Ġheredi anos
4978 33
Ġintoca ble
Ġapari encia
Ġreproduc tivos
Ġinsin u
Ġalajuel enses
Ġprorro gar
Ġfalse dades
Ġprostitu ciÃ³n
ĠTÃįT ULOS
Ġaudiovis ual
Ġahon dar
ĠAbo gados
Ġparalel amente
Ġrevictim izaciÃ³n
ĠCUER PO
sube jecuciÃ³n
ĠEstudi antes
Ġinne gable
ĠComple men
Ġinaplica ble
Ġmaxim izar
Ġquim ioterapia
Ġdesam par
ĠSte ven
Ġinnum erables
busti bles
Ġtagar otes
ĠJO VEN
Ġcaca o
Ġentorpec er
ĠRESPONSA BILIDAD
ERITA Z
ĠFISC ALES
ĠINTERMEDI ACIÃĵN
0 10
3 19
4 00
A gro
C EN
C ierro
D ÃįA
L iberaciÃ³n
M AR
S us
b udal
i guar
n Ãºmero
s onar
s erva
t w
u rias
Ġd ico
Ġp esi
Ġp ista
Ġp inta
Ġp Ã¡nico
or ia
Ã³ b
Ġy e
ti zado
Ġen sa
ÃŃ culas
tr i
ic ul
Ġcon duce
Ġv uelos
Ġcom ento
ĠP ens
ĠC reemos
ĠC CLIP
tu ve
Ġal iento
tra das
ien ta
ue las
Ġesta dios
Ġ2 39
le os
ĠL uego
Ġto quen
ĠD iv
ĠD rogas
ĠD engo
Ãº an
ĠA ma
ĠA tracciÃ³n
Ġb in
Ġb ende
Ġqu ir
Ġmu ro
Ġten edores
Ġex puesta
im no
Ġdes mi
ĠS r
ĠS enasa
ĠM os
Ġres truc
iz ara
Ġte orÃŃas
Ġte mÃ¡ticos
Ġtra igamos
Ġtra diciones
ĠPA UL
Ġpres ento
Ġpers is
Ġpers isten
ĠY ork
Ġpre ma
Ġas er
Ġman den
Ġman gas
Ġan ima
Ġan cha
br ÃŃa
Ġus ados
el l
el ia
mi dor
Ġr am
Ġpas Ã©
Ġreal icÃ©
ĠH en
ĠCon diciÃ³n
ur as
Ġcontra di
Ġposi bilita
Ġmar can
ĠB ON
tin os
Ġab ara
Ġab uel
Ġab ogando
Ġab undante
dem ocrÃ¡
Ġcan ciÃ³n
Ã©r raba
Ġpon drÃŃa
Ġfiscal iza
Ġau dios
Ġco ac
Ġcar ente
Ġcar gado
Ġci tÃ³
ĠDe uda
ĠDe finitivamente
Ġpermi tieran
udad as
rec er
Ġestudi Ã³
Ġsen tÃŃa
El la
Ġresponsa bilizar
ve mente
ĠCa fÃ©
Ġtrans vers
Ġgas te
Ġapoy Ã©
Ġval idez
Ġreci c
Se greda
Ġviv an
Ġinv iable
ĠEL EC
Ġli tros
Ġli tig
ensa je
ĠEn ten
Ġhab ernos
Ġpes ada
Ġpes cado
Ġdo bles
Ġba jan
Ġba che
Ġante laciÃ³n
Ġconstitu ido
Ġcontrol ada
Ġfal encia
Ġsan carle
Ġcul pas
Ġpos es
Ġunivers alidad
Ġtermin ales
Ġfi jÃ³
cios as
ĠÃ¡ g
Ġdej ara
Ġpreten dan
Ġrecor tamos
iza je
vers ia
Ġgesti onado
Ġimpac tando
[...]
