{
  "version": "1.0",
  "truncation": null,
  "padding": null,
  "added_tokens": [
    {
      "id": 0,
      "content": "<|endoftext|>",
      "single_word": false,
      "lstrip": false,
      "rstrip": false,
      "normalized": true,
      "special": true
    }
  ],
  "normalizer": null,
  "pre_tokenizer": {
    "type": "ByteLevel",
    "add_prefix_space": false,
    "trim_offsets": true,
    "use_regex": true
  },
  "post_processor": {
    "type": "ByteLevel",
    "add_prefix_space": true,
    "trim_offsets": false,
    "use_regex": true
  },
  "decoder": {
    "type": "ByteLevel",
    "add_prefix_space": true,
    "trim_offsets": true,
    "use_regex": true
  },
  "model": {
    "type": "BPE",
    "dropout": null,
    "unk_token": null,
    "continuing_subword_prefix": "",
    "end_of_word_suffix": "",
    "fuse_unk": false,
    "vocab": {
      "<|endoftext|>": 0,
      "!": 1,
      "\"": 2,
      "#": 3,
      "$": 4,
      "%": 5,
      "&": 6,
      "'": 7,
      "(": 8,
      ")": 9,
      "*": 10,
      "+": 11,
      ",": 12,
      "-": 13,
      ".": 14,
      "/": 15,
      "0": 16,
      "1": 17,
      "2": 18,
      "3": 19,
      "4": 20,
      "5": 21,
      "6": 22,
      "7": 23,
      "8": 24,
      "9": 25,
      ":": 26,
      ";": 27,
      "<": 28,
      "=": 29,
      ">": 30,
      "?": 31,
      "@": 32,
      "A": 33,
      "B": 34,
      "C": 35,
      "D": 36,
      "E": 37,
      "F": 38,
      "G": 39,
      "H": 40,
      "I": 41,
      "J": 42,
      "K": 43,
      "L": 44,
      "M": 45,
      "N": 46,
      "O": 47,
      "P": 48,
      "Q": 49,
      "R": 50,
      "S": 51,
      "T": 52,
      "U": 53,
      "V": 54,
      "W": 55,
      "X": 56,
      "Y": 57,
      "Z": 58,
      "[": 59,
      "\\": 60,
      "]": 61,
      "^": 62,
      "_": 63,
      "`": 64,
      "a": 65,
      "b": 66,
      "c": 67,
      "d": 68,
      "e": 69,
      "f": 70,
      "g": 71,
      "h": 72,
      "i": 73,
      "j": 74,
      "k": 75,
      "l": 76,
      "m": 77,
      "n": 78,
      "o": 79,
      "p": 80,
      "q": 81,
      "r": 82,
      "s": 83,
      "t": 84,
      "u": 85,
      "v": 86,
      "w": 87,
      "x": 88,
      "y": 89,
      "z": 90,
      "{": 91,
      "|": 92,
      "}": 93,
      "~": 94,
      "¡": 95,
      "¢": 96,
      "£": 97,
      "¤": 98,
      "¥": 99,
      "¦": 100,
      "§": 101,
      "¨": 102,
      "©": 103,
      "ª": 104,
      "«": 105,
      "¬": 106,
      "®": 107,
      "¯": 108,
      "°": 109,
      "±": 110,
      "²": 111,
      "³": 112,
      "´": 113,
      "µ": 114,
      "¶": 115,
      "·": 116,
      "¸": 117,
      "¹": 118,
      "º": 119,
      "»": 120,
      "¼": 121,
      "½": 122,
      "¾": 123,
      "¿": 124,
      "À": 125,
      "Á": 126,
      "Â": 127,
      "Ã": 128,
      "Ä": 129,
      "Å": 130,
      "Æ": 131,
      "Ç": 132,
      "È": 133,
      "É": 134,
      "Ê": 135,
      "Ë": 136,
      "Ì": 137,
      "Í": 138,
      "Î": 139,
      "Ï": 140,
      "Ð": 141,
      "Ñ": 142,
      "Ò": 143,
      "Ó": 144,
      "Ô": 145,
      "Õ": 146,
      "Ö": 147,
      "×": 148,
      "Ø": 149,
      "Ù": 150,
      "Ú": 151,
      "Û": 152,
      "Ü": 153,
      "Ý": 154,
      "Þ": 155,
      "ß": 156,
      "à": 157,
      "á": 158,
      "â": 159,
      "ã": 160,
      "ä": 161,
      "å": 162,
      "æ": 163,
      "ç": 164,
      "è": 165,
      "é": 166,
      "ê": 167,
      "ë": 168,
      "ì": 169,
      "í": 170,
      "î": 171,
      "ï": 172,
      "ð": 173,
      "ñ": 174,
      "ò": 175,
      "ó": 176,
      "ô": 177,
      "õ": 178,
      "ö": 179,
      "÷": 180,
      "ø": 181,
      "ù": 182,
      "ú": 183,
      "û": 184,
      "ü": 185,
      "ý": 186,
      "þ": 187,
      "ÿ": 188,
      "Ā": 189,
      "ā": 190,
      "Ă": 191,
      "ă": 192,
      "Ą": 193,
      "ą": 194,
      "Ć": 195,
      "ć": 196,
      "Ĉ": 197,
      "ĉ": 198,
      "Ċ": 199,
      "ċ": 200,
      "Č": 201,
      "č": 202,
      "Ď": 203,
      "ď": 204,
      "Đ": 205,
      "đ": 206,
      "Ē": 207,
      "ē": 208,
      "Ĕ": 209,
      "ĕ": 210,
      "Ė": 211,
      "ė": 212,
      "Ę": 213,
      "ę": 214,
      "Ě": 215,
      "ě": 216,
      "Ĝ": 217,
      "ĝ": 218,
      "Ğ": 219,
      "ğ": 220,
      "Ġ": 221,
      "ġ": 222,
      "Ģ": 223,
      "ģ": 224,
      "Ĥ": 225,
      "ĥ": 226,
      "Ħ": 227,
      "ħ": 228,
      "Ĩ": 229,
      "ĩ": 230,
      "Ī": 231,
      "ī": 232,
      "Ĭ": 233,
      "ĭ": 234,
      "Į": 235,
      "į": 236,
      "İ": 237,
      "ı": 238,
      "Ĳ": 239,
      "ĳ": 240,
      "Ĵ": 241,
      "ĵ": 242,
      "Ķ": 243,
      "ķ": 244,
      "ĸ": 245,
      "Ĺ": 246,
      "ĺ": 247,
      "Ļ": 248,
      "ļ": 249,
      "Ľ": 250,
      "ľ": 251,
      "Ŀ": 252,
      "ŀ": 253,
      "Ł": 254,
      "ł": 255,
      "Ń": 256,
      "es": 257,
      "Ġd": 258,
      "en": 259,
      "Ġp": 260,
      "Ġde": 261,
      "os": 262,
      "Ġl": 263,
      "er": 264,
      "ar": 265,
      "qu": 266,
      "Ġa": 267,
      "Ġc": 268,
      "ci": 269,
      "Ġs": 270,
      "on": 271,
      "que": 272,
      "as": 273,
      "Ġque": 274,
      "or": 275,
      "Ġes": 276,
      "ta": 277,
      "Ġe": 278,
      "Ġm": 279,
      "te": 280,
      "Ġla": 281,
      "Ã³": 282,
      "an": 283,
      "un": 284,
      "in": 285,
      "do": 286,
      "Ġy": 287,
      "ti": 288,
      "re": 289,
      "Ġn": 290,
      "to": 291,
      "Ġen": 292,
      "ÃŃ": 293,
      "al": 294,
      "Ã³n": 295,
      "Ġel": 296,
      "tr": 297,
      "Ġh": 298,
      "da": 299,
      "Ġse": 300,
      "Ġun": 301,
      "is": 302,
      "Ġpr": 303,
      "ic": 304,
      "Ġcon": 305,
      "aci": 306,
      "Ã¡": 307,
      "Ġv": 308,
      "om": 309,
      "mos": 310,
      "Ġpar": 311,
      "ec": 312,
      "ente": 313,
      "Ġf": 314,
      "Ġno": 315,
      "Ġre": 316,
      "Ġlos": 317,
      "Ã©": 318,
      "Ġpor": 319,
      "Ġha": 320,
      "ol": 321,
      "Ġin": 322,
      "Ã±": 323,
      "bl": 324,
      "Ġcom": 325,
      "Ġdel": 326,
      "dad": 327,
      "Ġpara": 328,
      "bi": 329,
      "am": 330,
      "ari": 331,
      "ĠP": 332,
      "Ġo": 333,
      "Ġlas": 334,
      "mp": 335,
      "di": 336,
      "Ġpro": 337,
      "de": 338,
      "ĠC": 339,
      "ten": 340,
      "tu": 341,
      "Ġal": 342,
      "tra": 343,
      "ciÃ³n": 344,
      "cu": 345,
      "pu": 346,
      "aciÃ³n": 347,
      "Ġdi": 348,
      "Ġuna": 349,
      "ones": 350,
      "Ġg": 351,
      "ien": 352,
      "ue": 353,
      "esi": 354,
      "ÃŃa": 355,
      "tos": 356,
      "Ġlo": 357,
      "Ġper": 358,
      "tar": 359,
      "us": 360,
      "ch": 361,
      "ter": 362,
      "tiv": 363,
      "ra": 364,
      "dos": 365,
      "idad": 366,
      "ma": 367,
      "Ġcu": 368,
      "Ġesta": 369,
      "res": 370,
      "Ġle": 371,
      "Ġeste": 372,
      "Ġ2": 373,
      "le": 374,
      "ĠE": 375,
      "Ġsi": 376,
      "ĠL": 377,
      "ica": 378,
      "Ġto": 379,
      "Ġi": 380,
      "la": 381,
      "Ã¡s": 382,
      "ĠD": 383,
      "Ãº": 384,
      "ĠA": 385,
      "ĠN": 386,
      "ando": 387,
      "ĠĊ": 388,
      "era": 389,
      "il": 390,
      "Ġb": 391,
      "tan": 392,
      "puta": 393,
      "Ġqu": 394,
      "ĠR": 395,
      "Ġest": 396,
      "Ġme": 397,
      "cia": 398,
      "Ġti": 399,
      "Ġpo": 400,
      "Ġsu": 401,
      "Ġpa": 402,
      "aria": 403,
      "emos": 404,
      "enta": 405,
      "Ġmu": 406,
      "tes": 407,
      "ca": 408,
      "Ġten": 409,
      "gu": 410,
      "ero": 411,
      "Ġex": 412,
      "im": 413,
      "Ġdes": 414,
      "Ġcomp": 415,
      "ba": 416,
      "lo": 417,
      "ÃŃs": 418,
      "ĠS": 419,
      "Ġcomo": 420,
      "ble": 421,
      "mente": 422,
      "ĠmÃ¡s": 423,
      "ro": 424,
      "ĠM": 425,
      "ir": 426,
      "ici": 427,
      "ĠestÃ¡": 428,
      "das": 429,
      "Ã©n": 430,
      "Ġ20": 431,
      "oc": 432,
      "Ġnos": 433,
      "ado": 434,
      "go": 435,
      "ens": 436,
      "tor": 437,
      "iÃ³n": 438,
      "aÃ±": 439,
      "der": 440,
      "Ġimp": 441,
      "ord": 442,
      "tro": 443,
      "ĠseÃ±": 444,
      "Ġap": 445,
      "ues": 446,
      "Ġta": 447,
      "oy": 448,
      "yec": 449,
      "iento": 450,
      "onal": 451,
      "Ġac": 452,
      "Ġproyec": 453,
      "bre": 454,
      "Ġres": 455,
      "Ġdiputa": 456,
      "Ġpl": 457,
      "co": 458,
      "Ġporque": 459,
      "Ġtien": 460,
      "du": 461,
      "Ġser": 462,
      "Ġhac": 463,
      "esid": 464,
      "ĠDE": 465,
      "iz": 466,
      "mbi": 467,
      "io": 468,
      "ĠpaÃŃs": 469,
      "amente": 470,
      "Ãºbl": 471,
      "Ġj": 472,
      "Ġte": 473,
      "Ġso": 474,
      "ĠseÃ±or": 475,
      "Ġtra": 476,
      "Ġdis": 477,
      "iv": 478,
      "Ġhay": 479,
      "ciones": 480,
      "raci": 481,
      "Ġpue": 482,
      "Ġ\\": 483,
      "ga": 484,
      "ordin": 485,
      "Ġtr": 486,
      "lar": 487,
      "ĠPA": 488,
      "mbiÃ©n": 489,
      "ĠtambiÃ©n": 490,
      "ĠG": 491,
      "Ġpresid": 492,
      "gis": 493,
      "tas": 494,
      "Ġproyecto": 495,
      "Ġ1": 496,
      "mo": 497,
      "ER": 498,
      "ĠcompaÃ±": 499,
      "gun": 500,
      "Ġcons": 501,
      "Ġpres": 502,
      "Ġpero": 503,
      "Ġcos": 504,
      "ier": 505,
      "Ġva": 506,
      "tros": 507,
      "ri": 508,
      "Ġma": 509,
      "racias": 510,
      "ario": 511,
      "ces": 512,
      "encia": 513,
      "con": 514,
      "pues": 515,
      "pe": 516,
      "ada": 517,
      "cial": 518,
      "titu": 519,
      "Ġeso": 520,
      "inis": 521,
      "Ġpers": 522,
      "esiÃ³n": 523,
      "ia": 524,
      "ĠY": 525,
      "tiva": 526,
      "Ġmil": 527,
      "for": 528,
      "Ġpre": 529,
      "Ġsol": 530,
      "ĠcompaÃ±er": 531,
      "quÃŃ": 532,
      "Ġas": 533,
      "emp": 534,
      "des": 535,
      "Ġdeci": 536,
      "Ġmo": 537,
      "Ġsin": 538,
      "Ġman": 539,
      "ĠEs": 540,
      "Ġmuch": 541,
      "EF": 542,
      "Ġtiene": 543,
      "Ġplen": 544,
      "ce": 545,
      "vi": 546,
      "ico": 547,
      "ez": 548,
      "gisla": 549,
      "Âº": 550,
      "Ġan": 551,
      "endo": 552,
      "Ġesa": 553,
      "ern": 554,
      "Ġnues": 555,
      "Ġley": 556,
      "ento": 557,
      "ul": 558,
      "ordinaria": 559,
      "Ġese": 560,
      "ÃŃti": 561,
      "br": 562,
      "Ġdon": 563,
      "Ġperson": 564,
      "Ġplenaria": 565,
      "ĠaquÃŃ": 566,
      "ric": 567,
      "ĠLe": 568,
      "ĠI": 569,
      "ĠaÃ±": 570,
      "jo": 571,
      "tivo": 572,
      "ran": 573,
      "Ġdeb": 574,
      "ac": 575,
      "Ġus": 576,
      "Ġhacer": 577,
      "Ġson": 578,
      "ĠPAG": 579,
      "Toc": 580,
      "bil": 581,
      "ores": 582,
      "Ġ_": 583,
      "EREF": 584,
      "ĠPAGEREF": 585,
      "ido": 586,
      "uen": 587,
      "ales": 588,
      "Es": 589,
      "olÃŃti": 590,
      "ĠF": 591,
      "el": 592,
      "Ġyo": 593,
      "Ġpresidente": 594,
      "Ġcre": 595,
      "Ġemp": 596,
      "los": 597,
      "Ġya": 598,
      "Ġins": 599,
      "Ġhoy": 600,
      "Ġesto": 601,
      "Ġinter": 602,
      "Ã©s": 603,
      "cciÃ³n": 604,
      "ora": 605,
      "ĠpÃºbl": 606,
      "uev": 607,
      "pon": 608,
      "Ġsus": 609,
      "Ġver": 610,
      "CI": 611,
      "Ġtema": 612,
      "gar": 613,
      "acional": 614,
      "Ġimpor": 615,
      "ĠCos": 616,
      "EN": 617,
      "iputa": 618,
      "ver": 619,
      "Ġhan": 620,
      "mi": 621,
      "cur": 622,
      "Diputa": 623,
      "tado": 624,
      "se": 625,
      "ĠT": 626,
      "Ġar": 627,
      "obi": 628,
      "Ġtodos": 629,
      "ton": 630,
      "Ġ201": 631,
      "Ġsal": 632,
      "aciones": 633,
      "osi": 634,
      "Ġ202": 635,
      "Ã¡n": 636,
      "Ġr": 637,
      "obiern": 638,
      "ricens": 639,
      "tarricens": 640,
      "mas": 641,
      "Ġsobre": 642,
      "Ġdic": 643,
      "ja": 644,
      "Â¿": 645,
      "Ġpas": 646,
      "Ġimportan": 647,
      "Ġtraba": 648,
      "ĠestÃ¡n": 649,
      "Ġfin": 650,
      "Ġreal": 651,
      "Ġnec": 652,
      "tre": 653,
      "ĠRica": 654,
      "ĠH": 655,
      "Ġpersonas": 656,
      "bilidad": 657,
      "ĠpolÃŃti": 658,
      "Ġmuy": 659,
      "Ġcas": 660,
      "ĠCosta": 661,
      "ante": 662,
      "les": 663,
      "Ġca": 664,
      "Ġvo": 665,
      "obierno": 666,
      "Ãºn": 667,
      "Ġpoder": 668,
      "Ġah": 669,
      "me": 670,
      "ig": 671,
      "fer": 672,
      "ven": 673,
      "Ġfor": 674,
      "za": 675,
      "ĠJ": 676,
      "Ġestamos": 677,
      "duc": 678,
      "ĠV": 679,
      "uch": 680,
      "SesiÃ³n": 681,
      "âĢ": 682,
      "isiÃ³n": 683,
      "ĠcompaÃ±eros": 684,
      "tonces": 685,
      "ĠAs": 686,
      "Ġmi": 687,
      "um": 688,
      "Ġtenemos": 689,
      "Ġag": 690,
      "por": 691,
      "OR": 692,
      "curs": 693,
      "Ġcostarricens": 694,
      "Ġdecir": 695,
      "Ġni": 696,
      "Ġcuando": 697,
      "Ġapro": 698,
      "lam": 699,
      "Ġqui": 700,
      "ĠCon": 701,
      "Ġmen": 702,
      "Ġgen": 703,
      "Ġdiputados": 704,
      "ber": 705,
      "Ġgracias": 706,
      "tir": 707,
      "ĠRe": 708,
      "Ġlle": 709,
      "Ġhabl": 710,
      "Ġordinaria": 711,
      "Ġdonde": 712,
      "Ġuste": 713,
      "ĠGobierno": 714,
      "ĠquÃ©": 715,
      "Ġcor": 716,
      "entes": 717,
      "gan": 718,
      "ur": 719,
      "Ġmay": 720,
      "ech": 721,
      "Ġmedi": 722,
      "fici": 723,
      "Ġej": 724,
      "Ġles": 725,
      "per": 726,
      "Ġsegu": 727,
      "Ãĵ": 728,
      "upues": 729,
      "tal": 730,
      "Ġalgun": 731,
      "siÃ³n": 732,
      "Ġtodo": 733,
      "Ġinc": 734,
      "idades": 735,
      "ĠLA": 736,
      "dr": 737,
      "Ġvi": 738,
      "tura": 739,
      "em": 740,
      "ctor": 741,
      "Ġve": 742,
      "ecu": 743,
      "iendo": 744,
      "cal": 745,
      "arios": 746,
      "den": 747,
      "Ġmis": 748,
      "ON": 749,
      "En": 750,
      "Ġdiscu": 751,
      "Ġpresupues": 752,
      "gr": 753,
      "Ġciento": 754,
      "Ġdos": 755,
      "DI": 756,
      "Ġbuen": 757,
      "Ġtan": 758,
      "Ġcontra": 759,
      "ĠÂ¿": 760,
      "entos": 761,
      "Ġposi": 762,
      "Ġbi": 763,
      "amble": 764,
      "tido": 765,
      "Ġfun": 766,
      "fec": 767,
      "Ġtienen": 768,
      "si": 769,
      "cho": 770,
      "Ġtener": 771,
      "amblea": 772,
      "otros": 773,
      "Ġcam": 774,
      "Ġven": 775,
      "tÃŃ": 776,
      "cional": 777,
      "ĠAsamblea": 778,
      "pi": 779,
      "cion": 780,
      "arr": 781,
      "uer": 782,
      "AR": 783,
      "ĠaÃ±os": 784,
      "Ġbien": 785,
      "ece": 786,
      "Ġecon": 787,
      "gislativa": 788,
      "Ġhemos": 789,
      "Ġrecurs": 790,
      "ab": 791,
      "fic": 792,
      "tras": 793,
      "tru": 794,
      "Gracias": 795,
      "Ġmar": 796,
      "ĠsÃŃ": 797,
      "Ġgener": 798,
      "Ġpuede": 799,
      "ĠB": 800,
      "tin": 801,
      "je": 802,
      "Ġab": 803,
      "miento": 804,
      "Much": 805,
      "sa": 806,
      "Ġdere": 807,
      "dem": 808,
      "ÃĵN": 809,
      "len": 810,
      "Diputado": 811,
      "Ġnosotros": 812,
      "Ġmill": 813,
      "Ãºblica": 814,
      "Ġextra": 815,
      "Ġcol": 816,
      "Ġdesde": 817,
      "IC": 818,
      "Ġinfor": 819,
      "ES": 820,
      "ara": 821,
      "Ġnecesi": 822,
      "Ġimportante": 823,
      "Ġinstitu": 824,
      "Â°": 825,
      "ana": 826,
      "Ġnuev": 827,
      "Ġad": 828,
      "min": 829,
      "Ġparte": 830,
      "Ġdar": 831,
      "zo": 832,
      "Ġrecursos": 833,
      "cias": 834,
      "Ã³m": 835,
      "Ġmom": 836,
      "Ġfue": 837,
      "Ġgran": 838,
      "ĠLegislativa": 839,
      "ĠmociÃ³n": 840,
      "Ġesp": 841,
      "uda": 842,
      "RA": 843,
      "ud": 844,
      "Ġcan": 845,
      "Muchas": 846,
      "jer": 847,
      "Ġestos": 848,
      "cas": 849,
      "Ġmillones": 850,
      "po": 851,
      "Ġfis": 852,
      "Ġlegisla": 853,
      "amos": 854,
      "mpl": 855,
      "Ġob": 856,
      "Ġmej": 857,
      "Ġcin": 858,
      "ru": 859,
      "Ġestu": 860,
      "Ġuno": 861,
      "Ġsolo": 862,
      "ENT": 863,
      "esti": 864,
      "unto": 865,
      "ĠseÃ±ora": 866,
      "arrol": 867,
      "arias": 868,
      "Ġprim": 869,
      "Ã©r": 870,
      "Ġquiero": 871,
      "Ã³mo": 872,
      "icos": 873,
      "Ġclar": 874,
      "Ġdiputado": 875,
      "Ġaten": 876,
      "Ġrec": 877,
      "Ġcostarricenses": 878,
      "trol": 879,
      "pÃºblica": 880,
      "OS": 881,
      "ĠRepÃºblica": 882,
      "enda": 883,
      "Ġhace": 884,
      "ĠEstado": 885,
      "Ġtiemp": 886,
      "Ġpon": 887,
      "tur": 888,
      "rim": 889,
      "iste": 890,
      "Ġsector": 891,
      "taciÃ³n": 892,
      "âĢ¦": 893,
      "Ġfiscal": 894,
      "Ġesos": 895,
      "ĠU": 896,
      "terio": 897,
      "Ġau": 898,
      "isi": 899,
      "Ġpresidenta": 900,
      "Con": 901,
      "ĠIn": 902,
      "Ġestar": 903,
      "ÃŃas": 904,
      "almente": 905,
      "tamente": 906,
      "Ġsocial": 907,
      "teri": 908,
      "bar": 909,
      "Ġproble": 910,
      "Ġmomento": 911,
      "Ġtran": 912,
      "icas": 913,
      "dores": 914,
      "ala": 915,
      "ÃŃan": 916,
      "Ġcual": 917,
      "Ġco": 918,
      "ĠdÃŃa": 919,
      "Ġpla": 920,
      "Ġcar": 921,
      "ĠLey": 922,
      "ĠcompaÃ±eras": 923,
      "cip": 924,
      "Ġacu": 925,
      "Ġtar": 926,
      "Ġdef": 927,
      "izar": 928,
      "tÃŃcu": 929,
      "Ġnuestro": 930,
      "Ġhaci": 931,
      "jar": 932,
      "Ġtodas": 933,
      "Ġpresupuesto": 934,
      "ponsa": 935,
      "Pero": 936,
      "ib": 937,
      "ĠasÃŃ": 938,
      "ĠaÃ±o": 939,
      "Ġfinan": 940,
      "las": 941,
      "Ġ3": 942,
      "Ġentre": 943,
      "Ġfra": 944,
      "Ġparti": 945,
      "Ġsea": 946,
      "Ġmayor": 947,
      "CIÃĵN": 948,
      "Ġci": 949,
      "ĠDe": 950,
      "asta": 951,
      "Ġminis": 952,
      "mar": 953,
      "Ġvamos": 954,
      "amiento": 955,
      "Ġter": 956,
      "Ġmanera": 957,
      "dor": 958,
      "Ġsido": 959,
      "Ġdesarrol": 960,
      "van": 961,
      "qui": 962,
      "Ġ2019": 963,
      "Ġpe": 964,
      ".Â°": 965,
      "Ġentonces": 966,
      "Ġpermi": 967,
      "Ġforma": 968,
      "Ġ2020": 969,
      "demos": 970,
      "ĠCom": 971,
      "cio": 972,
      "Ġdebe": 973,
      "dar": 974,
      "ĠO": 975,
      "diente": 976,
      "cup": 977,
      "udad": 978,
      "Ġ21": 979,
      "Ġsino": 980,
      "ren": 981,
      "Ġhech": 982,
      "Ġtres": 983,
      "zar": 984,
      "leo": 985,
      "Ġtiempo": 986,
      "ĠcÃ³mo": 987,
      "demÃ¡s": 988,
      "Ġincl": 989,
      "Ġusted": 990,
      "minis": 991,
      "stitu": 992,
      "ĠeconÃ³m": 993,
      "Ã¡l": 994,
      "ĠahÃŃ": 995,
      "tun": 996,
      "Ġparece": 997,
      "alta": 998,
      "ados": 999,
      "Ġcreo": 1000,
      "Ġ2021": 1001,
      "rec": 1002,
      "tando": 1003,
      "gÃºn": 1004,
      "Ġestudi": 1005,
      "lic": 1006,
      "Por": 1007,
      "ĠPlen": 1008,
      "atro": 1009,
      "Ġmejor": 1010,
      "Ġexp": 1011,
      "ÃŃo": 1012,
      "Ġmujer": 1013,
      "var": 1014,
      "Ġsen": 1015,
      "ĠartÃŃcu": 1016,
      "Ġvan": 1017,
      "Ġreg": 1018,
      "uy": 1019,
      "Ġdem": 1020,
      "Ġra": 1021,
      "Ġproyectos": 1022,
      "ientos": 1023,
      "Ġcr": 1024,
      "Ġestas": 1025,
      "Ġdice": 1026,
      "col": 1027,
      "menta": 1028,
      "Ġesas": 1029,
      "ĠNacional": 1030,
      "ĠLa": 1031,
      "par": 1032,
      "El": 1033,
      "Ġor": 1034,
      "ĠPlenario": 1035,
      "gn": 1036,
      "Ġotros": 1037,
      "ceso": 1038,
      "ducaciÃ³n": 1039,
      "Ġdec": 1040,
      "vici": 1041,
      "Ġdifer": 1042,
      "Ġresponsa": 1043,
      "ĠPar": 1044,
      "Ġrefor": 1045,
      "Ġmun": 1046,
      "ve": 1047,
      "Ġsitu": 1048,
      "tÃ³": 1049,
      "Ġda": 1050,
      "Ġmenos": 1051,
      "Ġacuer": 1052,
      "Ġcaso": 1053,
      "if": 1054,
      "car": 1055,
      "Ġcada": 1056,
      "embre": 1057,
      "Ġextraordinaria": 1058,
      "bles": 1059,
      "ĠCa": 1060,
      "Ġpues": 1061,
      "Ġden": 1062,
      "PE": 1063,
      "av": 1064,
      "Ġgente": 1065,
      "Ã±o": 1066,
      "Ġtrans": 1067,
      "oci": 1068,
      "Ġt": 1069,
      "amil": 1070,
      "Ġtrabajo": 1071,
      "Ġvez": 1072,
      "Ġgas": 1073,
      "ĠdiscusiÃ³n": 1074,
      "ĠMinis": 1075,
      "Ġmes": 1076,
      "Ġapoy": 1077,
      "Ġnuestra": 1078,
      "dan": 1079,
      "Ġpens": 1080,
      "laciÃ³n": 1081,
      "Yo": 1082,
      "imos": 1083,
      "Ġval": 1084,
      "arÃŃa": 1085,
      "ĠpolÃŃtico": 1086,
      "ENTE": 1087,
      "ĠMinisterio": 1088,
      "Ġllam": 1089,
      "Ġne": 1090,
      "ĠademÃ¡s": 1091,
      "ĠLE": 1092,
      "Ġreci": 1093,
      "Ġcal": 1094,
      "Ġhecho": 1095,
      "quier": 1096,
      "Se": 1097,
      "Ġalgunos": 1098,
      "tamos": 1099,
      "Ġpodr": 1100,
      "Ġviv": 1101,
      "Ġejemp": 1102,
      "Ġplan": 1103,
      "Ãį": 1104,
      "ĠSe": 1105,
      "tivos": 1106,
      "Ġfamil": 1107,
      "ĠCar": 1108,
      "Ġem": 1109,
      "pec": 1110,
      "cos": 1111,
      "Diputada": 1112,
      "uel": 1113,
      "ĠartÃŃculo": 1114,
      "Ġquer": 1115,
      "OL": 1116,
      "vo": 1117,
      "gres": 1118,
      "Ġfu": 1119,
      "til": 1120,
      "portun": 1121,
      "cn": 1122,
      "Ġnacional": 1123,
      "AL": 1124,
      "Ġtoda": 1125,
      "Ġnor": 1126,
      "ARI": 1127,
      "Ġcambi": 1128,
      "Ġustedes": 1129,
      "Ġpodemos": 1130,
      "Ġempres": 1131,
      "Ġoportun": 1132,
      "Ġir": 1133,
      "unes": 1134,
      "gue": 1135,
      "ĠComisiÃ³n": 1136,
      "Ġrep": 1137,
      "Ġproduc": 1138,
      "Ġimpues": 1139,
      "va": 1140,
      "Ġmucho": 1141,
      "DIENTE": 1142,
      "EX": 1143,
      "Ġpunto": 1144,
      "izaciÃ³n": 1145,
      "PEDIENTE": 1146,
      "Ġcier": 1147,
      "ĠDEL": 1148,
      "Ã±a": 1149,
      "Ġdiputada": 1150,
      "Ġfinanci": 1151,
      "chos": 1152,
      "ĠEl": 1153,
      "maciÃ³n": 1154,
      "pediente": 1155,
      "Ġinv": 1156,
      "EXPEDIENTE": 1157,
      "na": 1158,
      "dic": 1159,
      "Ġdiputadas": 1160,
      "cientos": 1161,
      "Ġhasta": 1162,
      "ĠPo": 1163,
      "err": 1164,
      "Ġejemplo": 1165,
      "tica": 1166,
      "Ġcuatro": 1167,
      "Ġlu": 1168,
      "Ġescu": 1169,
      "ista": 1170,
      "ios": 1171,
      "esiones": 1172,
      "ocup": 1173,
      "Ġprin": 1174,
      "ĠsituaciÃ³n": 1175,
      "Ġcosas": 1176,
      "Ġdu": 1177,
      "ĠEL": 1178,
      "Prim": 1179,
      "Ġciudad": 1180,
      "tivas": 1181,
      "Ġquier": 1182,
      "Ġu": 1183,
      "olu": 1184,
      "orden": 1185,
      "Ġrealmente": 1186,
      "Ġdeba": 1187,
      "Ġservici": 1188,
      "ĠpÃºblico": 1189,
      "iver": 1190,
      "Ġpreocup": 1191,
      "Ġmujeres": 1192,
      "ecer": 1193,
      "Ġcondi": 1194,
      "Ġnin": 1195,
      "Ġrecon": 1196,
      "Ġnada": 1197,
      "Ġcomun": 1198,
      "Ġcinco": 1199,
      "Ġmuchos": 1200,
      "anos": 1201,
      "usti": 1202,
      "ueves": 1203,
      "Ġfav": 1204,
      "gamos": 1205,
      "Ġ2018": 1206,
      "Ġvida": 1207,
      "ibu": 1208,
      "Ġdesarrollo": 1209,
      "Ġacuerdo": 1210,
      "âĢ¦,": 1211,
      "Ġneces": 1212,
      "Ġay": 1213,
      "?,": 1214,
      "nos": 1215,
      "Ġderecho": 1216,
      "Ġinver": 1217,
      "ano": 1218,
      "dades": 1219,
      "entar": 1220,
      "ona": 1221,
      "ÃŃn": 1222,
      "tral": 1223,
      "paÃ±": 1224,
      "Ġ4": 1225,
      "Qu": 1226,
      "ecutivo": 1227,
      "Ġactu": 1228,
      "Ġahora": 1229,
      "Ġmuchas": 1230,
      "Ġli": 1231,
      "ĠPoder": 1232,
      "Ġderechos": 1233,
      "Ġbus": 1234,
      "ĠLEY": 1235,
      "Ġorden": 1236,
      "ĠConstitu": 1237,
      "eron": 1238,
      "ĠEj": 1239,
      "ill": 1240,
      "La": 1241,
      "ene": 1242,
      "ĠpÃºblica": 1243,
      "Ġcompr": 1244,
      "Ġdeber": 1245,
      "Ġplante": 1246,
      "ensa": 1247,
      "truc": 1248,
      "ĠeducaciÃ³n": 1249,
      "Ġera": 1250,
      "ĠEn": 1251,
      "Ġefec": 1252,
      "lti": 1253,
      "Ġhab": 1254,
      "TA": 1255,
      "udi": 1256,
      "Ġhe": 1257,
      "Ġ19": 1258,
      "Ġtardes": 1259,
      "Ġfuer": 1260,
      "Ġvein": 1261,
      "Ġcostarricense": 1262,
      "ĠperÃŃo": 1263,
      "Ġcolones": 1264,
      "Ġotro": 1265,
      "ÃŃamos": 1266,
      "paci": 1267,
      "Ġseguir": 1268,
      "Ġotra": 1269,
      "ulta": 1270,
      "ĠfracciÃ³n": 1271,
      "ICA": 1272,
      "Entonces": 1273,
      "siones": 1274,
      "ĠdÃŃas": 1275,
      "Ġquien": 1276,
      "Ġtanto": 1277,
      "ias": 1278,
      "Ġhaciendo": 1279,
      "tivamente": 1280,
      "Ġsab": 1281,
      "ĠsesiÃ³n": 1282,
      "Ġotras": 1283,
      "ĠCaja": 1284,
      "rez": 1285,
      "Ġproblema": 1286,
      "Ġpes": 1287,
      "teg": 1288,
      "Ġhum": 1289,
      "eros": 1290,
      "Ġmismo": 1291,
      "imo": 1292,
      "Ġdo": 1293,
      "gual": 1294,
      "ĠseÃ±ores": 1295,
      "Ġposibilidad": 1296,
      "Ġvien": 1297,
      "ĠEjecutivo": 1298,
      "aran": 1299,
      "ismo": 1300,
      "Ġellos": 1301,
      "Ġraz": 1302,
      "ĠatenciÃ³n": 1303,
      "ĠperÃŃodo": 1304,
      "cil": 1305,
      "Ġafec": 1306,
      "ĠRo": 1307,
      "ida": 1308,
      "Ġmer": 1309,
      "No": 1310,
      "Ġfavor": 1311,
      "Ġ9": 1312,
      "can": 1313,
      "ridad": 1314,
      "blo": 1315,
      "Ġavan": 1316,
      "Ġhu": 1317,
      "Ġclaro": 1318,
      "Ġconc": 1319,
      "resid": 1320,
      "Ġba": 1321,
      "lamento": 1322,
      "Ġsa": 1323,
      "Ġvoy": 1324,
      "ĠUn": 1325,
      "omÃŃa": 1326,
      "gundo": 1327,
      "isis": 1328,
      "Control": 1329,
      "Ġreforma": 1330,
      "ĠpolÃŃtica": 1331,
      "Ġverdad": 1332,
      "Ġpobl": 1333,
      "Ġpriv": 1334,
      "Ġop": 1335,
      "icia": 1336,
      "zas": 1337,
      "aron": 1338,
      "Ġna": 1339,
      "Ġdich": 1340,
      "Ġsesiones": 1341,
      "ina": 1342,
      "terior": 1343,
      "ivers": 1344,
      "Ġdeuda": 1345,
      "Ġdici": 1346,
      "coles": 1347,
      "iones": 1348,
      "ondo": 1349,
      "Ġadminis": 1350,
      "Ġrepres": 1351,
      "Ãºlti": 1352,
      "dido": 1353,
      "pa": 1354,
      "Ġtipo": 1355,
      "ete": 1356,
      "Ġri": 1357,
      "ĠcomisiÃ³n": 1358,
      "ĠAl": 1359,
      "Ġempleo": 1360,
      "Ġresponsabilidad": 1361,
      "Ġtrabaja": 1362,
      "cis": 1363,
      "Ġsiste": 1364,
      "id": 1365,
      "Ġrespe": 1366,
      "Ġconstru": 1367,
      "AD": 1368,
      "Ġbuenas": 1369,
      "Ġ5": 1370,
      "Ġobl": 1371,
      "puÃ©s": 1372,
      "Ġante": 1373,
      "Ġtu": 1374,
      "ĠNo": 1375,
      "ĠÃ©": 1376,
      "tario": 1377,
      "ĠseÃ±al": 1378,
      "Ġdebate": 1379,
      "Ġinstituciones": 1380,
      "Ġtemas": 1381,
      "Ã©cn": 1382,
      "ĠGu": 1383,
      "Ġconf": 1384,
      "ban": 1385,
      "Ġpueden": 1386,
      "Ġpresenta": 1387,
      "antes": 1388,
      "Ã©rcoles": 1389,
      "ĠMarÃŃa": 1390,
      "ĠJos": 1391,
      "puesta": 1392,
      "Ġpersona": 1393,
      "Ġministro": 1394,
      "edad": 1395,
      "dir": 1396,
      "Ġfuncion": 1397,
      "ĠJosÃ©": 1398,
      "Ġalgo": 1399,
      "ĠPa": 1400,
      "puesto": 1401,
      "acienda": 1402,
      "IS": 1403,
      "Ġ7": 1404,
      "Ġcumpl": 1405,
      "Ġref": 1406,
      "Ġgra": 1407,
      "Ġhaber": 1408,
      "Ġseis": 1409,
      "Ġaprob": 1410,
      "orÃŃa": 1411,
      "toria": 1412,
      "Ġrev": 1413,
      "Ġprincip": 1414,
      "ĠHacienda": 1415,
      "ĠPARA": 1416,
      "Ġfunda": 1417,
      "Ġespe": 1418,
      "Ġsalud": 1419,
      "traciÃ³n": 1420,
      "ĠIN": 1421,
      "AS": 1422,
      "taria": 1423,
      "vin": 1424,
      "Ġviol": 1425,
      "Ġ22": 1426,
      "Ġconstitu": 1427,
      "ICO": 1428,
      "bo": 1429,
      "ĠPR": 1430,
      "ĠdespuÃ©s": 1431,
      "ĠÃºlti": 1432,
      "Ġcen": 1433,
      "Ġgaran": 1434,
      "men": 1435,
      "Ġtre": 1436,
      "ĠÃºn": 1437,
      "Ġvotar": 1438,
      "orte": 1439,
      "Ġcontr": 1440,
      "nacional": 1441,
      "Ġlab": 1442,
      "Ġescuch": 1443,
      "Ġban": 1444,
      "pal": 1445,
      "venciÃ³n": 1446,
      "ordinarias": 1447,
      "Ġautor": 1448,
      "Ġnom": 1449,
      "eces": 1450,
      "no": 1451,
      "TR": 1452,
      "Ġind": 1453,
      "Ġhablar": 1454,
      "Ġ8": 1455,
      "uso": 1456,
      "Ġsolamente": 1457,
      "Ġelec": 1458,
      "ĠpÃºblicas": 1459,
      "Ġpueda": 1460,
      "Ġlegislatura": 1461,
      "Ġingres": 1462,
      "Ġevi": 1463,
      "ĠRE": 1464,
      "TI": 1465,
      "Ġbas": 1466,
      "Ġdiferentes": 1467,
      "BL": 1468,
      "Ġestoy": 1469,
      "Ġocho": 1470,
      "Ġjun": 1471,
      "ay": 1472,
      "Ġprimer": 1473,
      "Ġinf": 1474,
      "ĠeconÃ³mica": 1475,
      "lares": 1476,
      "pre": 1477,
      "ivel": 1478,
      "ACIÃĵN": 1479,
      "Ġproceso": 1480,
      "cado": 1481,
      "omo": 1482,
      "Ġrealidad": 1483,
      "Ġpregun": 1484,
      "cta": 1485,
      "ĠSala": 1486,
      "Ã³g": 1487,
      "Ġvol": 1488,
      "man": 1489,
      "empre": 1490,
      "ĠinformaciÃ³n": 1491,
      "ĠVill": 1492,
      "Ġinforme": 1493,
      "Ġcondiciones": 1494,
      "adas": 1495,
      "Ġponer": 1496,
      "Ġhis": 1497,
      "Ġbene": 1498,
      "Ġnivel": 1499,
      "Ġutil": 1500,
      "tiendo": 1501,
      "cuenta": 1502,
      "Ġz": 1503,
      "ĠVillalta": 1504,
      "Ġmal": 1505,
      "cimiento": 1506,
      "xto": 1507,
      "Ġaque": 1508,
      "ĠCON": 1509,
      "rante": 1510,
      "Ġdejar": 1511,
      "encias": 1512,
      "Ġmon": 1513,
      "ĠPartido": 1514,
      "Ġmater": 1515,
      "Ġmin": 1516,
      "Ġcontrol": 1517,
      "Ġtal": 1518,
      "Ġcincuenta": 1519,
      "Ġcri": 1520,
      "ĠniÃ±": 1521,
      "pen": 1522,
      "del": 1523,
      "tad": 1524,
      "Ġsiempre": 1525,
      "De": 1526,
      "Ġlunes": 1527,
      "Ã¡c": 1528,
      "Ġlugar": 1529,
      "Ġprof": 1530,
      "ĠinstituciÃ³n": 1531,
      "ĠdÃ©": 1532,
      "Ġaquel": 1533,
      "Ġmartes": 1534,
      "Ġtotal": 1535,
      "dez": 1536,
      "cedi": 1537,
      "ĠtÃ©cn": 1538,
      "ĠhabÃŃa": 1539,
      "inta": 1540,
      "Ġsistema": 1541,
      "Ġreac": 1542,
      "bras": 1543,
      "Ġgasto": 1544,
      "Ġservicios": 1545,
      "Ġespecial": 1546,
      "IN": 1547,
      "Ġdin": 1548,
      "Ġabs": 1549,
      "Ġfundamenta": 1550,
      "gos": 1551,
      "ARIA": 1552,
      "Ġtomar": 1553,
      "lica": 1554,
      "Ġinteres": 1555,
      "Ġpuedan": 1556,
      "gram": 1557,
      "Ġinvesti": 1558,
      "Ġactiv": 1559,
      "tÃ³n": 1560,
      "Ġcomprom": 1561,
      "Ġmateria": 1562,
      "Ġposible": 1563,
      "CON": 1564,
      "ĠPero": 1565,
      "Ġmedio": 1566,
      "Ġhablando": 1567,
      "Ġrefer": 1568,
      "Ġigual": 1569,
      "Ġbueno": 1570,
      "Acta": 1571,
      "Ġobje": 1572,
      "erg": 1573,
      "Ġvoto": 1574,
      "jos": 1575,
      "ĠpoblaciÃ³n": 1576,
      "arse": 1577,
      "Ġfr": 1578,
      "Ġ6": 1579,
      "Ġtras": 1580,
      "leg": 1581,
      "Ġimpuestos": 1582,
      "Ġpagar": 1583,
      "AN": 1584,
      "Ġnorma": 1585,
      "ĠeconomÃŃa": 1586,
      "Ġalgunas": 1587,
      "Ġfal": 1588,
      "Primera": 1589,
      "Ġaf": 1590,
      "Ġnego": 1591,
      "gua": 1592,
      "Ġexis": 1593,
      "Ġtreinta": 1594,
      "Ġlabor": 1595,
      "Ġabr": 1596,
      "Ġnuestros": 1597,
      "cen": 1598,
      "ompaÃ±": 1599,
      "Ex": 1600,
      "pacidad": 1601,
      "ior": 1602,
      "Ġestabl": 1603,
      "ficaciÃ³n": 1604,
      "Ġgenerar": 1605,
      "Ġesf": 1606,
      "mple": 1607,
      "damos": 1608,
      "Ġaprobar": 1609,
      "Ġdicho": 1610,
      "Ġpan": 1611,
      "Ġesfuer": 1612,
      "ĠmÃŃ": 1613,
      "ĠPolÃŃti": 1614,
      "icamente": 1615,
      "Ġjur": 1616,
      "Ġmeses": 1617,
      "ID": 1618,
      "Ġjueves": 1619,
      "ĠCarlos": 1620,
      "Ġlogr": 1621,
      "ĠBan": 1622,
      "ocer": 1623,
      "ea": 1624,
      "anza": 1625,
      "Ġfalta": 1626,
      "Ġempresas": 1627,
      "trada": 1628,
      "Ġtenido": 1629,
      "Ġpueblo": 1630,
      "Ġinicia": 1631,
      "Ġsan": 1632,
      "tenido": 1633,
      "Ġbenefici": 1634,
      "Ġfinal": 1635,
      "ctu": 1636,
      "ge": 1637,
      "Ġrespec": 1638,
      "Ġdirec": 1639,
      "Ġenf": 1640,
      "eg": 1641,
      "Ġorgan": 1642,
      "tados": 1643,
      "Ġestado": 1644,
      "Ġenten": 1645,
      "Ġsolici": 1646,
      "Ġesper": 1647,
      "âĢĶ": 1648,
      "Ġmayo": 1649,
      "Ġejer": 1650,
      "imiento": 1651,
      "Ġviene": 1652,
      "Ġsupuesto": 1653,
      "duci": 1654,
      "Ġpu": 1655,
      "ĠOR": 1656,
      "Ġjusti": 1657,
      "enas": 1658,
      "20": 1659,
      "Ġaun": 1660,
      "tico": 1661,
      "Ġadel": 1662,
      "Ġveces": 1663,
      "rup": 1664,
      "Ġcul": 1665,
      "Ġdemoc": 1666,
      "Ġquin": 1667,
      "Ġcorres": 1668,
      "Ġhaya": 1669,
      "ĠSo": 1670,
      "Ġfamilias": 1671,
      "ĠPro": 1672,
      "Ġprovin": 1673,
      "Ġcer": 1674,
      "Ġsigu": 1675,
      "Ġpobre": 1676,
      "Ġdurante": 1677,
      "ifica": 1678,
      "tructura": 1679,
      "idos": 1680,
      "Ġaplic": 1681,
      "Ġmencion": 1682,
      "ĠMu": 1683,
      "DIN": 1684,
      "Ġregu": 1685,
      "diendo": 1686,
      "ducciÃ³n": 1687,
      "iso": 1688,
      "Ġagra": 1689,
      "Ġseguridad": 1690,
      "Expediente": 1691,
      "Ġprop": 1692,
      "Ġcorrespon": 1693,
      "Ġren": 1694,
      "izo": 1695,
      "Ġplazo": 1696,
      "Ġreactiv": 1697,
      "Ġsoci": 1698,
      "ĠdÃ³": 1699,
      "Buen": 1700,
      "tegr": 1701,
      "icipal": 1702,
      "ĠPAC": 1703,
      "Ġpos": 1704,
      "Ġdecisiones": 1705,
      "Ġoportunidad": 1706,
      "Ġembar": 1707,
      "Ġaproba": 1708,
      "Ġfe": 1709,
      "ieron": 1710,
      "ĠSegu": 1711,
      "tantes": 1712,
      "Ġpi": 1713,
      "Ġpasado": 1714,
      "Ġconstitucional": 1715,
      "Ġunivers": 1716,
      "Ġpoco": 1717,
      "Ġanterior": 1718,
      "gado": 1719,
      "Ġcrisis": 1720,
      "Ġgaranti": 1721,
      "Ġcuar": 1722,
      "esta": 1723,
      "ramos": 1724,
      "ĠpodrÃŃa": 1725,
      "Ġveinti": 1726,
      "Ġllegar": 1727,
      "Ġsom": 1728,
      "Ãļ": 1729,
      "ena": 1730,
      "Ġprogram": 1731,
      "ĠMon": 1732,
      "Ġev": 1733,
      "Ġapoyo": 1734,
      "Ġur": 1735,
      "Ġmociones": 1736,
      "ĠSan": 1737,
      "Ġantes": 1738,
      "ĠmuchÃŃs": 1739,
      "untos": 1740,
      "ĠseÃ±oras": 1741,
      "Ġmedidas": 1742,
      "Ġabsolu": 1743,
      "Ġfir": 1744,
      "ĠFl": 1745,
      "duca": 1746,
      "Ġsiete": 1747,
      "Ġespaci": 1748,
      "Ġparticip": 1749,
      "Ġsentido": 1750,
      "19": 1751,
      "Ġaum": 1752,
      "Ġcomple": 1753,
      "vÃ©s": 1754,
      "Ã©di": 1755,
      "ĠdÃ³lares": 1756,
      "Ġordinarias": 1757,
      "Ġnecesidad": 1758,
      "Ġgrandes": 1759,
      "torio": 1760,
      "ĠinterÃ©s": 1761,
      "Ġdesemp": 1762,
      "ORM": 1763,
      "Ġtermin": 1764,
      "Ġsuper": 1765,
      "ĠtravÃ©s": 1766,
      "Ġcualquier": 1767,
      "OC": 1768,
      "Ġlegislativo": 1769,
      "Ġhizo": 1770,
      "ĠprÃ¡c": 1771,
      "Ġmisma": 1772,
      "isiera": 1773,
      "quiera": 1774,
      "istas": 1775,
      "cep": 1776,
      "ctubre": 1777,
      "Ġampl": 1778,
      "tencia": 1779,
      "Ġsectores": 1780,
      "Ġadelante": 1781,
      "Ġrequier": 1782,
      "Ġcl": 1783,
      "Ġluch": 1784,
      "Ġproblemas": 1785,
      "Ġeduca": 1786,
      "demia": 1787,
      "ĠbÃ¡s": 1788,
      "Ġfi": 1789,
      "Ġsolu": 1790,
      "ita": 1791,
      "Ġru": 1792,
      "ĠpÃºblicos": 1793,
      "iber": 1794,
      "blemente": 1795,
      "Ġningun": 1796,
      "osiciÃ³n": 1797,
      "ĠSocial": 1798,
      "UL": 1799,
      "tidad": 1800,
      "Ġfondo": 1801,
      "Ġdentro": 1802,
      "ĠCh": 1803,
      "cios": 1804,
      "Ġoctubre": 1805,
      "Ġtengo": 1806,
      "Ġejecu": 1807,
      "ĠinversiÃ³n": 1808,
      "ima": 1809,
      "Ġcompe": 1810,
      "Ġmanif": 1811,
      "Ġdebemos": 1812,
      "Ġmundo": 1813,
      "unca": 1814,
      "tores": 1815,
      "trar": 1816,
      "Ġcuenta": 1817,
      "Ġcierto": 1818,
      "Ġalguna": 1819,
      "Ġlog": 1820,
      "Ġrecibi": 1821,
      "Ġestaba": 1822,
      "Ġcasos": 1823,
      "Ġembargo": 1824,
      "Ġsiendo": 1825,
      "Ġdefin": 1826,
      "oco": 1827,
      "Ġuso": 1828,
      "Ġdarle": 1829,
      "ino": 1830,
      "Ġquienes": 1831,
      "fica": 1832,
      "Ġleg": 1833,
      "Ãºm": 1834,
      "ĠÃ¡": 1835,
      "ĠsÃ©": 1836,
      "36": 1837,
      "Ġdej": 1838,
      "Ã³r": 1839,
      "tante": 1840,
      "ÃļBL": 1841,
      "Ġsegundo": 1842,
      "isto": 1843,
      "Ġquiere": 1844,
      "entas": 1845,
      "Ãģ": 1846,
      "Ġimportantes": 1847,
      "cer": 1848,
      "ĠrazÃ³n": 1849,
      "Ġpreten": 1850,
      "Ġsos": 1851,
      "Ġincluso": 1852,
      "Ġ14": 1853,
      "ÃŃd": 1854,
      "Ã©g": 1855,
      "Ġrecor": 1856,
      "eci": 1857,
      "Ġsociales": 1858,
      "ice": 1859,
      "Ġdijo": 1860,
      "Ġpobreza": 1861,
      "ĠpaÃŃses": 1862,
      "cun": 1863,
      "Ġvenido": 1864,
      "ĠConstituciÃ³n": 1865,
      "Ġconven": 1866,
      "Ġambi": 1867,
      "die": 1868,
      "Ġdiez": 1869,
      "uar": 1870,
      "Ġhabi": 1871,
      "ĠcuÃ¡l": 1872,
      "iza": 1873,
      "Ġdistin": 1874,
      "cl": 1875,
      "imen": 1876,
      "Ġhacia": 1877,
      "iero": 1878,
      "gistra": 1879,
      "Ġtur": 1880,
      "vers": 1881,
      "ĠCas": 1882,
      "cri": 1883,
      "Ġide": 1884,
      "Ġdeben": 1885,
      "ficar": 1886,
      "ĠW": 1887,
      "ĠmayorÃŃa": 1888,
      "udicial": 1889,
      "TO": 1890,
      "RE": 1891,
      "Ġnuevo": 1892,
      "Ġplata": 1893,
      "In": 1894,
      "Ġgesti": 1895,
      "Ġagua": 1896,
      "Ġce": 1897,
      "Ġsociedad": 1898,
      "ĠLu": 1899,
      "Ġtranspar": 1900,
      "Ġcontin": 1901,
      "ficiente": 1902,
      "Ã±oz": 1903,
      "ĠtrÃ¡": 1904,
      "ĠMuÃ±oz": 1905,
      "ĠSol": 1906,
      "dencia": 1907,
      "Ġqueremos": 1908,
      "tener": 1909,
      "Ġprovincia": 1910,
      "23": 1911,
      "Ġoblig": 1912,
      "Ġsign": 1913,
      "Ġdoc": 1914,
      "Ġacciones": 1915,
      "alidad": 1916,
      "ĠmiÃ©rcoles": 1917,
      "ĠBanco": 1918,
      "Ġseri": 1919,
      "ĠningÃºn": 1920,
      "vech": 1921,
      "Ġsem": 1922,
      "osto": 1923,
      "ĠDi": 1924,
      "ĠdoÃ±a": 1925,
      "Hoy": 1926,
      "encial": 1927,
      "cicio": 1928,
      "olver": 1929,
      "Ġrespecto": 1930,
      "dia": 1931,
      "Ġcuarenta": 1932,
      "Ġagosto": 1933,
      "vÃŃa": 1934,
      "raes": 1935,
      "iar": 1936,
      "ĠnÃºm": 1937,
      "Ġquisiera": 1938,
      "Ġestable": 1939,
      "Ġimpac": 1940,
      "04": 1941,
      "As": 1942,
      "ĠPOL": 1943,
      "izado": 1944,
      "Ġnunca": 1945,
      "Ġinternacional": 1946,
      "Ġtexto": 1947,
      "Ġnecesario": 1948,
      "Ġpandemia": 1949,
      "raestructura": 1950,
      "onos": 1951,
      "Ġexpediente": 1952,
      "ĠacÃ¡": 1953,
      "ticas": 1954,
      "Ġdenun": 1955,
      "mento": 1956,
      "Ġdigo": 1957,
      "Ġinten": 1958,
      "ĠPresid": 1959,
      "Ġ(": 1960,
      "ĠPor": 1961,
      "Ġju": 1962,
      "Ġsimple": 1963,
      "Ġdefen": 1964,
      "ÃįT": 1965,
      "Ġjunio": 1966,
      "Ġresulta": 1967,
      "brero": 1968,
      "bres": 1969,
      "Ġciudadan": 1970,
      "Ġequ": 1971,
      "lado": 1972,
      "Ġinici": 1973,
      "Ġpasar": 1974,
      "TRA": 1975,
      "Ġaunque": 1976,
      "Ġnadie": 1977,
      "onas": 1978,
      "ĠÃ©l": 1979,
      "amientos": 1980,
      "ĠQ": 1981,
      "Ġtenga": 1982,
      "rado": 1983,
      "Ġllevar": 1984,
      "Ġatender": 1985,
      "ĠprÃ³": 1986,
      "ambi": 1987,
      "og": 1988,
      "Ġprocedi": 1989,
      "Ġpodamos": 1990,
      "ocimiento": 1991,
      "be": 1992,
      "Ġhici": 1993,
      "guez": 1994,
      "Ġ11": 1995,
      "Ġhacen": 1996,
      "Ġmodi": 1997,
      "Ġfundamental": 1998,
      "Ã³nde": 1999,
      "ÃŃguez": 2000,
      "drÃŃguez": 2001,
      "tiembre": 2002,
      "ĠRodrÃŃguez": 2003,
      "Ġ10": 2004,
      "ĠInter": 2005,
      "doras": 2006,
      "Ġrevis": 2007,
      "iter": 2008,
      "ĠPOLÃįT": 2009,
      "ĠZ": 2010,
      "Ġninguna": 2011,
      "ĠrelaciÃ³n": 2012,
      "Ã³rez": 2013,
      "ĠEN": 2014,
      "Ġingresos": 2015,
      "Ġhom": 2016,
      "Ġtrabajadores": 2017,
      "ĠFlÃ³rez": 2018,
      "ito": 2019,
      "Ġinde": 2020,
      "ĠjurÃŃd": 2021,
      "Este": 2022,
      "ĠAd": 2023,
      "Ġsac": 2024,
      "Ġqueda": 2025,
      "Ġlegis": 2026,
      "Ġaca": 2027,
      "Ġfueron": 2028,
      "tel": 2029,
      "so": 2030,
      "Ġpatr": 2031,
      "Ġcompar": 2032,
      "Ġconv": 2033,
      "Ġ\"": 2034,
      "ĠConstitucional": 2035,
      "ulio": 2036,
      "Ġinfraestructura": 2037,
      "Ġtas": 2038,
      "Ġpal": 2039,
      "Ġsetiembre": 2040,
      "ĠdecisiÃ³n": 2041,
      "Ġquieren": 2042,
      "zos": 2043,
      "Estrada": 2044,
      "Ġministra": 2045,
      "Ġfebrero": 2046,
      "Ġsiquiera": 2047,
      "Ġdado": 2048,
      "Ġgenera": 2049,
      "ĠtrÃ¡mi": 2050,
      "Ġmagistra": 2051,
      "Ġminu": 2052,
      ".Â¿": 2053,
      "Ġimpuesto": 2054,
      "Ġpasa": 2055,
      "egu": 2056,
      "ap": 2057,
      "Ġrepresenta": 2058,
      "Ġries": 2059,
      "Ġpresen": 2060,
      "28": 2061,
      "Ġcien": 2062,
      "eran": 2063,
      "Ġprecis": 2064,
      "Ġnuestras": 2065,
      "aridad": 2066,
      "Ġexiste": 2067,
      "ĠLim": 2068,
      "Ġgeneral": 2069,
      "ĠcrÃ©di": 2070,
      "ĠSu": 2071,
      "AM": 2072,
      "Ġall": 2073,
      "racia": 2074,
      "Ġprimera": 2075,
      "Ġtrata": 2076,
      "ĠAdminis": 2077,
      "iga": 2078,
      "Ġdatos": 2079,
      "imas": 2080,
      "ĠprÃ³x": 2081,
      "Ġdinero": 2082,
      "ĠCen": 2083,
      "ĠciudadanÃŃa": 2084,
      "Ġagenda": 2085,
      "AsÃŃ": 2086,
      "50": 2087,
      "Ġdiciendo": 2088,
      "dente": 2089,
      "Si": 2090,
      "Ġpersonal": 2091,
      "Ã¡ndo": 2092,
      "Ġesfuerzo": 2093,
      "reg": 2094,
      "Ġofici": 2095,
      "Ġtoma": 2096,
      "ĠTOC": 2097,
      "Ġestudiantes": 2098,
      "Ġintegr": 2099,
      "Ġreiter": 2100,
      "Ġacceso": 2101,
      "Ġjulio": 2102,
      "ĠLimÃ³n": 2103,
      "aste": 2104,
      "Ġencu": 2105,
      "Ġviolencia": 2106,
      "Ġpropi": 2107,
      "Ġaprovech": 2108,
      "TROL": 2109,
      "Ġhistoria": 2110,
      "Ġdiscurs": 2111,
      "Ġdeclar": 2112,
      "Ġhubi": 2113,
      "Ġenero": 2114,
      "ĠniÃ±os": 2115,
      "Ġrequ": 2116,
      "IÃĵN": 2117,
      "Ġ13": 2118,
      "Esta": 2119,
      "dio": 2120,
      "ordinario": 2121,
      "Ġmejorar": 2122,
      "cciones": 2123,
      "Ġlar": 2124,
      "Ġdicen": 2125,
      "Ġtrabaj": 2126,
      "tural": 2127,
      "Ġabsolutamente": 2128,
      "Ġhi": 2129,
      "Ġpeque": 2130,
      "ĠtodavÃŃa": 2131,
      "49": 2132,
      "Ġsean": 2133,
      "pital": 2134,
      "ĠREF": 2135,
      "Ġurg": 2136,
      "cha": 2137,
      "iente": 2138,
      "Ġsub": 2139,
      "ĠpolÃŃticas": 2140,
      "ĠquiÃ©n": 2141,
      "ĠParlamento": 2142,
      "Ġuniversidades": 2143,
      "ual": 2144,
      "18": 2145,
      "CION": 2146,
      "Ġllamado": 2147,
      "Ġpropuesta": 2148,
      "Ġalcan": 2149,
      "Ġnecesita": 2150,
      "Ġsomos": 2151,
      "76": 2152,
      "gas": 2153,
      "oso": 2154,
      "tecciÃ³n": 2155,
      "Ġconsi": 2156,
      "Ġtrabajar": 2157,
      "ras": 2158,
      "fico": 2159,
      "Ġrespeto": 2160,
      "CONTROL": 2161,
      "ible": 2162,
      "Ġimportancia": 2163,
      "Ġincor": 2164,
      "Ġcalidad": 2165,
      "Ã©gimen": 2166,
      "Ġterri": 2167,
      "ĠreactivaciÃ³n": 2168,
      "iÃ³": 2169,
      "Ġvalor": 2170,
      "ĠSal": 2171,
      "Ġmane": 2172,
      "Ġsignifica": 2173,
      "eras": 2174,
      "tarricense": 2175,
      "ener": 2176,
      "artes": 2177,
      "Ġfuera": 2178,
      "SeÃ±": 2179,
      "oras": 2180,
      "Ġcambio": 2181,
      "Ġrefle": 2182,
      "ĠLiber": 2183,
      "Ġinvestig": 2184,
      "cular": 2185,
      "Ġtendr": 2186,
      "Ġespec": 2187,
      "tenta": 2188,
      "Ġestableci": 2189,
      "Ġcomer": 2190,
      "ĠPÃºbl": 2191,
      "ĠAL": 2192,
      "dida": 2193,
      "Ġdestin": 2194,
      "ĠREFORM": 2195,
      "Ġrel": 2196,
      "Ġmarzo": 2197,
      "Ġfracciones": 2198,
      "Ã¡les": 2199,
      "mientos": 2200,
      "ĠLuis": 2201,
      "Ġlado": 2202,
      "tis": 2203,
      "Ġprior": 2204,
      "Ġ12": 2205,
      "varado": 2206,
      "tran": 2207,
      "Ġcorrec": 2208,
      "Ġejercicio": 2209,
      "Me": 2210,
      "ĠPOLÃįTICO": 2211,
      "EC": 2212,
      "ĠcompaÃ±ero": 2213,
      "Ġempez": 2214,
      "Ġaclar": 2215,
      "viembre": 2216,
      "ĠSolÃŃs": 2217,
      "ĠAlvarado": 2218,
      "Ġtamp": 2219,
      "Ġtampoco": 2220,
      "ĠgestiÃ³n": 2221,
      "ĠacompaÃ±": 2222,
      "Ġhumanos": 2223,
      "Ġadministra": 2224,
      "Ġerr": 2225,
      "Ġconte": 2226,
      "ĠdecÃŃa": 2227,
      "ĠallÃ¡": 2228,
      "ĠCostarricense": 2229,
      "Ġtengan": 2230,
      "Ġmercado": 2231,
      "ĠdeberÃŃa": 2232,
      "Ġdando": 2233,
      "ĠPL": 2234,
      "Ġmunicipal": 2235,
      "ducir": 2236,
      "ĠaprobaciÃ³n": 2237,
      "Ġpen": 2238,
      "Ġtribu": 2239,
      "ciar": 2240,
      "Ġnoviembre": 2241,
      "Ġdesempleo": 2242,
      "VA": 2243,
      "ĠalgÃºn": 2244,
      "ura": 2245,
      "usiÃ³n": 2246,
      "Ġproteg": 2247,
      "Ġsemana": 2248,
      "Ġses": 2249,
      "Ġruta": 2250,
      "ĠtenÃŃa": 2251,
      "ambiÃ©n": 2252,
      "Ġpermitir": 2253,
      "Ġam": 2254,
      "ĠGener": 2255,
      "Ġencon": 2256,
      "ĠdÃ³nde": 2257,
      "tud": 2258,
      "Ġefectivamente": 2259,
      "26": 2260,
      "gen": 2261,
      "Ġresolver": 2262,
      "Ġincluy": 2263,
      "Ġzonas": 2264,
      "Ġintereses": 2265,
      "Ġconsider": 2266,
      "ĠLOS": 2267,
      "Ġpartir": 2268,
      "Ġfamilia": 2269,
      "ĠAdministraciÃ³n": 2270,
      "uego": 2271,
      "ĠrÃ©gimen": 2272,
      "Ġobs": 2273,
      "Ġduda": 2274,
      "mÃ¡": 2275,
      "ĠeconÃ³mico": 2276,
      "ÃļBLICA": 2277,
      "Ġbusca": 2278,
      "onar": 2279,
      "Ġpesar": 2280,
      "Ġexcl": 2281,
      "Ġjus": 2282,
      "Ġayer": 2283,
      "ĠGeneral": 2284,
      "Ġinstitucional": 2285,
      "RT": 2286,
      "icaciÃ³n": 2287,
      "ental": 2288,
      "ya": 2289,
      "Ġcosa": 2290,
      "Cu": 2291,
      "Ġiniciativa": 2292,
      "Ġrequiere": 2293,
      "Ġadu": 2294,
      "ĠsegÃºn": 2295,
      "Ġlograr": 2296,
      "fÃŃ": 2297,
      "Ġdiciembre": 2298,
      "ĠYo": 2299,
      "ĠaÃºn": 2300,
      "Ġmec": 2301,
      "OM": 2302,
      "Ġhabla": 2303,
      "Ġmayores": 2304,
      "Ġcantidad": 2305,
      "Ġpron": 2306,
      "Ġcuan": 2307,
      "ARIO": 2308,
      "recciÃ³n": 2309,
      "Ġ15": 2310,
      "abra": 2311,
      "Ġespacio": 2312,
      "Ġol": 2313,
      "Ġpropon": 2314,
      "puestas": 2315,
      "Ġho": 2316,
      "inar": 2317,
      "Ġnueve": 2318,
      "tÃ©": 2319,
      "Quiero": 2320,
      "Ġcasi": 2321,
      "US": 2322,
      "Ġoportunidades": 2323,
      "Ġvig": 2324,
      "Ã¡r": 2325,
      "Ġprecisamente": 2326,
      "Ġfinanzas": 2327,
      "tera": 2328,
      "Ġsesenta": 2329,
      "usiv": 2330,
      "Ġavanzar": 2331,
      "Ġpresentado": 2332,
      "Ġserie": 2333,
      "Ġpalabra": 2334,
      "Ġunos": 2335,
      "Ġesti": 2336,
      "Ġprom": 2337,
      "Ġnombr": 2338,
      "Ġapor": 2339,
      "ÃįC": 2340,
      "Ġabril": 2341,
      "ĠespecÃŃ": 2342,
      "Ġservicio": 2343,
      "Ġanal": 2344,
      "Ġencuen": 2345,
      "Ġhora": 2346,
      "ĠnÃºmero": 2347,
      "Ġpala": 2348,
      "Ġpresentar": 2349,
      "Ġpedir": 2350,
      "Ġconfi": 2351,
      "cul": 2352,
      "Ġcele": 2353,
      "tÃŃa": 2354,
      "Ġsigue": 2355,
      "Ġinterpre": 2356,
      "Ġlim": 2357,
      "tale": 2358,
      "Ġsalir": 2359,
      "Ġnecesidades": 2360,
      "Ġvul": 2361,
      "Ġvisto": 2362,
      "ienda": 2363,
      "ordar": 2364,
      "Ġrecu": 2365,
      "Ġmecan": 2366,
      "termin": 2367,
      "dora": 2368,
      "13": 2369,
      "itar": 2370,
      "uir": 2371,
      "eza": 2372,
      "ĠORDIN": 2373,
      "Ġpalabras": 2374,
      "op": 2375,
      "Ġelim": 2376,
      "ĠContral": 2377,
      "Ġimpacto": 2378,
      "Ġquedar": 2379,
      "Ġdiscutir": 2380,
      "Primer": 2381,
      "ĠprÃ©s": 2382,
      "Ġgarantizar": 2383,
      "Ġrealizar": 2384,
      "anac": 2385,
      "Contenido": 2386,
      "AC": 2387,
      "reto": 2388,
      "anacaste": 2389,
      "Ġindepen": 2390,
      "ĠART": 2391,
      "Ġactual": 2392,
      "ĠNi": 2393,
      "Ġimpul": 2394,
      "ĠcantÃ³n": 2395,
      "Ġproces": 2396,
      "Muy": 2397,
      "ĠContralorÃŃa": 2398,
      "Ġpromo": 2399,
      "Ġcapacidad": 2400,
      "Ġvolun": 2401,
      "Ġafir": 2402,
      "ÃįCUL": 2403,
      "UE": 2404,
      "Ġsetenta": 2405,
      "chenta": 2406,
      "Ġbienes": 2407,
      "Ġpensiones": 2408,
      "ientras": 2409,
      "ĠDes": 2410,
      "osa": 2411,
      "damente": 2412,
      "Ġmucha": 2413,
      "terios": 2414,
      "ĠserÃŃa": 2415,
      "Ġestudios": 2416,
      "Ġsaber": 2417,
      "Ġvuln": 2418,
      "ĠARTÃįCUL": 2419,
      "pos": 2420,
      "Ġlamenta": 2421,
      "Ġdicta": 2422,
      "ĠĠĊ": 2423,
      "Ġequi": 2424,
      "Ġdemocracia": 2425,
      "ef": 2426,
      "Ġmanifes": 2427,
      "Ġahor": 2428,
      "55": 2429,
      "Ġpol": 2430,
      "ĠLiberaciÃ³n": 2431,
      "Ã³di": 2432,
      "Ġochenta": 2433,
      "Ġtransparencia": 2434,
      "Ġemerg": 2435,
      "Ġ16": 2436,
      "Ġdesa": 2437,
      "Ġbajo": 2438,
      "lan": 2439,
      "Ġgus": 2440,
      "ĠcuÃ¡les": 2441,
      "Ġpago": 2442,
      "Ġprogramas": 2443,
      "Ġemple": 2444,
      "DE": 2445,
      "Ġgan": 2446,
      "Ġvenir": 2447,
      "Ġconsul": 2448,
      "73": 2449,
      "ĠCi": 2450,
      "Ġveinte": 2451,
      "Ġdebi": 2452,
      "Ġpartido": 2453,
      "Ġfuncionarios": 2454,
      "Lo": 2455,
      "bra": 2456,
      "Ãī": 2457,
      "Ġmarco": 2458,
      "ne": 2459,
      "dientes": 2460,
      "Ġcriterio": 2461,
      "tarios": 2462,
      "eco": 2463,
      "dÃ³": 2464,
      "Ġdistr": 2465,
      "Ã³digo": 2466,
      "Ġvarios": 2467,
      "olog": 2468,
      "Ġcumplir": 2469,
      "turo": 2470,
      "ĠEso": 2471,
      "Segundo": 2472,
      "Ġcompromiso": 2473,
      "ĠcompaÃ±era": 2474,
      "QuÃ©": 2475,
      "ĠmÃ©": 2476,
      "Ġcuesti": 2477,
      "fens": 2478,
      "mes": 2479,
      "untar": 2480,
      "Ġbr": 2481,
      "ESIÃĵN": 2482,
      "Ġreconocer": 2483,
      "ĠlegislaciÃ³n": 2484,
      "ĠPLEN": 2485,
      "cin": 2486,
      "ĠadministraciÃ³n": 2487,
      "ĠpolÃŃticos": 2488,
      "ĠCru": 2489,
      "tiÃ³": 2490,
      "ĠpreocupaciÃ³n": 2491,
      "olÃ³g": 2492,
      "ĠprotecciÃ³n": 2493,
      "Ġminutos": 2494,
      "Ġfuturo": 2495,
      "jal": 2496,
      "ĠfunciÃ³n": 2497,
      "ĠdemÃ¡s": 2498,
      "ĠPolÃŃtica": 2499,
      "Ġriesgo": 2500,
      "Ġprimero": 2501,
      "Ġgrave": 2502,
      "ĠCiudad": 2503,
      "ĠPe": 2504,
      "Ġprincipio": 2505,
      "Ġexper": 2506,
      "Ġcuales": 2507,
      "ĠlÃŃn": 2508,
      "Ġsimplemente": 2509,
      "Ġincon": 2510,
      "Ġocup": 2511,
      "Ġsabemos": 2512,
      "fo": 2513,
      "ĠconstrucciÃ³n": 2514,
      "gando": 2515,
      "Ġpudi": 2516,
      "ono": 2517,
      "Ġvulnera": 2518,
      "iÃ©rcoles": 2519,
      "Ġpuesto": 2520,
      "Ġsosten": 2521,
      "Ġdetermin": 2522,
      "udar": 2523,
      "rector": 2524,
      "Ġactividad": 2525,
      "Ġevas": 2526,
      "TambiÃ©n": 2527,
      "ĠMe": 2528,
      "dre": 2529,
      "Ġparticular": 2530,
      "Ġcomunidades": 2531,
      "jalÃ¡": 2532,
      "Ġconfor": 2533,
      "tividad": 2534,
      "Ġcontribu": 2535,
      "ĠSeguro": 2536,
      "Ġlucha": 2537,
      "hÃŃ": 2538,
      "idas": 2539,
      "Ġnueva": 2540,
      "ĠPara": 2541,
      "Ġbase": 2542,
      "Ġconsid": 2543,
      "79": 2544,
      "Ġprofun": 2545,
      "Ġdio": 2546,
      "ĠJudicial": 2547,
      "Ġfrente": 2548,
      "ĠPLENARIA": 2549,
      "turas": 2550,
      "Ġfortal": 2551,
      "Ã©spe": 2552,
      "ĠÃ³r": 2553,
      "erar": 2554,
      "Ġincorpor": 2555,
      "Ã©spedes": 2556,
      "Ġsuf": 2557,
      "Ġpermite": 2558,
      "Ġproducto": 2559,
      "16": 2560,
      "Ġprocedimiento": 2561,
      "ĠREP": 2562,
      "Ġjef": 2563,
      "Ġjusticia": 2564,
      "greso": 2565,
      "rupciÃ³n": 2566,
      "Ġbuena": 2567,
      "Ġrespuesta": 2568,
      "Bueno": 2569,
      "ĠÃºltimos": 2570,
      "ĠdifÃŃ": 2571,
      "Ġcaus": 2572,
      "Ã³ven": 2573,
      "ENTO": 2574,
      "Ġtotalmente": 2575,
      "Ġlargo": 2576,
      "Ã³venes": 2577,
      "Ġindi": 2578,
      "ĠAr": 2579,
      "ĠmaÃ±": 2580,
      "Ġestablece": 2581,
      "Ġch": 2582,
      "Ġpuedo": 2583,
      "Ġentender": 2584,
      "ĠSi": 2585,
      "ĠSESIÃĵN": 2586,
      "bro": 2587,
      "ĠPÃºblica": 2588,
      "ĠjÃ³venes": 2589,
      "tic": 2590,
      "ĠCÃ©spedes": 2591,
      "Ġpasando": 2592,
      "ĠâĢĶ": 2593,
      "Ġvisi": 2594,
      "eca": 2595,
      "ĠEducaciÃ³n": 2596,
      "Ġdemos": 2597,
      "porte": 2598,
      "ecen": 2599,
      "00": 2600,
      "Ġapoyar": 2601,
      "Ġvuel": 2602,
      "bamos": 2603,
      "ĠMar": 2604,
      "bajo": 2605,
      "Ġexplic": 2606,
      "ĠÃģ": 2607,
      "Ġpubl": 2608,
      "ĠinvestigaciÃ³n": 2609,
      "pl": 2610,
      "ĠÃ¡re": 2611,
      "Ã©rez": 2612,
      "taciones": 2613,
      "ĠCÃ³digo": 2614,
      "Esto": 2615,
      "ĠPÃ©rez": 2616,
      "Ġaspec": 2617,
      "78": 2618,
      "Ġenti": 2619,
      "ĠEX": 2620,
      "Ġactividades": 2621,
      "Inter": 2622,
      "ĠREPÃļBLICA": 2623,
      "Ġfinanciamiento": 2624,
      "Ġempresa": 2625,
      "Ġtecn": 2626,
      "ĠReg": 2627,
      "Ġmedios": 2628,
      "ĠtrÃ¡mite": 2629,
      "44": 2630,
      "Ġvemos": 2631,
      "ĠFondo": 2632,
      "Ġ18": 2633,
      "Ġrecom": 2634,
      "Ġro": 2635,
      "vid": 2636,
      "Ġrepresen": 2637,
      "ĠAcciÃ³n": 2638,
      "erv": 2639,
      "ĠmaÃ±ana": 2640,
      "ardo": 2641,
      "Ġhacerlo": 2642,
      "Ã¡lisis": 2643,
      "rÃŃa": 2644,
      "Ġprensa": 2645,
      "TU": 2646,
      "Hay": 2647,
      "TOR": 2648,
      "ACION": 2649,
      "ros": 2650,
      "Ġseguro": 2651,
      "Ġindica": 2652,
      "Ġdiscurso": 2653,
      "Ġadecu": 2654,
      "ificaciÃ³n": 2655,
      "ĠPresidencia": 2656,
      "untarenas": 2657,
      "ĠOC": 2658,
      "Ġbuscar": 2659,
      "Ġleyes": 2660,
      "39": 2661,
      "ĠCiudadana": 2662,
      "cales": 2663,
      "ĠMun": 2664,
      "Ġconsulta": 2665,
      "ĠPuntarenas": 2666,
      "58": 2667,
      "ĠdaÃ±": 2668,
      "ĠSE": 2669,
      "Ġirres": 2670,
      "Ġcuentas": 2671,
      "itos": 2672,
      "Ġclaramente": 2673,
      "Ġzona": 2674,
      "Ġsalario": 2675,
      "Ġvienen": 2676,
      "dial": 2677,
      "Ġexpres": 2678,
      "Ġreferir": 2679,
      "Ġdefender": 2680,
      "Ġreun": 2681,
      "ĠEcon": 2682,
      "dÃŃa": 2683,
      "rÃ¡": 2684,
      "Ġende": 2685,
      "ĠPRES": 2686,
      "Ġmientras": 2687,
      "Ġobjetivo": 2688,
      "ĠCentral": 2689,
      "rupo": 2690,
      "ĠlÃ³g": 2691,
      "Ġasunto": 2692,
      "unta": 2693,
      "jus": 2694,
      "Ġpaso": 2695,
      "Ġhuel": 2696,
      "tarias": 2697,
      "Ġdesi": 2698,
      "ĠÃºnico": 2699,
      "Ġestra": 2700,
      "29": 2701,
      "Ġgol": 2702,
      "ĠintervenciÃ³n": 2703,
      "Ġdismin": 2704,
      "Ġpartidos": 2705,
      "Ġadul": 2706,
      "quÃ©": 2707,
      "Ġmiles": 2708,
      "Ġrealiz": 2709,
      "Ġllev": 2710,
      "Ġautoridades": 2711,
      "ĠcuÃ¡n": 2712,
      "ĠestÃ©": 2713,
      "ĠvotaciÃ³n": 2714,
      "pios": 2715,
      "rar": 2716,
      "ĠGuanacaste": 2717,
      "Ġespera": 2718,
      "Ġcuanto": 2719,
      "Ġliber": 2720,
      "dera": 2721,
      "70": 2722,
      "Ã©rmin": 2723,
      "ĠOr": 2724,
      "Ġvacun": 2725,
      "ĠcrÃ©dito": 2726,
      "ĠDel": 2727,
      "logo": 2728,
      "bros": 2729,
      "Ġestudio": 2730,
      "ĠPolÃŃtico": 2731,
      "ismos": 2732,
      "ricul": 2733,
      "48": 2734,
      "Ġnuevamente": 2735,
      "Ġconten": 2736,
      "Ġvarias": 2737,
      "dÃ³n": 2738,
      "Ġ27": 2739,
      "ĠlÃŃnea": 2740,
      "guien": 2741,
      "Ġsalarios": 2742,
      "Ġcorresponde": 2743,
      "Ġcir": 2744,
      "Ġvale": 2745,
      "Ġcome": 2746,
      "ĠdiÃ¡": 2747,
      "ĠtÃ©rmin": 2748,
      "Ġfortalecer": 2749,
      "Ġmode": 2750,
      "Ġdoscientos": 2751,
      "amien": 2752,
      "isiones": 2753,
      "erramien": 2754,
      "ĠTra": 2755,
      "ĠcampaÃ±": 2756,
      "Ġanun": 2757,
      "Porque": 2758,
      "Ġobliga": 2759,
      "Ġclas": 2760,
      "Ġaquellos": 2761,
      "Ġvista": 2762,
      "Ġconsu": 2763,
      "Ġherramien": 2764,
      "ĠcomunicaciÃ³n": 2765,
      "jas": 2766,
      "tric": 2767,
      "capacidad": 2768,
      "IB": 2769,
      "OP": 2770,
      "venta": 2771,
      "Ġello": 2772,
      "ĠIC": 2773,
      "ĠevasiÃ³n": 2774,
      "Ġnegoci": 2775,
      "Ġemergencia": 2776,
      "diÃ³": 2777,
      "Ġevitar": 2778,
      "Ġhogar": 2779,
      "ler": 2780,
      "Ġafirma": 2781,
      "icidad": 2782,
      "Ġmejores": 2783,
      "ilar": 2784,
      "ons": 2785,
      "Ġocur": 2786,
      "dose": 2787,
      "Ġgastos": 2788,
      "IDAD": 2789,
      "rig": 2790,
      "timos": 2791,
      "Ġmismos": 2792,
      "Ġpregunta": 2793,
      "reo": 2794,
      "onales": 2795,
      "rib": 2796,
      "Ġcasa": 2797,
      "ĠproducciÃ³n": 2798,
      "ĠEx": 2799,
      "ign": 2800,
      "ĠDefens": 2801,
      "dicional": 2802,
      "Ġdisp": 2803,
      "Ġvoluntad": 2804,
      "Ġsacar": 2805,
      "Ġgrupo": 2806,
      "cionar": 2807,
      "Ġargu": 2808,
      "ĠobligaciÃ³n": 2809,
      "ola": 2810,
      "Ġdisc": 2811,
      "Ġcosto": 2812,
      "UES": 2813,
      "ĠvÃŃa": 2814,
      "ĠserÃ¡": 2815,
      "Ġlaboral": 2816,
      "ACTA": 2817,
      "Ġfon": 2818,
      "Ġpel": 2819,
      "ĠcorrupciÃ³n": 2820,
      "ĠcondiciÃ³n": 2821,
      "Ġconstruir": 2822,
      "Sin": 2823,
      "Ġher": 2824,
      "Ġconta": 2825,
      "bier": 2826,
      "Ġimpuls": 2827,
      "Ġhoras": 2828,
      "Ġiba": 2829,
      "Ġexisten": 2830,
      "onseca": 2831,
      "Ġdescon": 2832,
      "Ġmonto": 2833,
      "Ġalguien": 2834,
      "Ġella": 2835,
      "Ġ17": 2836,
      "ĠTrib": 2837,
      "Ġestablecer": 2838,
      "ĠCorte": 2839,
      "Nos": 2840,
      "Ġtengamos": 2841,
      "ĠhistÃ³": 2842,
      "ĠDefensorÃŃa": 2843,
      "viamente": 2844,
      "ep": 2845,
      "pro": 2846,
      "ficiencia": 2847,
      "Ġciudadanos": 2848,
      "Ġpesca": 2849,
      "Ġprocesos": 2850,
      "Ġelem": 2851,
      "mado": 2852,
      "ĠdiÃ¡logo": 2853,
      "ĠmuchÃŃsimo": 2854,
      "ĠÃ³rgan": 2855,
      "imon": 2856,
      "Ġsolid": 2857,
      "Ã±os": 2858,
      "ĠMora": 2859,
      "Ġcentros": 2860,
      "Ġcerr": 2861,
      "Ġexig": 2862,
      "ticamente": 2863,
      "Ġcriterios": 2864,
      "ĠparticipaciÃ³n": 2865,
      "TER": 2866,
      "Ġenfren": 2867,
      "cipios": 2868,
      "Ġgobierno": 2869,
      "UN": 2870,
      "Ġnoti": 2871,
      "ientes": 2872,
      "Ġhacemos": 2873,
      "ologÃŃa": 2874,
      "han": 2875,
      "oluciÃ³n": 2876,
      "uro": 2877,
      "Ġsum": 2878,
      "Ġhumano": 2879,
      "Ġreca": 2880,
      "Ġases": 2881,
      "sito": 2882,
      "Ġgobiern": 2883,
      "Ġclara": 2884,
      "Ġrecordar": 2885,
      "Ġreda": 2886,
      "Ġtram": 2887,
      "Ġprincipios": 2888,
      "Ġbrin": 2889,
      "Ġutiliz": 2890,
      "ĠSUS": 2891,
      "Ġcapaci": 2892,
      "Ġfondos": 2893,
      "Ġocas": 2894,
      "Ġconcl": 2895,
      "Ġtasas": 2896,
      "ĠReglamento": 2897,
      "ĠLos": 2898,
      "ex": 2899,
      "Ġtom": 2900,
      "Ġmano": 2901,
      "Ġhicieron": 2902,
      "iencia": 2903,
      "Ġdefini": 2904,
      "tarse": 2905,
      "Ġ25": 2906,
      "Ġbre": 2907,
      "Ġvin": 2908,
      "ĠDios": 2909,
      "Ġprev": 2910,
      "Ġpreocupa": 2911,
      "Ġfel": 2912,
      "Ġlegislativa": 2913,
      "10": 2914,
      "Ġ23": 2915,
      "ĠInternacional": 2916,
      "Ġpuer": 2917,
      "Ġestaban": 2918,
      "Ġsaben": 2919,
      "ciso": 2920,
      "Ġrevisar": 2921,
      "ĠVal": 2922,
      "Ġconocer": 2923,
      "Ġhaga": 2924,
      "ĠsoluciÃ³n": 2925,
      "Ġolvi": 2926,
      "IntervenciÃ³n": 2927,
      "Ġconcre": 2928,
      "Ġorganiz": 2929,
      "Ġ30": 2930,
      "Ġform": 2931,
      "Ġmedida": 2932,
      "ĠEconÃ³m": 2933,
      "Ġdan": 2934,
      "Ġtuvi": 2935,
      "dica": 2936,
      "entemente": 2937,
      "Ġdign": 2938,
      "Ġquinientos": 2939,
      "ĠSalud": 2940,
      "95": 2941,
      "Ġmesa": 2942,
      "MP": 2943,
      "Ġpresupuestos": 2944,
      "Ġmomentos": 2945,
      "34": 2946,
      "darios": 2947,
      "uentes": 2948,
      "ĠposiciÃ³n": 2949,
      "Ġsencil": 2950,
      "ĠanÃ¡lisis": 2951,
      "Ġnecesitamos": 2952,
      "ĠrÃ¡": 2953,
      "peraciÃ³n": 2954,
      "ĠORDINARIA": 2955,
      "TE": 2956,
      "inan": 2957,
      "ĠEntonces": 2958,
      "mentos": 2959,
      "Ġresponsable": 2960,
      "ĠUnivers": 2961,
      "Ġelector": 2962,
      "Ġaprobado": 2963,
      "acen": 2964,
      "Ġayudar": 2965,
      "Ġviendo": 2966,
      "Ġcrecimiento": 2967,
      "UP": 2968,
      "Ġdigamos": 2969,
      "ĠdifÃŃcil": 2970,
      "ĠMa": 2971,
      "Ġmodelo": 2972,
      "Ġileg": 2973,
      "quil": 2974,
      "trÃ¡s": 2975,
      "Ġconoc": 2976,
      "Ġrespon": 2977,
      "ĠSer": 2978,
      "ernÃ¡n": 2979,
      "ĠFonseca": 2980,
      "taron": 2981,
      "ĠChac": 2982,
      "ticos": 2983,
      "ĠÃºnicamente": 2984,
      "Ġconfianza": 2985,
      "unal": 2986,
      "ĠmÃŃn": 2987,
      "Ġhabr": 2988,
      "Eso": 2989,
      "LE": 2990,
      "ĠChacÃ³n": 2991,
      "ibilidad": 2992,
      "Ġbuenos": 2993,
      "ĠUN": 2994,
      "Ġhubo": 2995,
      "ficit": 2996,
      "Ġdefens": 2997,
      "Ġgobiernos": 2998,
      "IZ": 2999,
      "Ġdocu": 3000,
      "Ġprofesi": 3001,
      "ĠdÃ©ficit": 3002,
      "ĠâĢ": 3003,
      "Ġmensa": 3004,
      "Ġquince": 3005,
      "ĠOCDE": 3006,
      "trum": 3007,
      "ĠseÃ±alar": 3008,
      "Ġtuvo": 3009,
      "ĠbÃ¡sica": 3010,
      "ernÃ¡ndez": 3011,
      "ORDIN": 3012,
      "Ġnoventa": 3013,
      "ega": 3014,
      "vez": 3015,
      "diciÃ³n": 3016,
      "Ġalto": 3017,
      "Ġfortale": 3018,
      "Ġata": 3019,
      "terna": 3020,
      "ĠojalÃ¡": 3021,
      "Ġobra": 3022,
      "Ġpretende": 3023,
      "cura": 3024,
      "ĠEXTRA": 3025,
      "63": 3026,
      "eo": 3027,
      "imÃ©n": 3028,
      "ĠBuen": 3029,
      "Ġnatural": 3030,
      "imÃ©nez": 3031,
      "icio": 3032,
      "Ġdeman": 3033,
      "Ġconci": 3034,
      "Ġ29": 3035,
      "Ġpresente": 3036,
      "Ġrazones": 3037,
      "ĠEXTRAORDIN": 3038,
      "gÃ³": 3039,
      "gunda": 3040,
      "ĠJimÃ©nez": 3041,
      "Ġdecirle": 3042,
      "Ġtiempos": 3043,
      "ĠCarta": 3044,
      "Ġafecta": 3045,
      "tÃ¡": 3046,
      "ĠME": 3047,
      "Ġ200": 3048,
      "Ġcambios": 3049,
      "IL": 3050,
      "Ġreflex": 3051,
      "Ġdirig": 3052,
      "lados": 3053,
      "Ã¡lter": 3054,
      "Ġerror": 3055,
      "Ġcarr": 3056,
      "ĠWÃ¡lter": 3057,
      "Los": 3058,
      "ivil": 3059,
      "Ġextraordinario": 3060,
      "Ġlegal": 3061,
      "Ġdeja": 3062,
      "Ġcontar": 3063,
      "Ġconj": 3064,
      "Ġrenta": 3065,
      "CompaÃ±": 3066,
      "Ġclaridad": 3067,
      "Ġtraer": 3068,
      "Ġauto": 3069,
      "Ġvivienda": 3070,
      "Ġmenor": 3071,
      "rimin": 3072,
      "Ġconoci": 3073,
      "Ġrepi": 3074,
      "Ġcara": 3075,
      "Ã©ramos": 3076,
      "Ġmuer": 3077,
      "bern": 3078,
      "Ġobras": 3079,
      "Ġmagistrados": 3080,
      "gi": 3081,
      "Ġpido": 3082,
      "Ġbeneficio": 3083,
      "AquÃŃ": 3084,
      "Ġinstrum": 3085,
      "oz": 3086,
      "Ġenvi": 3087,
      "Ġconsidera": 3088,
      "ris": 3089,
      "Ġluego": 3090,
      "Ġconocimiento": 3091,
      "Ġasegu": 3092,
      "Ġinterno": 3093,
      "Ġgrande": 3094,
      "Ġpensar": 3095,
      "Ġmunicipalidades": 3096,
      "ĠreducciÃ³n": 3097,
      "CIA": 3098,
      "ĠUniversidad": 3099,
      "Ġof": 3100,
      "Ġespero": 3101,
      "ĠARTÃįCULO": 3102,
      "bal": 3103,
      "eric": 3104,
      "Ġturismo": 3105,
      "ĠCOS": 3106,
      "residente": 3107,
      "Ġaplicar": 3108,
      "Ġintegral": 3109,
      "Ġproteger": 3110,
      "Ġcoma": 3111,
      "Ġregla": 3112,
      "ĠespecÃŃfic": 3113,
      "ocar": 3114,
      "Ġimple": 3115,
      "Ġdecirles": 3116,
      "Ġrequisi": 3117,
      "Ġgolpe": 3118,
      "mbre": 3119,
      "forma": 3120,
      "Ġreformas": 3121,
      "Ġasum": 3122,
      "Buenas": 3123,
      "14": 3124,
      "Ġpropuestas": 3125,
      "Ġvoz": 3126,
      "acendarios": 3127,
      "Ġcant": 3128,
      "ĠdemocrÃ¡": 3129,
      "tÃŃs": 3130,
      "arrollo": 3131,
      "dro": 3132,
      "Ġconsens": 3133,
      "Ġagre": 3134,
      "ĠSupre": 3135,
      "Ġhon": 3136,
      "Ġcur": 3137,
      "ibuy": 3138,
      "Ġmiem": 3139,
      "Ġnombre": 3140,
      "Ġpelig": 3141,
      "Ġenor": 3142,
      "Ġ2022": 3143,
      "ĠAsuntos": 3144,
      "ÃĵM": 3145,
      "trado": 3146,
      "ĠAP": 3147,
      "ĠHacendarios": 3148,
      "Ġsabe": 3149,
      "17": 3150,
      "ela": 3151,
      "Ġenfer": 3152,
      "Ġtarde": 3153,
      "Ġaspectos": 3154,
      "ĠfÃ¡": 3155,
      "ĠECON": 3156,
      "Ġutilizar": 3157,
      "ĠServici": 3158,
      "ĠLo": 3159,
      "Ġsiguen": 3160,
      "Ġ24": 3161,
      "Ġhubiera": 3162,
      "Ġsuce": 3163,
      "Ġirresponsa": 3164,
      "ĠICE": 3165,
      "ĠECONÃĵM": 3166,
      "enemos": 3167,
      "cido": 3168,
      "Ġmov": 3169,
      "Ha": 3170,
      "Para": 3171,
      "ĠquerÃŃa": 3172,
      "ĠtÃ©cnica": 3173,
      "59": 3174,
      "tamo": 3175,
      "Ġapar": 3176,
      "berto": 3177,
      "ĠLAS": 3178,
      "stitucional": 3179,
      "ĠseÃ±ala": 3180,
      "Ġcrear": 3181,
      "ATI": 3182,
      "Ġhombres": 3183,
      "Ġentrar": 3184,
      "Ġbar": 3185,
      "Ġsuficiente": 3186,
      "Ġrecorte": 3187,
      "Ġplantea": 3188,
      "Ġcontrario": 3189,
      "Ġescuchar": 3190,
      "Ġcultura": 3191,
      "BRE": 3192,
      "ves": 3193,
      "Ġima": 3194,
      "Ġmanos": 3195,
      "Ġdev": 3196,
      "ĠtÃŃ": 3197,
      "Ġcomen": 3198,
      "Ġdiferencia": 3199,
      "ĠpodrÃŃan": 3200,
      "ĠoposiciÃ³n": 3201,
      "Ġresto": 3202,
      "Ġjerar": 3203,
      "Ġcamino": 3204,
      "don": 3205,
      "Ġsex": 3206,
      "Ġhago": 3207,
      "Ġmediante": 3208,
      "ĠejecuciÃ³n": 3209,
      "hi": 3210,
      "li": 3211,
      "Ġprivado": 3212,
      "Ġcontinuar": 3213,
      "ÃŃg": 3214,
      "Ġtrasla": 3215,
      "Ġsiguiente": 3216,
      "Ġinvi": 3217,
      "Ġlleva": 3218,
      "ĠDesarrollo": 3219,
      "ĠtÃ©rminos": 3220,
      "ĠlÃŃ": 3221,
      "Ġmantener": 3222,
      "Ġnuevos": 3223,
      "ĠSeguridad": 3224,
      "vieron": 3225,
      "Ġpuntos": 3226,
      "86": 3227,
      "Ã©ndo": 3228,
      "ĠacciÃ³n": 3229,
      "deva": 3230,
      "apdeva": 3231,
      "Ġlevan": 3232,
      "Ġnecesitan": 3233,
      "Ġcero": 3234,
      "cados": 3235,
      "Ġnuevas": 3236,
      "Ġhabitantes": 3237,
      "echa": 3238,
      "ial": 3239,
      "Ġnormas": 3240,
      "usticia": 3241,
      "22": 3242,
      "Ġllen": 3243,
      "Ġcanasta": 3244,
      "Ġmanejo": 3245,
      "ĠÃºltimo": 3246,
      "ĠlegislaturaDiputado": 3247,
      "rÃ©s": 3248,
      "ĠHa": 3249,
      "abor": 3250,
      "Ġcambiar": 3251,
      "Ġcentro": 3252,
      "Ġtrabajando": 3253,
      "Ġexon": 3254,
      "Ġambiental": 3255,
      "Como": 3256,
      "ĠUnidad": 3257,
      "chez": 3258,
      "Ġsumamente": 3259,
      "tulo": 3260,
      "Ġvotos": 3261,
      "Ġaplica": 3262,
      "Ġnega": 3263,
      "ĠaprobÃ³": 3264,
      "Ġaumento": 3265,
      "Ġconvers": 3266,
      "decer": 3267,
      "Ġpaz": 3268,
      "Ġaprovechar": 3269,
      "ĠmÃ©d": 3270,
      "imonio": 3271,
      "MI": 3272,
      "ine": 3273,
      "Ġdesarrollar": 3274,
      "ecciÃ³n": 3275,
      "Ġincre": 3276,
      "Ġabor": 3277,
      "Ġagricul": 3278,
      "Ġconsec": 3279,
      "Ġcorri": 3280,
      "Ġpermita": 3281,
      "Ġmor": 3282,
      "dezco": 3283,
      "pel": 3284,
      "Ġdiscutiendo": 3285,
      "ICI": 3286,
      "brar": 3287,
      "Ġcomprome": 3288,
      "Ġinternacionales": 3289,
      "ĠCartago": 3290,
      "etario": 3291,
      "ĠgeneraciÃ³n": 3292,
      "via": 3293,
      "tarÃŃa": 3294,
      "38": 3295,
      "ĠHernÃ¡ndez": 3296,
      "hibi": 3297,
      "fas": 3298,
      "tual": 3299,
      "ĠpasÃ³": 3300,
      "Des": 3301,
      "gul": 3302,
      "durÃŃa": 3303,
      "Ġdie": 3304,
      "Ġtransi": 3305,
      "GIS": 3306,
      "Ġestruc": 3307,
      "Ġinsis": 3308,
      "Ġequiv": 3309,
      "UPUES": 3310,
      "DEN": 3311,
      "opera": 3312,
      "ĠPRESUPUES": 3313,
      "fa": 3314,
      "teras": 3315,
      "ĠEsto": 3316,
      "Ġcorreg": 3317,
      "Ġajus": 3318,
      "tales": 3319,
      "ĠCo": 3320,
      "Ġgo": 3321,
      "Ġveo": 3322,
      "Ġrecibir": 3323,
      "Ġdistribu": 3324,
      "Ġdepen": 3325,
      "Ġotor": 3326,
      "Ġtransfer": 3327,
      "dicam": 3328,
      "ĠÃºnica": 3329,
      "Ġinciso": 3330,
      "ĠPÃºblico": 3331,
      "Al": 3332,
      "Ġextraordinarias": 3333,
      "ariamente": 3334,
      "..": 3335,
      "Ġtalvez": 3336,
      "Ġdesigual": 3337,
      "Ġsituaciones": 3338,
      "Ġrecomenda": 3339,
      "ĠTribunal": 3340,
      "Ġellas": 3341,
      "Ġresultados": 3342,
      "Ġempezar": 3343,
      "ACIONAL": 3344,
      "DO": 3345,
      "ĠvisiÃ³n": 3346,
      "ustr": 3347,
      "Ġtrescientos": 3348,
      "Ġefectos": 3349,
      "Ġinstitucionalidad": 3350,
      "ĠfÃ¡cil": 3351,
      "Ġalcal": 3352,
      "Ġ28": 3353,
      "Ġasign": 3354,
      "Ġespecialmente": 3355,
      "ĠcampaÃ±a": 3356,
      "Ġllamar": 3357,
      "Ġnacionales": 3358,
      "RO": 3359,
      "Ġcomba": 3360,
      "Ġmedicam": 3361,
      "Ġdecreto": 3362,
      "hora": 3363,
      "torios": 3364,
      "Ġacer": 3365,
      "Ġtratar": 3366,
      "Ġllega": 3367,
      "Ġproductos": 3368,
      "Ġabier": 3369,
      "Ġhuelga": 3370,
      "Ġllama": 3371,
      "cientas": 3372,
      "Ã¡nchez": 3373,
      "Ġfunciones": 3374,
      "Ġgrup": 3375,
      "Ġreconocimiento": 3376,
      "Ġconcep": 3377,
      "tencias": 3378,
      "ĠSÃ¡nchez": 3379,
      "ĠREFORMA": 3380,
      "jes": 3381,
      "zado": 3382,
      "Ġauton": 3383,
      "Ġdenuncia": 3384,
      "Ġquede": 3385,
      "Ġfac": 3386,
      "Ġcoin": 3387,
      "Ġdoce": 3388,
      "ĠprÃ©stamo": 3389,
      "Ġcargo": 3390,
      "Ġreconoci": 3391,
      "Ġagr": 3392,
      "Ġurgente": 3393,
      "Ġgrupos": 3394,
      "CO": 3395,
      "table": 3396,
      "ÃŃri": 3397,
      "omp": 3398,
      "Ġdije": 3399,
      "Ġteniendo": 3400,
      "media": 3401,
      "Ġvean": 3402,
      "ÃŃritu": 3403,
      "Ġvir": 3404,
      "Ġindic": 3405,
      "Ġcomisiones": 3406,
      "Ġbanca": 3407,
      "udas": 3408,
      "Ġfa": 3409,
      "Ġedad": 3410,
      "Ġvia": 3411,
      "Ġresul": 3412,
      "Ġrecurso": 3413,
      "Ã¼": 3414,
      "culo": 3415,
      "Ġcoleg": 3416,
      "ĠREFORMAS": 3417,
      "Ġincu": 3418,
      "Ġorig": 3419,
      "Ġprue": 3420,
      "americ": 3421,
      "Ġesfuerzos": 3422,
      "Ġhijos": 3423,
      "ĠTrabajo": 3424,
      "ĠVÃŃ": 3425,
      "Ġmensaje": 3426,
      "ĠPOR": 3427,
      "ĠPRO": 3428,
      "Ġmateri": 3429,
      "Ġcap": 3430,
      "Ġaban": 3431,
      "Ġviviendo": 3432,
      "Ġcomunidad": 3433,
      "ĠArtÃŃcu": 3434,
      "Ġreferencia": 3435,
      "ĠCOM": 3436,
      "Ġperman": 3437,
      "Ġlamentablemente": 3438,
      "56": 3439,
      "Ġatra": 3440,
      "Ġobviamente": 3441,
      "erdo": 3442,
      "culos": 3443,
      "Ġvolver": 3444,
      "Ġcapital": 3445,
      "Ġacuerdos": 3446,
      "Ġinmedia": 3447,
      "ĠdirecciÃ³n": 3448,
      "centa": 3449,
      "ĠPer": 3450,
      "Ġconsecu": 3451,
      "Ġsani": 3452,
      "illa": 3453,
      "Ġmanten": 3454,
      "Ġporcenta": 3455,
      "iciones": 3456,
      "Ġesperando": 3457,
      "ĠprÃ¡cticamente": 3458,
      "mentar": 3459,
      "Ġemi": 3460,
      "tancia": 3461,
      "Ġabrir": 3462,
      "Martes": 3463,
      "Ġalterna": 3464,
      "ĠMonetario": 3465,
      "Ġreto": 3466,
      "ĠPatr": 3467,
      "ĠORDEN": 3468,
      "dios": 3469,
      "uencias": 3470,
      "SÃŃ": 3471,
      "Ġhos": 3472,
      "Ġfinanciar": 3473,
      "lamen": 3474,
      "uraciÃ³n": 3475,
      "Ġreducir": 3476,
      "Ġalim": 3477,
      "Ġ26": 3478,
      "Ġresuel": 3479,
      "omin": 3480,
      "ĠespÃŃritu": 3481,
      "Ġcentral": 3482,
      "Ġmedicamentos": 3483,
      "ÃŃsimas": 3484,
      "cel": 3485,
      "ĠaplicaciÃ³n": 3486,
      "tada": 3487,
      "ĠVil": 3488,
      "turales": 3489,
      "Ġarmas": 3490,
      "Ġcontexto": 3491,
      "tero": 3492,
      "IO": 3493,
      "Jueves": 3494,
      "Lunes": 3495,
      "Ġconver": 3496,
      "ĠCor": 3497,
      "ĠAcu": 3498,
      "Ġcostos": 3499,
      "ĠMunicipal": 3500,
      "Ġhogares": 3501,
      "Ġsens": 3502,
      "Ġfaci": 3503,
      "Ġexcep": 3504,
      "Ġprograma": 3505,
      "ĠAn": 3506,
      "Ġciertamente": 3507,
      "Ġprivada": 3508,
      "Ġprincipalmente": 3509,
      "legas": 3510,
      "Ġagradecer": 3511,
      "ĠVillegas": 3512,
      "Ġcompetencia": 3513,
      "gÃ¼": 3514,
      "ĠHer": 3515,
      "Ġincen": 3516,
      "Ġacep": 3517,
      "Ġorganizaciones": 3518,
      "bas": 3519,
      "mer": 3520,
      "ĠjurÃŃdica": 3521,
      "Ġactualmente": 3522,
      "mor": 3523,
      "zando": 3524,
      "Ġfigu": 3525,
      "Ġtasa": 3526,
      "12": 3527,
      "ĠpropÃ³": 3528,
      "rÃ©sti": 3529,
      "Ġpone": 3530,
      "Ġcarre": 3531,
      "Ġcorregir": 3532,
      "ancia": 3533,
      "Ġiden": 3534,
      "Ġdiscapacidad": 3535,
      "Ġaclarar": 3536,
      "acion": 3537,
      "ĠpodrÃŃamos": 3538,
      "isos": 3539,
      "Ġprohibi": 3540,
      "ĠCu": 3541,
      "Ġinconstitucional": 3542,
      "illas": 3543,
      "sejo": 3544,
      "Ġtarea": 3545,
      "olio": 3546,
      "Ġlegisladores": 3547,
      "Ġavance": 3548,
      "ĠQUE": 3549,
      "ĠemprÃ©sti": 3550,
      "Ġdistintas": 3551,
      "ĠPedro": 3552,
      "ĠtÃ©cnicos": 3553,
      "Ġidea": 3554,
      "33": 3555,
      "Minis": 3556,
      "ĠEJ": 3557,
      "ĠtenÃŃan": 3558,
      "CIO": 3559,
      "Ġaudi": 3560,
      "Ġcoopera": 3561,
      "ĠLEGIS": 3562,
      "Ġcerrar": 3563,
      "ĠLEGISL": 3564,
      "Ġeficiencia": 3565,
      "Ġarreg": 3566,
      "Ġeran": 3567,
      "ĠConsejo": 3568,
      "Ġmecanismo": 3569,
      "curadurÃŃa": 3570,
      "Ġami": 3571,
      "ĠPres": 3572,
      "Ġprecios": 3573,
      "Ġasoci": 3574,
      "Ġopera": 3575,
      "idar": 3576,
      "Ġrenun": 3577,
      "ĠperdÃ³n": 3578,
      "Ġagro": 3579,
      "ĠProcuradurÃŃa": 3580,
      "Ġtes": 3581,
      "Ġenerg": 3582,
      "ĠestÃ©n": 3583,
      "ĠTRA": 3584,
      "ĠElec": 3585,
      "Ġav": 3586,
      "Ġcontenido": 3587,
      "Ġcreemos": 3588,
      "ĠCongreso": 3589,
      "Ġfelici": 3590,
      "84": 3591,
      "Ġampli": 3592,
      "erÃŃa": 3593,
      "Ġconvo": 3594,
      "Ġbastante": 3595,
      "Ġmiembros": 3596,
      "74": 3597,
      "ila": 3598,
      "Ġhabido": 3599,
      "ĠredacciÃ³n": 3600,
      "Ġsuma": 3601,
      "Cuando": 3602,
      "Las": 3603,
      "ĠrevisiÃ³n": 3604,
      "Ġado": 3605,
      "Ġredes": 3606,
      "gados": 3607,
      "ĠFinan": 3608,
      "Ġcuestion": 3609,
      "lu": 3610,
      "ĠSesiÃ³n": 3611,
      "Ġfinalmente": 3612,
      "tina": 3613,
      "Ġinvertir": 3614,
      "Ġcumplimiento": 3615,
      "Ġbancos": 3616,
      "ĠtÃ©cnico": 3617,
      "Ã¡ndose": 3618,
      "ĠInstitu": 3619,
      "Ġimplica": 3620,
      "ĠEste": 3621,
      "ĠâĢľ": 3622,
      "Ġrepito": 3623,
      "Ġfamiliar": 3624,
      "Ġayuda": 3625,
      "Ġespacios": 3626,
      "ĠautonomÃŃa": 3627,
      "ĠhabÃŃan": 3628,
      "Ġseguimos": 3629,
      "Ġquerido": 3630,
      "ĠprÃ¡ctica": 3631,
      "ĠdaÃ±o": 3632,
      "Ġimposi": 3633,
      "Ġapr": 3634,
      "Ġhablado": 3635,
      "Ġmenores": 3636,
      "Ġtari": 3637,
      "Ġcontribuy": 3638,
      "Ġambiente": 3639,
      "Ġtor": 3640,
      "Ġdesp": 3641,
      "Ġdesta": 3642,
      "Ġequipo": 3643,
      "ende": 3644,
      "ĠDer": 3645,
      "Ġhechos": 3646,
      "ĠLEGISLATI": 3647,
      "Ġaus": 3648,
      "Ġreferirme": 3649,
      "ĠpresentÃ³": 3650,
      "isp": 3651,
      "ĠMi": 3652,
      "Ġsustitu": 3653,
      "Ġcandida": 3654,
      "mÃ¡tica": 3655,
      "rede": 3656,
      "ĠartÃŃculos": 3657,
      "Ġcomercial": 3658,
      "Ġherramientas": 3659,
      "ĠPIB": 3660,
      "Ġapren": 3661,
      "Ġmoder": 3662,
      "Ġcorto": 3663,
      "mun": 3664,
      "arco": 3665,
      "Ġrector": 3666,
      "Ġgu": 3667,
      "ĠRICA": 3668,
      "adamente": 3669,
      "Ġsoluciones": 3670,
      "Ġbienestar": 3671,
      "Ġconciencia": 3672,
      "Ġdivers": 3673,
      "Ġconjunto": 3674,
      "Que": 3675,
      "ĠCOSTA": 3676,
      "EM": 3677,
      "tarle": 3678,
      "ĠDÃŃa": 3679,
      "dres": 3680,
      "Ġsec": 3681,
      "ÃºÃ±": 3682,
      "Ġdispon": 3683,
      "ĠJunta": 3684,
      "ARR": 3685,
      "Ġfinanciera": 3686,
      "Ġvulnerables": 3687,
      "gualmente": 3688,
      "ĠDES": 3689,
      "Ġrique": 3690,
      "Ġsoy": 3691,
      "Ġ31": 3692,
      "30": 3693,
      "aba": 3694,
      "cando": 3695,
      "Ġadicional": 3696,
      "dimos": 3697,
      "ceder": 3698,
      "Ġprincipal": 3699,
      "Ġevidente": 3700,
      "ĠnegociaciÃ³n": 3701,
      "ĠInstituto": 3702,
      "ĠDerech": 3703,
      "Ġpodido": 3704,
      "ualmente": 3705,
      "Ġregi": 3706,
      "Ġmecanismos": 3707,
      "iversi": 3708,
      "Ġpropio": 3709,
      "Ġeval": 3710,
      "Ġanalizar": 3711,
      "Ġdiga": 3712,
      "ĠIVA": 3713,
      "Ġdudas": 3714,
      "POR": 3715,
      "Ġesencial": 3716,
      "Ġsegunda": 3717,
      "ĠniÃ±as": 3718,
      "Ġcantones": 3719,
      "gl": 3720,
      "ase": 3721,
      "Ġenfrentar": 3722,
      "ciÃ³": 3723,
      "uela": 3724,
      "ĠHay": 3725,
      "Ġadqu": 3726,
      "ĠLaura": 3727,
      "Ġenorme": 3728,
      "cÃ©": 3729,
      "Ġeficiente": 3730,
      "elas": 3731,
      "Ġnorm": 3732,
      "Ġaprue": 3733,
      "Ġproba": 3734,
      "Ġagradezco": 3735,
      "Ġequil": 3736,
      "ĠECONÃĵMICO": 3737,
      "Ġgobern": 3738,
      "ĠÃ¡reas": 3739,
      "ĠFIN": 3740,
      "Ġlista": 3741,
      "dado": 3742,
      "Ġaquellas": 3743,
      "eÃ±o": 3744,
      "cito": 3745,
      "Ġjudicial": 3746,
      "Ġplanteado": 3747,
      "ĠPaola": 3748,
      "ĠCol": 3749,
      "Ġpopu": 3750,
      "Ġopin": 3751,
      "Ġregula": 3752,
      "ĠresoluciÃ³n": 3753,
      "Ġmundial": 3754,
      "ĠprÃ¡cticas": 3755,
      "Ġincumpl": 3756,
      "Ã¡m": 3757,
      "guar": 3758,
      "UR": 3759,
      "ste": 3760,
      "Ġingreso": 3761,
      "estauraciÃ³n": 3762,
      "riendo": 3763,
      "Ġacto": 3764,
      "Ġreglamento": 3765,
      "Ġlibertad": 3766,
      "Ġvengan": 3767,
      "Ã±as": 3768,
      "ĠcreaciÃ³n": 3769,
      "Ġprome": 3770,
      "Ġeliminar": 3771,
      "ERCI": 3772,
      "ĠpensiÃ³n": 3773,
      "Ġdetal": 3774,
      "ciendo": 3775,
      "Ġdirector": 3776,
      "Ã¡rra": 3777,
      "Ġelementos": 3778,
      "dando": 3779,
      "Ġvenga": 3780,
      "erra": 3781,
      "Ġ2017": 3782,
      "Ã©rica": 3783,
      "Ġfuerte": 3784,
      "IZACIÃĵN": 3785,
      "Ġconsecuencias": 3786,
      "Ġleer": 3787,
      "ĠJapdeva": 3788,
      "Ġigualdad": 3789,
      "Ġobjetivos": 3790,
      "Ġtrabajadoras": 3791,
      "Ġterritorio": 3792,
      "yendo": 3793,
      "Ġexperiencia": 3794,
      "Ãĳ": 3795,
      "ĠÃŃn": 3796,
      "telig": 3797,
      "ĠTe": 3798,
      "Ġcontratos": 3799,
      "Ġcorrecta": 3800,
      "tiene": 3801,
      "tocol": 3802,
      "Ġvaya": 3803,
      "Ġliqui": 3804,
      "Ġsatis": 3805,
      "ĠĠ": 3806,
      "eramente": 3807,
      "Ġpoblaciones": 3808,
      "Ġnota": 3809,
      "ĠES": 3810,
      "ĠVega": 3811,
      "Ġfecha": 3812,
      "Ġcircun": 3813,
      "risti": 3814,
      "ion": 3815,
      "Ġsur": 3816,
      "ĠPÃºblicas": 3817,
      "ĠlÃ³gica": 3818,
      "Ġiniciativas": 3819,
      "Ġestrateg": 3820,
      "ĠPresupues": 3821,
      "Ġhablamos": 3822,
      "Ġfinanciero": 3823,
      "ĠCONS": 3824,
      "75": 3825,
      "Un": 3826,
      "ileg": 3827,
      "Ġlic": 3828,
      "Ġinteg": 3829,
      "ĠAg": 3830,
      "ĠVi": 3831,
      "Ġinversiones": 3832,
      "Ġtributaria": 3833,
      "AdemÃ¡s": 3834,
      "dentes": 3835,
      "Ġestemos": 3836,
      "Ġpoderes": 3837,
      "ĠJusticia": 3838,
      "Ġsor": 3839,
      "ĠLas": 3840,
      "ĠINS": 3841,
      "Ġfundamentales": 3842,
      "Ġrequer": 3843,
      "Ã³s": 3844,
      "ĠhistÃ³r": 3845,
      "Creo": 3846,
      "ĠatrÃ¡s": 3847,
      "Ġalrede": 3848,
      "Ġrur": 3849,
      "ĠpropÃ³sito": 3850,
      "Ġsir": 3851,
      "ueve": 3852,
      "Ġprivileg": 3853,
      "ĠmÃ¡": 3854,
      "ÃŃdo": 3855,
      "arial": 3856,
      "Ġmeter": 3857,
      "Ġunas": 3858,
      "Ġred": 3859,
      "ĠvehÃŃ": 3860,
      "Ġregular": 3861,
      "Ã©c": 3862,
      "Ġale": 3863,
      "ĠJu": 3864,
      "ĠCastro": 3865,
      "ben": 3866,
      "Ġrequieren": 3867,
      "ĠEJERCI": 3868,
      "Ġpropia": 3869,
      "Ġrespal": 3870,
      "Ġcif": 3871,
      "Ġelectr": 3872,
      "ĠPlan": 3873,
      "Ġencuentra": 3874,
      "ĠinterpretaciÃ³n": 3875,
      "talina": 3876,
      "Ġlibre": 3877,
      "Ġcircuns": 3878,
      "iene": 3879,
      "Ġsilen": 3880,
      "MuchÃŃsimas": 3881,
      "Ġdiferente": 3882,
      "Ġlec": 3883,
      "Ġinform": 3884,
      "teriores": 3885,
      "lamente": 3886,
      "ernos": 3887,
      "Ġcoordin": 3888,
      "Ġbajar": 3889,
      "Re": 3890,
      "TOS": 3891,
      "Ġder": 3892,
      "Ã¡fico": 3893,
      "Ġperm": 3894,
      "âĢĿ": 3895,
      "Ġdirectamente": 3896,
      "Ġhagan": 3897,
      "Ġconflic": 3898,
      "CÃ³mo": 3899,
      "Ġmatr": 3900,
      "Ġrecortes": 3901,
      "Esa": 3902,
      "Estamos": 3903,
      "VEN": 3904,
      "Ã³l": 3905,
      "tiz": 3906,
      "ĠEsta": 3907,
      "ENCIA": 3908,
      "manas": 3909,
      "Ġsuperior": 3910,
      "ĠNic": 3911,
      "Ġencar": 3912,
      "tancias": 3913,
      "ĠCatalina": 3914,
      "Ġnecesaria": 3915,
      "Ġlogrado": 3916,
      "Ġdiscrimin": 3917,
      "Ġdol": 3918,
      "Ġserio": 3919,
      "Ġenferme": 3920,
      "ĠX": 3921,
      "Ġdefensa": 3922,
      "ĠprÃ³ximos": 3923,
      "ĠBueno": 3924,
      "ĠEXTRAORDINARIO": 3925,
      "ĠPRESUPUESTO": 3926,
      "52": 3927,
      "ĠNACIONAL": 3928,
      "idado": 3929,
      "ĠindÃŃg": 3930,
      "ĠEJERCICIO": 3931,
      "rados": 3932,
      "Ġplazas": 3933,
      "ĠcrÃŃti": 3934,
      "Ġvalores": 3935,
      "ĠDirecciÃ³n": 3936,
      "Ġalrededor": 3937,
      "ĠRic": 3938,
      "Ġpidiendo": 3939,
      "udo": 3940,
      "Ġefecto": 3941,
      "cinco": 3942,
      "Ġgana": 3943,
      "Ġinterven": 3944,
      "ficientes": 3945,
      "Ġpuestos": 3946,
      "ĠcrÃ©ditos": 3947,
      "SeÃ±or": 3948,
      "midad": 3949,
      "tieron": 3950,
      "guen": 3951,
      "ĠFor": 3952,
      "Ġdarles": 3953,
      "Ġpronto": 3954,
      "Ġ199": 3955,
      "Ġimag": 3956,
      "Ġporcentaje": 3957,
      "ĠRicardo": 3958,
      "Ġcolec": 3959,
      "Ġcerca": 3960,
      "Ġmencionar": 3961,
      "jan": 3962,
      "Ġrele": 3963,
      "ĠPren": 3964,
      "ĠMAR": 3965,
      "Ġaporte": 3966,
      "Ġpromover": 3967,
      "her": 3968,
      "Ġlocales": 3969,
      "Ġexten": 3970,
      "Ġempren": 3971,
      "Ġaprobamos": 3972,
      "ĠPrendas": 3973,
      "Ġimporta": 3974,
      "Ġpeor": 3975,
      "ĠSEG": 3976,
      "ĠcuÃ¡nto": 3977,
      "ĠpÃ©r": 3978,
      "che": 3979,
      "Ġcontrato": 3980,
      "Ġina": 3981,
      "ĠTer": 3982,
      "Ġendeuda": 3983,
      "Ġdeudas": 3984,
      "alo": 3985,
      "ĠdeberÃŃamos": 3986,
      "ĠseÃ±alado": 3987,
      "Ġrequisitos": 3988,
      "MiÃ©rcoles": 3989,
      "Ya": 3990,
      "ques": 3991,
      "quen": 3992,
      "ĠRestauraciÃ³n": 3993,
      "ĠZo": 3994,
      "Ġentidades": 3995,
      "SO": 3996,
      "Ġgeneraciones": 3997,
      "trÃ³": 3998,
      "Ġprov": 3999,
      "ĠZoila": 4000,
      "remos": 4001,
      "ficaciones": 4002,
      "Ġextre": 4003,
      "Ġterminar": 4004,
      "xima": 4005,
      "tramos": 4006,
      "Ġpoqui": 4007,
      "Ġsucedi": 4008,
      "Ġjustamente": 4009,
      "ĠprÃ©stamos": 4010,
      "Ã©m": 4011,
      "mpla": 4012,
      "Ġsim": 4013,
      "ense": 4014,
      "ĠEstados": 4015,
      "Ġgenerando": 4016,
      "Ġeducativos": 4017,
      "Ġindependiente": 4018,
      "iere": 4019,
      "Ġvay": 4020,
      "Ġadver": 4021,
      "jeron": 4022,
      "ĠregiÃ³n": 4023,
      "Ġcontinu": 4024,
      "Ġriqueza": 4025,
      "Ġtuvimos": 4026,
      "tidos": 4027,
      "ĠAU": 4028,
      "Ġpasada": 4029,
      "Ġcarta": 4030,
      "Ġfron": 4031,
      "Ã¡ndole": 4032,
      "Ġdictamin": 4033,
      "Ahora": 4034,
      "Ġpartes": 4035,
      "Ġdese": 4036,
      "Ġprotocol": 4037,
      "ĠBena": 4038,
      "barca": 4039,
      "Ġnormativa": 4040,
      "ĠBenavi": 4041,
      "08": 4042,
      "dol": 4043,
      "Ġactuar": 4044,
      "Ġestablecido": 4045,
      "son": 4046,
      "ĠAbarca": 4047,
      "rique": 4048,
      "acter": 4049,
      "ĠPablo": 4050,
      "Ġagu": 4051,
      "inal": 4052,
      "oce": 4053,
      "Ġjue": 4054,
      "ENS": 4055,
      "Ġposibilidades": 4056,
      "ĠÃ³rgano": 4057,
      "ĠBenavides": 4058,
      "Ġinsu": 4059,
      "Ġinformes": 4060,
      "ĠGuido": 4061,
      "Ġnaturaleza": 4062,
      "Ġsatisf": 4063,
      "ĠQu": 4064,
      "ĠCasa": 4065,
      "Ġelectoral": 4066,
      "ibles": 4067,
      "Ġbol": 4068,
      "Ġcoinci": 4069,
      "65": 4070,
      "tualmente": 4071,
      "ĠprÃ³ximo": 4072,
      "Ġsencillamente": 4073,
      "Ġempi": 4074,
      "Ġcaracter": 4075,
      "Ġmunici": 4076,
      "ĠelecciÃ³n": 4077,
      "Ġfirma": 4078,
      "ĠQue": 4079,
      "titud": 4080,
      "Ġdicha": 4081,
      "ĠPresidencial": 4082,
      "ĠPÃļBL": 4083,
      "seÃ±": 4084,
      "Ġpresupuestaria": 4085,
      "Ġbeneficios": 4086,
      "ĠmÃŃnimo": 4087,
      "ĠArtÃŃculo": 4088,
      "ĠLEGISLATIVA": 4089,
      "Ġenci": 4090,
      "amo": 4091,
      "Ġhicimos": 4092,
      "ĠrÃ¡pi": 4093,
      "Ġdecirlo": 4094,
      "ĠestarÃŃa": 4095,
      "Ġindustr": 4096,
      "Ġsemanas": 4097,
      "Ġlaborales": 4098,
      "Ġveinticinco": 4099,
      "CompaÃ±eros": 4100,
      "92": 4101,
      "ĠpÃ¡rra": 4102,
      "Ġorgul": 4103,
      "ĠRoberto": 4104,
      "Ġseiscientos": 4105,
      "Ġnegocios": 4106,
      "Ġfacil": 4107,
      "pes": 4108,
      "Ġperj": 4109,
      "ĠSil": 4110,
      "ĠformaciÃ³n": 4111,
      "Ġpresupuestario": 4112,
      "iller": 4113,
      "Ġevidencia": 4114,
      "CIAL": 4115,
      "ĠllegÃ³": 4116,
      "Una": 4117,
      "Ġesc": 4118,
      "Ġentiendo": 4119,
      "Ġdigi": 4120,
      "Ġdigital": 4121,
      "Ġoper": 4122,
      "checo": 4123,
      "ĠpodÃŃa": 4124,
      "Ġescuelas": 4125,
      "ĠPacheco": 4126,
      "Ġescuchado": 4127,
      "Ġreactivar": 4128,
      "Ġaumentar": 4129,
      "ĠjurÃŃdico": 4130,
      "ula": 4131,
      "ular": 4132,
      "Ġil": 4133,
      "Ġmagistrado": 4134,
      "Ġcorriente": 4135,
      "Ġcora": 4136,
      "ĠVolio": 4137,
      "Ġmejora": 4138,
      "ha": 4139,
      "pecu": 4140,
      "Ġuniversi": 4141,
      "iscal": 4142,
      "ĠMan": 4143,
      "Ġverdaderamente": 4144,
      "Ġsilencio": 4145,
      "Ġnarco": 4146,
      "rada": 4147,
      "Ġdieci": 4148,
      "Ġponiendo": 4149,
      "ĠPorque": 4150,
      "Ġexplicar": 4151,
      "Ġpensando": 4152,
      "ĠtrÃ¡mites": 4153,
      "cesi": 4154,
      "von": 4155,
      "ĠReforma": 4156,
      "Ġproductores": 4157,
      "ĠdeberÃŃan": 4158,
      "Ġplantear": 4159,
      "ĠDirector": 4160,
      "ese": 4161,
      "orales": 4162,
      "tima": 4163,
      "ĠÃ¡mbi": 4164,
      "oca": 4165,
      "trÃ¡fico": 4166,
      "ĠcomÃºn": 4167,
      "Ġvac": 4168,
      "Ġeducativo": 4169,
      "Ġinicio": 4170,
      "Ġdictamen": 4171,
      "Ġsostenibilidad": 4172,
      "Nosotros": 4173,
      "Ġdefinitivamente": 4174,
      "ĠVÃŃctor": 4175,
      "zÃ³n": 4176,
      "Ġquedan": 4177,
      "Ġescri": 4178,
      "ĠTran": 4179,
      "Ġcuatrocientos": 4180,
      "ĠUnidos": 4181,
      "Ġfigura": 4182,
      "Le": 4183,
      "rente": 4184,
      "Ġactos": 4185,
      "Ġresponsables": 4186,
      "Ġmues": 4187,
      "tillo": 4188,
      "Ġculpa": 4189,
      "icado": 4190,
      "ÃįA": 4191,
      "Ġdoctor": 4192,
      "Ġtomado": 4193,
      "illermo": 4194,
      "icen": 4195,
      "Ġinclu": 4196,
      "Ġinclusiv": 4197,
      "77": 4198,
      "IM": 4199,
      "bol": 4200,
      "ĠSin": 4201,
      "336": 4202,
      "Ġmala": 4203,
      "ieran": 4204,
      "Ġcrea": 4205,
      "ĠIntegr": 4206,
      "ĠGuillermo": 4207,
      "Ġaborto": 4208,
      "vonne": 4209,
      "Ġpocos": 4210,
      "Ġpagando": 4211,
      "Ġcontradic": 4212,
      "renta": 4213,
      "tativa": 4214,
      "Ġet": 4215,
      "izando": 4216,
      "siete": 4217,
      "ĠturÃŃs": 4218,
      "anas": 4219,
      "Ġmanda": 4220,
      "Ġprocedimientos": 4221,
      "Ġpatria": 4222,
      "Ġdefensora": 4223,
      "To": 4224,
      "Ġdiay": 4225,
      "Ġtransporte": 4226,
      "60": 4227,
      "edo": 4228,
      "Ġformas": 4229,
      "Ġsabi": 4230,
      "ĠMEP": 4231,
      "Ġedi": 4232,
      "Ġperfec": 4233,
      "duce": 4234,
      "ĠTÃ©cn": 4235,
      "Ġmismas": 4236,
      "Ġafectar": 4237,
      "ĠafectaciÃ³n": 4238,
      "Ġrecauda": 4239,
      "Ġpien": 4240,
      "bir": 4241,
      "ueva": 4242,
      "Ġviven": 4243,
      "Ġexoner": 4244,
      "ĠquedÃ³": 4245,
      "ÃŃc": 4246,
      "ĠAquÃŃ": 4247,
      "UC": 4248,
      "fi": 4249,
      "pas": 4250,
      "Ã¡g": 4251,
      "Ġreser": 4252,
      "Ġcabo": 4253,
      "residenta": 4254,
      "ĠÃºltima": 4255,
      "Desde": 4256,
      "Ġresultado": 4257,
      "Ġrespetu": 4258,
      "ĠbÃ¡sicamente": 4259,
      "Ġencima": 4260,
      "Ġincluir": 4261,
      "Ġprioridad": 4262,
      "ĠSilvia": 4263,
      "ificar": 4264,
      "ÃŃcol": 4265,
      "dieron": 4266,
      "Ġnecesarias": 4267,
      "Ġsistemas": 4268,
      "Ġobligaciones": 4269,
      "tifica": 4270,
      "Ġdiv": 4271,
      "Ġsiga": 4272,
      "ĠRamos": 4273,
      "Ġdespa": 4274,
      "Ġpositivo": 4275,
      "Ġterren": 4276,
      "TITU": 4277,
      "ĠintenciÃ³n": 4278,
      "Ġexclusiv": 4279,
      "ĠCruz": 4280,
      "Ġadultos": 4281,
      "ĠdisposiciÃ³n": 4282,
      "Ġdocumento": 4283,
      "sen": 4284,
      "Ġpareci": 4285,
      "Ġfran": 4286,
      "Ġprecio": 4287,
      "ĠIvonne": 4288,
      "Ġsolicitud": 4289,
      "ĠMonge": 4290,
      "poner": 4291,
      "Ġproductivo": 4292,
      "ĠÃ¡rea": 4293,
      "ĠopiniÃ³n": 4294,
      "DA": 4295,
      "Tenemos": 4296,
      "tente": 4297,
      "ani": 4298,
      "ĠCal": 4299,
      "rantes": 4300,
      "Ġobserv": 4301,
      "Ġclase": 4302,
      "Ġpobres": 4303,
      "Ġcompeti": 4304,
      "ger": 4305,
      "Ġcuidado": 4306,
      "ĠeconÃ³micos": 4307,
      "Ġconsumo": 4308,
      "Ġvivir": 4309,
      "Ġconsultas": 4310,
      "ĠMO": 4311,
      "Ġmiedo": 4312,
      "Ġconcen": 4313,
      "Ġresponsabilidades": 4314,
      "Ġelimin": 4315,
      "Ġeuro": 4316,
      "Ġine": 4317,
      "ĠFINAN": 4318,
      "Ġpun": 4319,
      "Ġimplic": 4320,
      "Ġmodificar": 4321,
      "Ġilegal": 4322,
      "ĠFern": 4323,
      "Ġlujo": 4324,
      "ĠREG": 4325,
      "ĠorganizaciÃ³n": 4326,
      "Ġesperanza": 4327,
      "ong": 4328,
      "Ġrelacion": 4329,
      "ĠvÃŃc": 4330,
      "Ġperio": 4331,
      "bili": 4332,
      "Ġvive": 4333,
      "Ġconstituy": 4334,
      "ĠDirectorio": 4335,
      "ĠFernando": 4336,
      "amÃ¡": 4337,
      "cÃ©tera": 4338,
      "Ġeven": 4339,
      "Ġbru": 4340,
      "Ġrestric": 4341,
      "Ġseguimiento": 4342,
      "Ġdemanda": 4343,
      "ĠMas": 4344,
      "Ġampliar": 4345,
      "Ġpoquito": 4346,
      "ĠetcÃ©tera": 4347,
      "cera": 4348,
      "Ġalta": 4349,
      "ĠAm": 4350,
      "ĠtecnologÃŃa": 4351,
      "Ġdesigualdad": 4352,
      "ĠfÃŃs": 4353,
      "Ġrepar": 4354,
      "onat": 4355,
      "dolfo": 4356,
      "ĠRam": 4357,
      "ĠMuch": 4358,
      "Ġposterior": 4359,
      "Ġcorrecto": 4360,
      "onathan": 4361,
      "Ġintro": 4362,
      "Ġperspec": 4363,
      "ĠlegislaturaDiputada": 4364,
      "Ã©ctr": 4365,
      "ĠK": 4366,
      "ĠEric": 4367,
      "ĠJonathan": 4368,
      "Ġnecesarios": 4369,
      "ĠServicios": 4370,
      "osamente": 4371,
      "Ġhagamos": 4372,
      "Ġdieron": 4373,
      "ĠTh": 4374,
      "Ġmerece": 4375,
      "Ġdistintos": 4376,
      "71": 4377,
      "Ġcontes": 4378,
      "Ġlocal": 4379,
      "Ġsorp": 4380,
      "),": 4381,
      "gre": 4382,
      "para": 4383,
      "DICIÃĵN": 4384,
      "Ġtransfor": 4385,
      "ADO": 4386,
      "ĠdiscriminaciÃ³n": 4387,
      "ĠautorizaciÃ³n": 4388,
      "ĠDirec": 4389,
      "Ġimpulsar": 4390,
      "Ġcomillas": 4391,
      "izada": 4392,
      "ĠAsÃŃ": 4393,
      "Ġfiscales": 4394,
      "Ese": 4395,
      "Ġreclam": 4396,
      "ĠmuchÃŃsimos": 4397,
      "Ġasumir": 4398,
      "ĠPER": 4399,
      "Ġusar": 4400,
      "ciocho": 4401,
      "ĠRodolfo": 4402,
      "LEO": 4403,
      "Ġcombatir": 4404,
      "ĠErick": 4405,
      "Ġon": 4406,
      "Ġsiento": 4407,
      "ĠEMP": 4408,
      "Ġsuje": 4409,
      "Ġprofesionales": 4410,
      "Ġagricultores": 4411,
      "21": 4412,
      "agn": 4413,
      "Ġrecha": 4414,
      "ĠOt": 4415,
      "ĠNiÃ±o": 4416,
      "Ġparlamen": 4417,
      "Ġacta": 4418,
      "rido": 4419,
      "ĠLeÃ³n": 4420,
      "Ġsustan": 4421,
      "ĠTeatro": 4422,
      "LO": 4423,
      "Ġextran": 4424,
      "oluc": 4425,
      "Ġincluye": 4426,
      "Ġendeudamiento": 4427,
      "128": 4428,
      "Ġcivil": 4429,
      "ĠAmpl": 4430,
      "Ġtemp": 4431,
      "eminis": 4432,
      "ĠÃ©tica": 4433,
      "ĠMasÃŃs": 4434,
      "MA": 4435,
      "Ġanteriores": 4436,
      "Ġinvoluc": 4437,
      "Ġrepresentantes": 4438,
      "Ġdisminu": 4439,
      "pales": 4440,
      "daciÃ³n": 4441,
      "Ġestuvi": 4442,
      "pera": 4443,
      "vir": 4444,
      "Ġcomb": 4445,
      "tuales": 4446,
      "puestos": 4447,
      "Ġocasiones": 4448,
      "Ġasociaciones": 4449,
      "Hemos": 4450,
      "eres": 4451,
      "temos": 4452,
      "Ġtele": 4453,
      "formas": 4454,
      "Ġiniciar": 4455,
      "Ġempleos": 4456,
      "AJ": 4457,
      "gel": 4458,
      "Ġinci": 4459,
      "Ġaltos": 4460,
      "Ġpapel": 4461,
      "ĠcontrataciÃ³n": 4462,
      "Ġcoloc": 4463,
      "Ġenfrenta": 4464,
      "Ġdebido": 4465,
      "ĠhabrÃŃa": 4466,
      "Ġevalu": 4467,
      "ĠpÃ¡rrafo": 4468,
      "Ġeng": 4469,
      "Ġpresentes": 4470,
      "Ġfuncionamiento": 4471,
      "ĠnÃºmeros": 4472,
      "Ġnombramiento": 4473,
      "ĠSupremo": 4474,
      "Ġsexual": 4475,
      "Ġnaci": 4476,
      "entales": 4477,
      "Ġclaros": 4478,
      "Ġdenuncias": 4479,
      "ĠÂ°": 4480,
      "ĠExtra": 4481,
      "inos": 4482,
      "Ã©is": 4483,
      "Ġparticularmente": 4484,
      "Ġfortalecimiento": 4485,
      "our": 4486,
      "ick": 4487,
      "Ġguar": 4488,
      "Ġjuntas": 4489,
      "Ġlugares": 4490,
      "Ġoficial": 4491,
      "Ġpenal": 4492,
      "ĠlÃŃmi": 4493,
      "Ġdieciocho": 4494,
      "ristiana": 4495,
      "Ġentr": 4496,
      "ĠAC": 4497,
      "ĠGon": 4498,
      "ĠGracias": 4499,
      "ĠFiscal": 4500,
      "Ġlidera": 4501,
      "Ġmercados": 4502,
      "ompson": 4503,
      "ĠAcuÃ±a": 4504,
      "Ġcooperativas": 4505,
      "ĠPÃļBLICO": 4506,
      "ĠThompson": 4507,
      "bitantes": 4508,
      "Ġpotes": 4509,
      "Ġcompra": 4510,
      "ĠHoy": 4511,
      "mena": 4512,
      "Ġacaba": 4513,
      "Ġindependencia": 4514,
      "BLE": 4515,
      "ĠregulaciÃ³n": 4516,
      "Ġbreve": 4517,
      "Ġpaga": 4518,
      "Ġservi": 4519,
      "Ġconcepto": 4520,
      "ĠDerechos": 4521,
      "Ġpena": 4522,
      "Ġescen": 4523,
      "tadas": 4524,
      "elmer": 4525,
      "ude": 4526,
      "ĠPrim": 4527,
      "ĠEdu": 4528,
      "ciado": 4529,
      "ĠFran": 4530,
      "Ġaprobando": 4531,
      "ĠCentro": 4532,
      "Ġnombramientos": 4533,
      "bos": 4534,
      "it": 4535,
      "ĠMA": 4536,
      "ĠMorales": 4537,
      "Ġcomprar": 4538,
      "Ġpregunto": 4539,
      "Ġerrores": 4540,
      "ĠcorazÃ³n": 4541,
      "Ġcua": 4542,
      "Ġben": 4543,
      "Ġjunto": 4544,
      "Ġsale": 4545,
      "ĠHum": 4546,
      "Ġnegocio": 4547,
      "Ġpronun": 4548,
      "Ġestrategia": 4549,
      "ĠAUTOR": 4550,
      "iado": 4551,
      "shan": 4552,
      "Ġventa": 4553,
      "cula": 4554,
      "Ġcierre": 4555,
      "Ġluz": 4556,
      "Ġfuerza": 4557,
      "ĠCONTRA": 4558,
      "ĠWelmer": 4559,
      "Ġdiscursos": 4560,
      "ĠPatricia": 4561,
      "nas": 4562,
      "ĠEr": 4563,
      "Ãºs": 4564,
      "Ġcontribuir": 4565,
      "Ġinstrumento": 4566,
      "ĠElecciones": 4567,
      "edades": 4568,
      "didas": 4569,
      "ĠNos": 4570,
      "Ġimpon": 4571,
      "Ġasu": 4572,
      "Ġcalle": 4573,
      "Ġalcanzar": 4574,
      "shank": 4575,
      "Ġelecciones": 4576,
      "ĠpequeÃ±os": 4577,
      "Ġcuer": 4578,
      "Ġjerarcas": 4579,
      "Ġamena": 4580,
      "Ġcontun": 4581,
      "torce": 4582,
      "verdad": 4583,
      "Ġmuerte": 4584,
      "Ġprobablemente": 4585,
      "ĠGonz": 4586,
      "ĠEm": 4587,
      "ĠRosa": 4588,
      "rias": 4589,
      "Ġveh": 4590,
      "aban": 4591,
      "Ġamor": 4592,
      "Ġconsenso": 4593,
      "ickshank": 4594,
      "eas": 4595,
      "ĠgÃ©n": 4596,
      "ĠADICIÃĵN": 4597,
      "Ġtranquil": 4598,
      "ĠreuniÃ³n": 4599,
      "Ġconsecuencia": 4600,
      "lez": 4601,
      "ĠAu": 4602,
      "ĠVI": 4603,
      "Ġpermitan": 4604,
      "Ġirre": 4605,
      "Ġbl": 4606,
      "Ġhayan": 4607,
      "ĠYa": 4608,
      "Ġcarrera": 4609,
      "zong": 4610,
      "tien": 4611,
      "rea": 4612,
      "Ġreel": 4613,
      "Ġperder": 4614,
      "Ġaband": 4615,
      "ourzong": 4616,
      "ĠMo": 4617,
      "Ġdisf": 4618,
      "lesc": 4619,
      "Ġestuvo": 4620,
      "Ġtransitorio": 4621,
      "ĠManuel": 4622,
      "ÃŃsticas": 4623,
      "ĠtendrÃ¡": 4624,
      "Ġfil": 4625,
      "ama": 4626,
      "ĠindÃŃgenas": 4627,
      "ho": 4628,
      "inas": 4629,
      "Ġllegado": 4630,
      "Ġmig": 4631,
      "Ġconduc": 4632,
      "Ġiban": 4633,
      "Ġconsumi": 4634,
      "ĠreflexiÃ³n": 4635,
      "Ġdolor": 4636,
      "FORM": 4637,
      "Ġexac": 4638,
      "ĠSO": 4639,
      "Ġposiblemente": 4640,
      "Ġtomando": 4641,
      "ĠnarcotrÃ¡fico": 4642,
      "Ġperspectiva": 4643,
      "Ġsete": 4644,
      "Ġponen": 4645,
      "Ġargumentos": 4646,
      "eta": 4647,
      "gra": 4648,
      "zgo": 4649,
      "Ġpaci": 4650,
      "Ġpus": 4651,
      "Ġsumar": 4652,
      "ficio": 4653,
      "Ġcovid": 4654,
      "24": 4655,
      "94": 4656,
      "Ġdue": 4657,
      "ĠAS": 4658,
      "Ġpoten": 4659,
      "dremos": 4660,
      "ĠpÃ¡g": 4661,
      "ĠtenÃŃamos": 4662,
      "gada": 4663,
      "Ġanteriormente": 4664,
      "Ġafirmativo": 4665,
      "EMBRE": 4666,
      "oli": 4667,
      "ĠDa": 4668,
      "Ġcorr": 4669,
      "ĠestarÃŃamos": 4670,
      "Ġcompetencias": 4671,
      "Ġhombre": 4672,
      "Ġencuentran": 4673,
      "Ġprofundi": 4674,
      "Ġjefes": 4675,
      "Ġequili": 4676,
      "BI": 4677,
      "RI": 4678,
      "zan": 4679,
      "Ġbo": 4680,
      "baja": 4681,
      "Ġcatorce": 4682,
      "ĠmillÃ³n": 4683,
      "Ġdirecta": 4684,
      "Ġesperamos": 4685,
      "Ġcuido": 4686,
      "Ġciudadano": 4687,
      "Ġestructura": 4688,
      "ĠCO": 4689,
      "Ġmentir": 4690,
      "Ġlegislador": 4691,
      "menes": 4692,
      "Ġfirm": 4693,
      "ĠHabitantes": 4694,
      "Ġrecomendaciones": 4695,
      "Ġatras": 4696,
      "ĠimportantÃŃs": 4697,
      "ĠdistribuciÃ³n": 4698,
      "Ġpare": 4699,
      "Ġpudo": 4700,
      "Ġconvier": 4701,
      "Ġrelaciones": 4702,
      "Ġvigil": 4703,
      "ARROL": 4704,
      "ĠDESARROL": 4705,
      "yo": 4706,
      "Ġeta": 4707,
      "Ġtoca": 4708,
      "Ġadquir": 4709,
      "vis": 4710,
      "Ġfuentes": 4711,
      "Ġregis": 4712,
      "ĠmuchÃŃsimas": 4713,
      "Ġpropiedad": 4714,
      "ozco": 4715,
      "ĠEse": 4716,
      "tÃŃas": 4717,
      "dares": 4718,
      "Ġprivadas": 4719,
      "teller": 4720,
      "ĠMunicipalidad": 4721,
      "ĠMARCO": 4722,
      "ĠEMPLEO": 4723,
      "Ġdedic": 4724,
      "tades": 4725,
      "Ġdijeron": 4726,
      "ĠplanificaciÃ³n": 4727,
      "ĠÃ³rganos": 4728,
      "11": 4729,
      "Ġmadre": 4730,
      "Ġestima": 4731,
      "ĠenseÃ±": 4732,
      "Ġactas": 4733,
      "ĠenergÃŃa": 4734,
      "ĠDESARROLLO": 4735,
      "FICA": 4736,
      "econ": 4737,
      "Ġestabilidad": 4738,
      "Ġexpor": 4739,
      "ĠEsa": 4740,
      "mentaciÃ³n": 4741,
      "Mi": 4742,
      "rir": 4743,
      "ĠÂº": 4744,
      "ĠmodificaciÃ³n": 4745,
      "Ġmodern": 4746,
      "ĠIntegraciÃ³n": 4747,
      "GO": 4748,
      "Ġconden": 4749,
      "cuatro": 4750,
      "Ġtuvieron": 4751,
      "ĠdÃ©ca": 4752,
      "Ġpie": 4753,
      "Ġprofesional": 4754,
      "uales": 4755,
      "Ġom": 4756,
      "Ġbil": 4757,
      "ĠAmbi": 4758,
      "ĠArias": 4759,
      "metros": 4760,
      "104": 4761,
      "Ġremun": 4762,
      "Ġapenas": 4763,
      "gÃ¼en": 4764,
      "wen": 4765,
      "Ġdepor": 4766,
      "Ã¡lez": 4767,
      "ĠFrente": 4768,
      "Ġcasas": 4769,
      "Ġprivados": 4770,
      "Ġniveles": 4771,
      "ĠEconÃ³mico": 4772,
      "Ministro": 4773,
      "ĠrecaudaciÃ³n": 4774,
      "bando": 4775,
      "Ġdific": 4776,
      "Ġglo": 4777,
      "Ġcuen": 4778,
      "Ġvotado": 4779,
      "Ġfuncionario": 4780,
      "ĠARTÃįCULOS": 4781,
      "Ġsolidaridad": 4782,
      "ĠGonzÃ¡lez": 4783,
      "GRA": 4784,
      "esion": 4785,
      "Ġriesgos": 4786,
      "ĠcientÃŃ": 4787,
      "Ġclases": 4788,
      "lando": 4789,
      "Ġvotando": 4790,
      "Ġaproxima": 4791,
      "ĠdejÃ³": 4792,
      "Ġconvenio": 4793,
      "Ġjusto": 4794,
      "Ġlimi": 4795,
      "Ġpeligro": 4796,
      "Ġdespacho": 4797,
      "ĠErwen": 4798,
      "ĠgÃ©nero": 4799,
      "fe": 4800,
      "Ġpadres": 4801,
      "ĠMuy": 4802,
      "Ġvayan": 4803,
      "Ġdep": 4804,
      "ĠelÃ©ctr": 4805,
      "Ġreco": 4806,
      "Ġsentencia": 4807,
      "Ġvivimos": 4808,
      "Ġlamentable": 4809,
      "ĠemprÃ©stito": 4810,
      "ĠvehÃŃculos": 4811,
      "pido": 4812,
      "Ġresta": 4813,
      "brio": 4814,
      "Ġideas": 4815,
      "Ġtransferencias": 4816,
      "orlen": 4817,
      "Ġsel": 4818,
      "tulos": 4819,
      "Ġcredi": 4820,
      "ĠmontÃ³n": 4821,
      "Ġtrascen": 4822,
      "Ġesperar": 4823,
      "Ġdemues": 4824,
      "Ġhueco": 4825,
      "INIS": 4826,
      "Ġdefinir": 4827,
      "olÃ³gico": 4828,
      "Ġ32": 4829,
      "Ġrazona": 4830,
      "ĠpequeÃ±as": 4831,
      "ĠMarch": 4832,
      "iti": 4833,
      "Ġdebo": 4834,
      "Ã¡nd": 4835,
      "Ġprincipales": 4836,
      "icep": 4837,
      "Ġincluyendo": 4838,
      "Ġrurales": 4839,
      "ĠPan": 4840,
      "ĠHos": 4841,
      "Ġllegue": 4842,
      "Ġochocientos": 4843,
      "Ġcelebro": 4844,
      "Ġahorro": 4845,
      "Ġmunicipales": 4846,
      "ĠDirectiva": 4847,
      "iles": 4848,
      "Ġconsol": 4849,
      "Ġsuscri": 4850,
      "Ġorien": 4851,
      "Ġpreocupante": 4852,
      "Ġenfo": 4853,
      "Ġaprobada": 4854,
      "Ġadministrativa": 4855,
      "ĠPresupuesto": 4856,
      "olina": 4857,
      "ĠPi": 4858,
      "ĠestÃ¡bamos": 4859,
      "Ġrefiere": 4860,
      "ĠrepresentaciÃ³n": 4861,
      "Ġsostenible": 4862,
      "Ġmovil": 4863,
      "ĠRamÃ³n": 4864,
      "ĠquiÃ©nes": 4865,
      "Ġencontramos": 4866,
      "bonos": 4867,
      "ionar": 4868,
      "Ġpropor": 4869,
      "Ġexter": 4870,
      "Ġresguar": 4871,
      "Ġejercer": 4872,
      "Ġrecortar": 4873,
      "Ġpropios": 4874,
      "ĠAmplio": 4875,
      "ĠEduardo": 4876,
      "cante": 4877,
      "ecÃŃa": 4878,
      "Ġcasualmente": 4879,
      "Ġabus": 4880,
      "Ã¡cter": 4881,
      "talecimiento": 4882,
      "gÃŃa": 4883,
      "imientos": 4884,
      "ĠPAN": 4885,
      "Ġveci": 4886,
      "Ġfavora": 4887,
      "Ġcomercio": 4888,
      "tida": 4889,
      "torias": 4890,
      "ĠInÃ©s": 4891,
      "egio": 4892,
      "ĠagrÃŃcol": 4893,
      "Ġonce": 4894,
      "citas": 4895,
      "Ġsue": 4896,
      "Ġrespuestas": 4897,
      "Ġdemostrado": 4898,
      "ĠColegio": 4899,
      "DAD": 4900,
      "Ġeleg": 4901,
      "Ġsola": 4902,
      "ĠFE": 4903,
      "ĠJor": 4904,
      "Ġejecutar": 4905,
      "Ġurgencia": 4906,
      "ĠespecÃŃficamente": 4907,
      "Ġagropecu": 4908,
      "90": 4909,
      "dÃŃ": 4910,
      "Ã¡tico": 4911,
      "ĠCristiana": 4912,
      "Ġbonos": 4913,
      "Ġcasti": 4914,
      "Ġfrase": 4915,
      "Ġgenerado": 4916,
      "ĠdemocrÃ¡tico": 4917,
      "ĠHumanos": 4918,
      "Ġech": 4919,
      "pecial": 4920,
      "ĠTur": 4921,
      "Ġdiscusiones": 4922,
      "ĠFortalecimiento": 4923,
      "laj": 4924,
      "Ġbal": 4925,
      "ensiÃ³n": 4926,
      "Ġnove": 4927,
      "Ġdisminuir": 4928,
      "Ġeurobonos": 4929,
      "nes": 4930,
      "Ġinj": 4931,
      "Ġquitar": 4932,
      "gresi": 4933,
      "Ġub": 4934,
      "ÃºÃ±ez": 4935,
      "Uste": 4936,
      "ĠEmp": 4937,
      "entado": 4938,
      "Ġcampo": 4939,
      "Ġterritorios": 4940,
      "Ġaportar": 4941,
      "Ġcausa": 4942,
      "Ġmatrimonio": 4943,
      "ĠTÃ©cnicos": 4944,
      "Ġcab": 4945,
      "183": 4946,
      "gÃ¼enza": 4947,
      "68": 4948,
      "tÃ©g": 4949,
      "ĠNÃºÃ±ez": 4950,
      "irle": 4951,
      "Ġasuntos": 4952,
      "INTER": 4953,
      "Ġbrindar": 4954,
      "Ġtrasladar": 4955,
      "itario": 4956,
      "Ġtratando": 4957,
      "Ġsome": 4958,
      "ĠtÃŃtulo": 4959,
      "Ġvino": 4960,
      "ĠGourzong": 4961,
      "Ġanti": 4962,
      "Ġmarch": 4963,
      "ĠcarÃ¡cter": 4964,
      "Ġbanc": 4965,
      "ĠÃŃndic": 4966,
      "54": 4967,
      "ĠCivil": 4968,
      "Ġperdido": 4969,
      "illos": 4970,
      "Ġindisp": 4971,
      "VENCIÃĵN": 4972,
      "th": 4973,
      "vaciÃ³n": 4974,
      "roga": 4975,
      "riÃ³": 4976,
      "Ġarti": 4977,
      "ĠCona": 4978,
      "Ã³rum": 4979,
      "ĠZona": 4980,
      "Ġarreglar": 4981,
      "ean": 4982,
      "Ġhar": 4983,
      "Ġign": 4984,
      "ĠNueva": 4985,
      "Ġquiera": 4986,
      "Ġcalifica": 4987,
      "Ġfinancieros": 4988,
      "Ġindispensa": 4989,
      "MAS": 4990,
      "dÃŃan": 4991,
      "jado": 4992,
      "Ġelabor": 4993,
      "Ġconsci": 4994,
      "Ġrealizado": 4995,
      "Ġnecesariamente": 4996,
      "Ġempleados": 4997,
      "Ġconvertir": 4998,
      "TAL": 4999,
      "eÃ±": 5000,
      "ĠcuÃ³rum": 5001,
      "ĠAna": 5002,
      "Ġganan": 5003,
      "ĠcontenciÃ³n": 5004,
      "ĠmÃ©dico": 5005,
      "Ġcarretera": 5006,
      "Ġcombusti": 5007,
      "Cos": 5008,
      "arlo": 5009,
      "Ġrepe": 5010,
      "Ġasis": 5011,
      "Ġdoble": 5012,
      "ĠniÃ±ez": 5013,
      "Ġencontrar": 5014,
      "Ġpublicidad": 5015,
      "ĠestratÃ©g": 5016,
      "ĠpresiÃ³n": 5017,
      "ĠCan": 5018,
      "Ġexplo": 5019,
      "Ġoficio": 5020,
      "Ġdestino": 5021,
      "Ġfacul": 5022,
      "cina": 5023,
      "tec": 5024,
      "Ġvic": 5025,
      "Ġdelitos": 5026,
      "enses": 5027,
      "iberto": 5028,
      "Ġsubsi": 5029,
      "Ġrecuerdo": 5030,
      "704": 5031,
      "Ġpier": 5032,
      "Ġhor": 5033,
      "Ġaleg": 5034,
      "Ġdigan": 5035,
      "Ġido": 5036,
      "Ġjor": 5037,
      "Ġmedia": 5038,
      "Ġmanifesta": 5039,
      "Ġdejando": 5040,
      "ĠPers": 5041,
      "ĠHeriberto": 5042,
      "Ġtrece": 5043,
      "ĠCruickshank": 5044,
      "Ġdificulta": 5045,
      "orleny": 5046,
      "An": 5047,
      "Ġ0": 5048,
      "Ġmulti": 5049,
      "Ġgraves": 5050,
      "Ġcumple": 5051,
      "Ġcreer": 5052,
      "Ġabo": 5053,
      "Ġveinticuatro": 5054,
      "ĠOrgan": 5055,
      "ĠhistÃ³ric": 5056,
      "af": 5057,
      "tificar": 5058,
      "Ġherramienta": 5059,
      "ĠnaciÃ³n": 5060,
      "Ġinm": 5061,
      "Ġcuo": 5062,
      "ĠAG": 5063,
      "ĠAlaj": 5064,
      "Ġcateg": 5065,
      "Ġinvestigar": 5066,
      "Ġmencionado": 5067,
      "ĠgustarÃŃa": 5068,
      "Ġtrami": 5069,
      "ĠÃ¡mbito": 5070,
      "com": 5071,
      "sas": 5072,
      "entaciÃ³n": 5073,
      "Ġhacerle": 5074,
      "ĠvergÃ¼enza": 5075,
      "ĠpolÃŃticoDiputado": 5076,
      "Ġafectados": 5077,
      "Ġpreguntas": 5078,
      "Ġnoticia": 5079,
      "FICACIÃĵN": 5080,
      "zca": 5081,
      "ĠNO": 5082,
      "ĠSiste": 5083,
      "Ġprepar": 5084,
      "Ġplenario": 5085,
      "ĠpodrÃ¡": 5086,
      "Ġbuscando": 5087,
      "Ġinstrumentos": 5088,
      "MIENTO": 5089,
      "Ġderiv": 5090,
      "ĠJorge": 5091,
      "acer": 5092,
      "Ġrespetar": 5093,
      "ĠcapacitaciÃ³n": 5094,
      "Ġresponder": 5095,
      "Ġhonor": 5096,
      "ĠQuir": 5097,
      "Ġsigan": 5098,
      "Ġtriste": 5099,
      "Ġexpec": 5100,
      "Ġlogramos": 5101,
      "Ġrecuper": 5102,
      "Ġinclusive": 5103,
      "ĠdisminuciÃ³n": 5104,
      "Ġglobal": 5105,
      "Don": 5106,
      "lvar": 5107,
      "Ġger": 5108,
      "izados": 5109,
      "ordinarios": 5110,
      "Ġanual": 5111,
      "Ġcarga": 5112,
      "Ġoro": 5113,
      "Ġcompromisos": 5114,
      "Ġamplia": 5115,
      "ĠÃģlvar": 5116,
      "ĠSuprema": 5117,
      "Ġcolegios": 5118,
      "ĠreelecciÃ³n": 5119,
      "esa": 5120,
      "Ġexpe": 5121,
      "Ġcalles": 5122,
      "ĠEnrique": 5123,
      "Ġparticipar": 5124,
      "ĠtendrÃŃa": 5125,
      "Presidente": 5126,
      "pir": 5127,
      "ÃŃsimo": 5128,
      "ĠSteller": 5129,
      "Ġvenimos": 5130,
      "Ġrefiero": 5131,
      "Ġsetecientos": 5132,
      "Ġdamos": 5133,
      "tribu": 5134,
      "Ġtierra": 5135,
      "ĠMel": 5136,
      "ĠORDINARIO": 5137,
      "ĠmÃ¡x": 5138,
      "Ġequilibrio": 5139,
      "ĠQuirÃ³s": 5140,
      "Ġdelito": 5141,
      "Ġbis": 5142,
      "Ġprimeros": 5143,
      "ĠMujer": 5144,
      "ĠCascante": 5145,
      "Ġlimita": 5146,
      "ĠrÃ¡pido": 5147,
      "Ġigualmente": 5148,
      "Ġfines": 5149,
      "Ġpresentamos": 5150,
      "ĠcontinÃº": 5151,
      "Ġpropone": 5152,
      "Ġprueba": 5153,
      "Ġalternativas": 5154,
      "Ġaltas": 5155,
      "Ġmetas": 5156,
      "ĠUP": 5157,
      "Ġimposible": 5158,
      "cÃ³mo": 5159,
      "Ġinno": 5160,
      "ĠEspecial": 5161,
      "vidu": 5162,
      "Ġplazos": 5163,
      "ĠSeÃ±": 5164,
      "Ġcifras": 5165,
      "ĠFINANCI": 5166,
      "ĠMuchas": 5167,
      "ĠHospital": 5168,
      "timas": 5169,
      "ÃŃtulo": 5170,
      "lex": 5171,
      "Ġimpi": 5172,
      "Ġsentir": 5173,
      "elsen": 5174,
      "Ġrecientemente": 5175,
      "ĠINTER": 5176,
      "Ġdineros": 5177,
      "zada": 5178,
      "ing": 5179,
      "dencial": 5180,
      "ĠproblemÃ¡tica": 5181,
      "Ġverdadera": 5182,
      "Ġautoridad": 5183,
      "ĠTrans": 5184,
      "Ġaproximadamente": 5185,
      "ĠMarchena": 5186,
      "ele": 5187,
      "Ġperten": 5188,
      "ĠNaciÃ³n": 5189,
      "Ġaper": 5190,
      "Ġtransparente": 5191,
      "ĠJuan": 5192,
      "Ġblo": 5193,
      "Ġhice": 5194,
      "Ġdestru": 5195,
      "Ġgeneran": 5196,
      "ĠgarantÃŃa": 5197,
      "Ġenfermedad": 5198,
      "ĠUPAD": 5199,
      "vado": 5200,
      "enci": 5201,
      "Ġconec": 5202,
      "pitales": 5203,
      "Ġciudadana": 5204,
      "Ġ963": 5205,
      "ĠespecÃŃfico": 5206,
      "Ġinvito": 5207,
      "Ġabierto": 5208,
      "Ġbill": 5209,
      "ĠPiÃ±a": 5210,
      "cÃ³": 5211,
      "todo": 5212,
      "ĠGuti": 5213,
      "Ġagrade": 5214,
      "Ġvigencia": 5215,
      "Ġocupa": 5216,
      "Ġpruebas": 5217,
      "88": 5218,
      "gÃ¡n": 5219,
      "Ġdescu": 5220,
      "Ġindividu": 5221,
      "ĠmÃ©dicos": 5222,
      "...": 5223,
      "Ġdestacar": 5224,
      "Ġcomplica": 5225,
      "Ġespeci": 5226,
      "ĠMontero": 5227,
      "ian": 5228,
      "Ġescas": 5229,
      "ĠGÃ³m": 5230,
      "ĠTo": 5231,
      "Ġtercer": 5232,
      "ciller": 5233,
      "ĠGÃ³mez": 5234,
      "NO": 5235,
      "Ġtocar": 5236,
      "roz": 5237,
      "Ã©dito": 5238,
      "Ġeducativa": 5239,
      "Ã©ndole": 5240,
      "arnos": 5241,
      "Ġhambre": 5242,
      "ĠPen": 5243,
      "ĠeconÃ³micas": 5244,
      "Ġreglas": 5245,
      "Ġbanco": 5246,
      "Ġadecuada": 5247,
      "Ġnoticias": 5248,
      "ĠAPRO": 5249,
      "ĠViales": 5250,
      "tim": 5251,
      "Ġpagan": 5252,
      "brir": 5253,
      "Ġreno": 5254,
      "Ġreitero": 5255,
      "ĠacompaÃ±amiento": 5256,
      "Ġherm": 5257,
      "Ġpuertas": 5258,
      "ĠGran": 5259,
      "brera": 5260,
      "Ġcoher": 5261,
      "ĠpequeÃ±o": 5262,
      "MO": 5263,
      "viendo": 5264,
      "ĠÃĵ": 5265,
      "didos": 5266,
      "iernes": 5267,
      "Ġministros": 5268,
      "Ġprovincias": 5269,
      "Ġrecibido": 5270,
      "SeÃ±ora": 5271,
      "ĠÃģn": 5272,
      "Ġcurul": 5273,
      "ĠAlajuela": 5274,
      "ĠGutiÃ©r": 5275,
      "Par": 5276,
      "VO": 5277,
      "Ġk": 5278,
      "Ġfamos": 5279,
      "Ġproce": 5280,
      "Ġproducir": 5281,
      "depl": 5282,
      "Ġimpe": 5283,
      "Ġvial": 5284,
      "208": 5285,
      "Ġminuto": 5286,
      "ĠhabrÃ¡": 5287,
      "Ġalcaldes": 5288,
      "ĠAmÃ©rica": 5289,
      "ĠMelvin": 5290,
      "ĠGutiÃ©rrez": 5291,
      "torial": 5292,
      "Ġinterna": 5293,
      "ĠrendiciÃ³n": 5294,
      "Ġdeterminar": 5295,
      "Les": 5296,
      "Ġmol": 5297,
      "lada": 5298,
      "ĠpodrÃ¡n": 5299,
      "OPT": 5300,
      "ĠServicio": 5301,
      "TEN": 5302,
      "Ã©ndose": 5303,
      "Ġresca": 5304,
      "Ġescuela": 5305,
      "Ġinteresa": 5306,
      "ĠMODI": 5307,
      "Costa": 5308,
      "Ġfom": 5309,
      "Ġsusten": 5310,
      "parta": 5311,
      "Ġdejado": 5312,
      "ĠtendrÃ¡n": 5313,
      "Ġasegurar": 5314,
      "ĠFEES": 5315,
      "deplÃ¡n": 5316,
      "Ġordinario": 5317,
      "Ġrela": 5318,
      "Ġofer": 5319,
      "ĠMOPT": 5320,
      "Ġpartidas": 5321,
      "Ġexpresidente": 5322,
      "ĠCabrera": 5323,
      "Ġplanes": 5324,
      "ĠhistÃ³rico": 5325,
      "arÃ³n": 5326,
      "ariales": 5327,
      "ĠYorleny": 5328,
      "ĠVar": 5329,
      "Ġpermitido": 5330,
      "colar": 5331,
      "Ġaumen": 5332,
      "Ġcelebr": 5333,
      "ĠSEÃĳ": 5334,
      "ĠpÃ©rdida": 5335,
      "edores": 5336,
      "Ġmas": 5337,
      "Ġbur": 5338,
      "bado": 5339,
      "acciÃ³n": 5340,
      "Ġquerer": 5341,
      "Ġpendientes": 5342,
      "ĠevaluaciÃ³n": 5343,
      "ĠPANI": 5344,
      "CL": 5345,
      "bel": 5346,
      "Ġretos": 5347,
      "Ġapre": 5348,
      "Ġprofes": 5349,
      "Ġsostener": 5350,
      "Ġsecre": 5351,
      "Ã¡vi": 5352,
      "icios": 5353,
      "ĠTER": 5354,
      "ĠvenÃŃa": 5355,
      "ĠExtraordinario": 5356,
      "Ġbloque": 5357,
      "YO": 5358,
      "ĠAN": 5359,
      "Ġbara": 5360,
      "ĠMÃ©": 5361,
      "Ġregiones": 5362,
      "Ġcompleto": 5363,
      "ĠPenal": 5364,
      "Ã¡vit": 5365,
      "NS": 5366,
      "Ġdeporte": 5367,
      "tudes": 5368,
      "Ġestatal": 5369,
      "Ġtantos": 5370,
      "Ġquedado": 5371,
      "Ġformal": 5372,
      "IENTO": 5373,
      "Ġenca": 5374,
      "ĠEjer": 5375,
      "ĠNorte": 5376,
      "Ġdesas": 5377,
      "Ġcompren": 5378,
      "Ġhumana": 5379,
      "ĠÃºltimas": 5380,
      "ĠsuperÃ¡vit": 5381,
      "ĠengaÃ±": 5382,
      "ĠSEÃĳOR": 5383,
      "intelig": 5384,
      "aril": 5385,
      "ĠNom": 5386,
      "logÃŃa": 5387,
      "Ġpreven": 5388,
      "ĠFinanzas": 5389,
      "inteligible": 5390,
      "san": 5391,
      "ecemos": 5392,
      "Ġpartida": 5393,
      "grama": 5394,
      "Ġpuente": 5395,
      "Ġsanitaria": 5396,
      "Ġbruto": 5397,
      "lor": 5398,
      "tig": 5399,
      "Ġele": 5400,
      "Ġfren": 5401,
      "ĠAgu": 5402,
      "Ġvital": 5403,
      "Ġempresarios": 5404,
      "Ġpreocupaciones": 5405,
      "Ġordenamiento": 5406,
      "Ġtrabajador": 5407,
      "Ġabsoluta": 5408,
      "Ġreiterar": 5409,
      "Ġmaterial": 5410,
      "ĠliquidaciÃ³n": 5411,
      "Ġabandono": 5412,
      "Ġvoc": 5413,
      "Ġcreen": 5414,
      "ĠInf": 5415,
      "Ġmanifi": 5416,
      "net": 5417,
      "ĠtÃŃtulos": 5418,
      "Ġincumplimiento": 5419,
      "tizaciÃ³n": 5420,
      "ĠAutor": 5421,
      "Ġmanifestaciones": 5422,
      "ĠÃģngel": 5423,
      "72": 5424,
      "Ġcens": 5425,
      "icÃŃa": 5426,
      "Ġacceder": 5427,
      "Ġtrib": 5428,
      "Ġdevolver": 5429,
      "Ġescenario": 5430,
      "Ġdisfru": 5431,
      "ĠSistema": 5432,
      "15": 5433,
      "Voy": 5434,
      "ron": 5435,
      "amp": 5436,
      "ĠDani": 5437,
      "Ġactores": 5438,
      "ĠCrucitas": 5439,
      "ĠEmerg": 5440,
      "ĠEjercicio": 5441,
      "rÃ©dito": 5442,
      "eno": 5443,
      "ĠAD": 5444,
      "Ġconsta": 5445,
      "ĠCons": 5446,
      "ĠContra": 5447,
      "Ġbaja": 5448,
      "Ġimplementar": 5449,
      "igo": 5450,
      "resiÃ³n": 5451,
      "Ġestan": 5452,
      "illo": 5453,
      "Ġafirmativamente": 5454,
      "ficia": 5455,
      "inario": 5456,
      "Ġseamos": 5457,
      "Ġmitad": 5458,
      "Ġpesqu": 5459,
      "Ġpatrimonio": 5460,
      "Ġofre": 5461,
      "ĠAmbiente": 5462,
      "asto": 5463,
      "tizar": 5464,
      "dimiento": 5465,
      "usta": 5466,
      "Ġsalarial": 5467,
      "Ġobtener": 5468,
      "AMIENTO": 5469,
      "Ġexactamente": 5470,
      "cto": 5471,
      "ime": 5472,
      "ÃŃstica": 5473,
      "Ġusu": 5474,
      "Ġllegan": 5475,
      "Ġlegales": 5476,
      "ĠEconÃ³micos": 5477,
      "Ġpromedio": 5478,
      "ĠDaniel": 5479,
      "inalmente": 5480,
      "ĠvacunaciÃ³n": 5481,
      "Ġatacar": 5482,
      "Ġnegativo": 5483,
      "Ġsimilar": 5484,
      "ĠDec": 5485,
      "Ġbon": 5486,
      "Ġpase": 5487,
      "Ġvea": 5488,
      "Ġproductivos": 5489,
      "ĠespecÃŃficos": 5490,
      "Ġvecinos": 5491,
      "Ġojos": 5492,
      "ĠEstamos": 5493,
      "Ġarras": 5494,
      "Ġvender": 5495,
      "Ġabra": 5496,
      "olÃ³gica": 5497,
      "ific": 5498,
      "Ġentidad": 5499,
      "ĠcuÃ¡ndo": 5500,
      "Ġcree": 5501,
      "ĠTenemos": 5502,
      "Ġrecin": 5503,
      "Ġinvier": 5504,
      "ĠpresentaciÃ³n": 5505,
      "Ġconsiderar": 5506,
      "Ġenviar": 5507,
      "Ġhospital": 5508,
      "ĠdÃ©cadas": 5509,
      "ĠÃģlvarez": 5510,
      "cÃŃa": 5511,
      "dÃ©m": 5512,
      "igu": 5513,
      "sos": 5514,
      "Ġparque": 5515,
      "esionar": 5516,
      "Ġquiz": 5517,
      "Ġconstruy": 5518,
      "Ġsanciones": 5519,
      "Ġmanifestado": 5520,
      "Hace": 5521,
      "pero": 5522,
      "ENER": 5523,
      "ĠREGL": 5524,
      "Ġcompartir": 5525,
      "Ġaportes": 5526,
      "Ġofrec": 5527,
      "Ġconflicto": 5528,
      "Ġprotocolo": 5529,
      "jera": 5530,
      "Ġesco": 5531,
      "Ã¡bamos": 5532,
      "Ġalar": 5533,
      "Ġbarr": 5534,
      "Ġdiferencias": 5535,
      "ĠNielsen": 5536,
      "Ġincorporar": 5537,
      "Ġevidentemente": 5538,
      "64": 5539,
      "uera": 5540,
      "ininteligible": 5541,
      "Ġhacerse": 5542,
      "Ġinsegu": 5543,
      "Ġ2016": 5544,
      "Ġbeneficiar": 5545,
      "Ġuniversidad": 5546,
      "He": 5547,
      "Ġacum": 5548,
      "Ġplanteando": 5549,
      "Ġbeneficia": 5550,
      "Ġconstitucionales": 5551,
      "Ġtermina": 5552,
      "Ġvigente": 5553,
      "Ġconformidad": 5554,
      "Ġpermanente": 5555,
      "AF": 5556,
      "Ġprovo": 5557,
      "Ġexplica": 5558,
      "Ġnormal": 5559,
      "Ġextrema": 5560,
      "ĠvÃŃctimas": 5561,
      "Ġetapa": 5562,
      "ĠPanamÃ¡": 5563,
      "Ġtome": 5564,
      "Ġ2010": 5565,
      "ĠsaliÃ³": 5566,
      "Ġalcalde": 5567,
      "SON": 5568,
      "osos": 5569,
      "Ġcuidar": 5570,
      "Ġsig": 5571,
      "ĠprevenciÃ³n": 5572,
      "Ġestudiar": 5573,
      "ĠgarantÃŃas": 5574,
      "Ġdeclaraciones": 5575,
      "ĠTRANS": 5576,
      "Ġtarifas": 5577,
      "agner": 5578,
      "155": 5579,
      "pora": 5580,
      "Ġmic": 5581,
      "Ġmora": 5582,
      "Ġparal": 5583,
      "Ġcuesta": 5584,
      "Ġverdadero": 5585,
      "Ġposiciones": 5586,
      "ĠWagner": 5587,
      "ĠMODIFICACIÃĵN": 5588,
      "ĠNombr": 5589,
      "Ġraci": 5590,
      "Ġpreci": 5591,
      "ĠlogrÃ³": 5592,
      "Ġconsidero": 5593,
      "Ġdiecisiete": 5594,
      "ĠPERSON": 5595,
      "Ġindispensable": 5596,
      "gon": 5597,
      "portes": 5598,
      "Ġhablan": 5599,
      "Ġponga": 5600,
      "Ġfirmar": 5601,
      "Ġpudiera": 5602,
      "ĠMundial": 5603,
      "Ġirresponsabilidad": 5604,
      "ĠCONSTITU": 5605,
      "Ġcircunstancias": 5606,
      "ĠKar": 5607,
      "Ġliderazgo": 5608,
      "Ġignor": 5609,
      "Ġcru": 5610,
      "reaciÃ³n": 5611,
      "Ġretir": 5612,
      "Ġdescar": 5613,
      "ventud": 5614,
      "TACIÃĵN": 5615,
      "Ġopciones": 5616,
      "Ġentendido": 5617,
      "SeÃ±oras": 5618,
      "Ġadecuado": 5619,
      "Ġlevantar": 5620,
      "ĠDÃŃaz": 5621,
      "Ġdur": 5622,
      "ulas": 5623,
      "ĠniÃ±o": 5624,
      "Ġfuerzas": 5625,
      "Ġtotalidad": 5626,
      "Ġexistir": 5627,
      "Ġclim": 5628,
      "Ġlogra": 5629,
      "ĠjurÃŃdicas": 5630,
      "Ġvacunas": 5631,
      "ĠAUTORIZACIÃĵN": 5632,
      "Ġgi": 5633,
      "Ġactitud": 5634,
      "Ġsaludo": 5635,
      "Ġafectando": 5636,
      "Ġlegislar": 5637,
      "icaciones": 5638,
      "acia": 5639,
      "ĠDis": 5640,
      "ĠserÃ¡n": 5641,
      "Ġseguros": 5642,
      "Ġeducadores": 5643,
      "Ġprioridades": 5644,
      "Ġbillones": 5645,
      "AP": 5646,
      "fÃ©": 5647,
      "operaciÃ³n": 5648,
      "tana": 5649,
      "ĠSh": 5650,
      "ĠLegisla": 5651,
      "Ġclaras": 5652,
      "onadas": 5653,
      "ĠpresentÃ©": 5654,
      "AMBLE": 5655,
      "Ġcompetitividad": 5656,
      "Ġpotencial": 5657,
      "AMBLEA": 5658,
      "Vamos": 5659,
      "ecas": 5660,
      "blos": 5661,
      "ĠRoc": 5662,
      "Ġtitu": 5663,
      "ĠINA": 5664,
      "eguir": 5665,
      "Ġgusto": 5666,
      "Ġrelevan": 5667,
      "ĠASAMBLEA": 5668,
      "Ġreduci": 5669,
      "radas": 5670,
      "ĠIMAS": 5671,
      "Ġfuente": 5672,
      "Ġorganismos": 5673,
      "2376": 5674,
      "Ġseriedad": 5675,
      "Ġahorita": 5676,
      "Ġorgullos": 5677,
      "Ġfacilitar": 5678,
      "irley": 5679,
      "Ġapertura": 5680,
      "vante": 5681,
      "diza": 5682,
      "Ġsalen": 5683,
      "Ġpasan": 5684,
      "Ġcapa": 5685,
      "ĠComo": 5686,
      "ĠhabÃŃamos": 5687,
      "Ġindign": 5688,
      "Ġsucede": 5689,
      "Ġsustitutivo": 5690,
      "Ġterreno": 5691,
      "ĠOrganizaciÃ³n": 5692,
      "bemos": 5693,
      "Ġpuso": 5694,
      "Ġescolar": 5695,
      "Ġenter": 5696,
      "Ġtex": 5697,
      "Ġ36": 5698,
      "ĠraÃŃ": 5699,
      "Ġapoyando": 5700,
      "Ġfirmado": 5701,
      "Ġninguno": 5702,
      "REACIÃĵN": 5703,
      "Ġmodificaciones": 5704,
      "Ġpescadores": 5705,
      "ĠCuando": 5706,
      "gÃ¡nica": 5707,
      "ĠNombramientos": 5708,
      "ĠRocÃŃo": 5709,
      "LACIÃĵN": 5710,
      "scar": 5711,
      "ĠcÃ¡": 5712,
      "Ġconce": 5713,
      "ultura": 5714,
      "rimen": 5715,
      "Ġlabores": 5716,
      "Ġbrecha": 5717,
      "ĠpÃ¡gina": 5718,
      "ĠShirley": 5719,
      "Ġcem": 5720,
      "Ġbor": 5721,
      "Ġexista": 5722,
      "Ġtratado": 5723,
      "medi": 5724,
      "Ġtratamiento": 5725,
      "Ġtrabajado": 5726,
      "Ġvulnerabilidad": 5727,
      "ĠcapÃŃtulo": 5728,
      "Ġadolesc": 5729,
      "Ġpopular": 5730,
      "Ġblan": 5731,
      "pciÃ³n": 5732,
      "erto": 5733,
      "Ġcoy": 5734,
      "ecn": 5735,
      "Ġestad": 5736,
      "Ã©ndez": 5737,
      "trop": 5738,
      "Ġjo": 5739,
      "Ġcontamin": 5740,
      "lique": 5741,
      "Ġmoral": 5742,
      "Ġpotestad": 5743,
      "Ġpronunci": 5744,
      "IA": 5745,
      "baciÃ³n": 5746,
      "cero": 5747,
      "ĠdetrÃ¡s": 5748,
      "ĠSur": 5749,
      "Ġacor": 5750,
      "pone": 5751,
      "curso": 5752,
      "Ġrelig": 5753,
      "Ġestructurales": 5754,
      "Ġfelicitar": 5755,
      "Ġ9635": 5756,
      "visiÃ³n": 5757,
      "Ġbe": 5758,
      "ĠAsoci": 5759,
      "Ġrepro": 5760,
      "ĠconcesiÃ³n": 5761,
      "Ġsolicitar": 5762,
      "Ġjustificar": 5763,
      "Ġmenciona": 5764,
      "CompaÃ±eras": 5765,
      "econÃ³m": 5766,
      "ĠEmpleo": 5767,
      "tivar": 5768,
      "Ġmul": 5769,
      "laro": 5770,
      "Ġmaes": 5771,
      "Ġllevan": 5772,
      "Ġfuturas": 5773,
      "ĠviolaciÃ³n": 5774,
      "Ġasesores": 5775,
      "Ġagregar": 5776,
      "ĠDavid": 5777,
      "edia": 5778,
      "jando": 5779,
      "tamiento": 5780,
      "tidas": 5781,
      "Ġrecur": 5782,
      "ĠMario": 5783,
      "Ġapel": 5784,
      "ĠTecn": 5785,
      "Ġexcluy": 5786,
      "Ġmuestra": 5787,
      "Ġcredibilidad": 5788,
      "53": 5789,
      "DUC": 5790,
      "Ġdomin": 5791,
      "Ġdedica": 5792,
      "Ġvis": 5793,
      "Ġdespro": 5794,
      "Ġpresencia": 5795,
      "iados": 5796,
      "Ġdecimos": 5797,
      "Ġcualquiera": 5798,
      "Ġpermiten": 5799,
      "Ġcumpliendo": 5800,
      "Ġafuera": 5801,
      "Ġjustifica": 5802,
      "ĠInternet": 5803,
      "Ġelemento": 5804,
      "raciÃ³n": 5805,
      "ÃŃmenes": 5806,
      "Ġejemplos": 5807,
      "Ġkil": 5808,
      "ejo": 5809,
      "roso": 5810,
      "ervar": 5811,
      "Ġimpro": 5812,
      "ĠGasto": 5813,
      "poca": 5814,
      "Ġrecibo": 5815,
      "Ġreciben": 5816,
      "Ġavanzando": 5817,
      "Ġcontroles": 5818,
      "ervaciÃ³n": 5819,
      "ĠelectrÃ³n": 5820,
      "partamento": 5821,
      "Ġentes": 5822,
      "icar": 5823,
      "Ġpertin": 5824,
      "Ġapla": 5825,
      "Ġconstante": 5826,
      "Ġdecidir": 5827,
      "ĠhablÃ³": 5828,
      "Ġextraordinarios": 5829,
      "Ġnorte": 5830,
      "Ġmerecen": 5831,
      "ĠÃ©poca": 5832,
      "ĠordinariasPrimera": 5833,
      "Ġsacri": 5834,
      "tÃ¡n": 5835,
      "Ġviernes": 5836,
      "ĠCer": 5837,
      "cuÃ¡l": 5838,
      "Ġbecas": 5839,
      "ĠSus": 5840,
      "Ġacog": 5841,
      "Ġacoso": 5842,
      "Ġvotamos": 5843,
      "Ġvidas": 5844,
      "ĠcamarÃ³n": 5845,
      "Ġdarse": 5846,
      "Ġcobr": 5847,
      "Ġreconoce": 5848,
      "Ġcompras": 5849,
      "Ġconfir": 5850,
      "ĠacadÃ©m": 5851,
      "Ġpuerta": 5852,
      "Ġsecreto": 5853,
      "ĠVargas": 5854,
      "Ġcla": 5855,
      "ladares": 5856,
      "Ġsalvar": 5857,
      "Ġdiscutido": 5858,
      "Ġvalen": 5859,
      "Ġavances": 5860,
      "Ġinvestiga": 5861,
      "Ġjuicio": 5862,
      "Ġaspecto": 5863,
      "Ġfamiliares": 5864,
      "98": 5865,
      "zÃ³": 5866,
      "Ġsepar": 5867,
      "Ġlejos": 5868,
      "Ġadj": 5869,
      "Ġsolucionar": 5870,
      "ĠValladares": 5871,
      "Ġconocemos": 5872,
      "ĠdemocrÃ¡tica": 5873,
      "Ġausencia": 5874,
      "Ġdemas": 5875,
      "ciles": 5876,
      "ÃŃos": 5877,
      "Ġexcu": 5878,
      "Ġjefa": 5879,
      "Ġrequisito": 5880,
      "americano": 5881,
      "Ġinseguridad": 5882,
      "pan": 5883,
      "Ġton": 5884,
      "Ġamp": 5885,
      "tira": 5886,
      "Ġentra": 5887,
      "Ġfer": 5888,
      "Ġprogresi": 5889,
      "Ġmez": 5890,
      "ĠMÃ©ndez": 5891,
      "Ġpendiente": 5892,
      "Ġconcretas": 5893,
      "Ġremuner": 5894,
      "Ġenfoque": 5895,
      "Ġcoyun": 5896,
      "Ġcrimen": 5897,
      "ĠoperaciÃ³n": 5898,
      "culaciÃ³n": 5899,
      "ĠRiv": 5900,
      "ĠGENER": 5901,
      "ĠReformas": 5902,
      "ĠLatina": 5903,
      "Ġeviden": 5904,
      "Ġsolicito": 5905,
      "Ġalcanza": 5906,
      "Ġgusta": 5907,
      "ĠLegislativo": 5908,
      "aro": 5909,
      "ĠhacÃŃa": 5910,
      "Ġrol": 5911,
      "ĠConvenciÃ³n": 5912,
      "ĠesperarÃŃa": 5913,
      "Ġcelebrar": 5914,
      "Ġdignidad": 5915,
      "ĠEXTRAORDINARIA": 5916,
      "Ġtranquilidad": 5917,
      "ĠÃĵscar": 5918,
      "erti": 5919,
      "Ġnu": 5920,
      "ĠCarolina": 5921,
      "Ġlegalidad": 5922,
      "ĠpequeÃ±a": 5923,
      "Ġoriginal": 5924,
      "Ġpareciera": 5925,
      "Ġfrancas": 5926,
      "inch": 5927,
      "Ġreales": 5928,
      "Ġcomien": 5929,
      "Ġpagos": 5930,
      "Ġaso": 5931,
      "Ġministerios": 5932,
      "Ġdefendiendo": 5933,
      "ĠQues": 5934,
      "Ġadministrativo": 5935,
      "ĠPeÃ±a": 5936,
      "Ġconocido": 5937,
      "Ġirresponsable": 5938,
      "Ġposteriormente": 5939,
      "Ġentrada": 5940,
      "Ġtendremos": 5941,
      "Ġtrae": 5942,
      "bilitar": 5943,
      "Ġcaer": 5944,
      "Ġcaden": 5945,
      "cipl": 5946,
      "Ġquieran": 5947,
      "Ġinteresante": 5948,
      "Ġfirme": 5949,
      "96": 5950,
      "atoria": 5951,
      "Ġremi": 5952,
      "Ġimpun": 5953,
      "Ġserios": 5954,
      "Ġtantas": 5955,
      "Ġutilizando": 5956,
      "ĠtomÃ³": 5957,
      "Ġconoce": 5958,
      "ballo": 5959,
      "ĠexcepciÃ³n": 5960,
      "Ġestric": 5961,
      "ĠCuar": 5962,
      "Ġsuspen": 5963,
      "ĠHid": 5964,
      "Ġcolabor": 5965,
      "ĠdecÃŃan": 5966,
      "Ġsiguientes": 5967,
      "Ġsucediendo": 5968,
      "Ġperfectamente": 5969,
      "ĠQuesada": 5970,
      "ĠmÃºlti": 5971,
      "timiento": 5972,
      "tres": 5973,
      "Ġpotable": 5974,
      "Ġexcel": 5975,
      "Ġtraza": 5976,
      "Ġpleno": 5977,
      "Ġcaminar": 5978,
      "ĠUna": 5979,
      "Ġaval": 5980,
      "ĠKarine": 5981,
      "ĠmÃºltip": 5982,
      "gaciÃ³n": 5983,
      "Ġsede": 5984,
      "Ġfem": 5985,
      "Ġcuidad": 5986,
      "Ġcompon": 5987,
      "izadas": 5988,
      "Ġ35": 5989,
      "Ġayud": 5990,
      "Ġnombrar": 5991,
      "ĠlÃ³gicamente": 5992,
      "Ġjerarca": 5993,
      "Sol": 5994,
      "Ġis": 5995,
      "Ġtel": 5996,
      "tino": 5997,
      "ĠopciÃ³n": 5998,
      "Ġaquella": 5999,
      "ĠcontribuciÃ³n": 6000,
      "Ġesenciales": 6001,
      "Ġviceminis": 6002,
      "educ": 6003,
      "Ġrein": 6004,
      "Ġingen": 6005,
      "Ġdistinta": 6006,
      "Ġcontemp": 6007,
      "ĠHeredia": 6008,
      "Ġabusos": 6009,
      "dri": 6010,
      "obre": 6011,
      "Ġmandar": 6012,
      "Ġarbi": 6013,
      "udencia": 6014,
      "ĠCovid": 6015,
      "Ġsustancial": 6016,
      "ĠAPROB": 6017,
      "ymes": 6018,
      "ĠVen": 6019,
      "Ġabordar": 6020,
      "Ġpedido": 6021,
      "ĠObras": 6022,
      "Ġfui": 6023,
      "ĠREC": 6024,
      "Ġdenunci": 6025,
      "ĠimplementaciÃ³n": 6026,
      "americana": 6027,
      "ĠrÃ¡pida": 6028,
      "ĠcolocaciÃ³n": 6029,
      "Ġrecuperar": 6030,
      "ĠRivera": 6031,
      "pular": 6032,
      "iva": 6033,
      "Ġpueblos": 6034,
      "Ġsegura": 6035,
      "Ġcargas": 6036,
      "Ġfavorecer": 6037,
      "ĠINCI": 6038,
      "TRE": 6039,
      "Ġconvenios": 6040,
      "Ġpresentando": 6041,
      "ĠocasiÃ³n": 6042,
      "ego": 6043,
      "fin": 6044,
      "coh": 6045,
      "dumbre": 6046,
      "viÃ³": 6047,
      "ĠcampaÃ±as": 6048,
      "32": 6049,
      "ĠCari": 6050,
      "Ġjuego": 6051,
      "Ġprestado": 6052,
      "cedente": 6053,
      "Ã¡nsito": 6054,
      "Ġagil": 6055,
      "bertura": 6056,
      "Ġalguno": 6057,
      "Ġcolocar": 6058,
      "ĠexposiciÃ³n": 6059,
      "Ġhuman": 6060,
      "Ġtuve": 6061,
      "Ġcontempla": 6062,
      "Ġestim": 6063,
      "Ġdemostrar": 6064,
      "Ġrepresentan": 6065,
      "3413": 6066,
      "ĠCorr": 6067,
      "Ġinjus": 6068,
      "ĠAdiciÃ³n": 6069,
      "Ġservir": 6070,
      "Ġmantiene": 6071,
      "Ġtanta": 6072,
      "Ġcobro": 6073,
      "Ġ85": 6074,
      "Ġcompletamente": 6075,
      "ÃīS": 6076,
      "ACIONES": 6077,
      "ĠemprÃ©stitos": 6078,
      "ĠimportantÃŃsimo": 6079,
      "INTERVENCIÃĵN": 6080,
      "Ġsiglo": 6081,
      "osten": 6082,
      "Ġhones": 6083,
      "ĠAB": 6084,
      "fortun": 6085,
      "Ġvimos": 6086,
      "ĠdinÃ¡m": 6087,
      "ĠProtecciÃ³n": 6088,
      "Ġindependientes": 6089,
      "Ġelectorales": 6090,
      "Ġintervenciones": 6091,
      "ĠPÃļBLICA": 6092,
      "Ġmotivos": 6093,
      "Ġarma": 6094,
      "Ã©rcito": 6095,
      "Ġgrav": 6096,
      "Ġorganizado": 6097,
      "Ġcomplemen": 6098,
      "ĠENTRE": 6099,
      "CIONAL": 6100,
      "ĠincorporaciÃ³n": 6101,
      "Ġconsideramos": 6102,
      "ĠmÃºltiples": 6103,
      "Ġunidad": 6104,
      "Ġges": 6105,
      "Ġsuficientes": 6106,
      "ĠImp": 6107,
      "ĠautÃ³n": 6108,
      "Ġreglam": 6109,
      "Ġsociedades": 6110,
      "Ġdetalle": 6111,
      "Ġcuerpo": 6112,
      "Ġnovecientos": 6113,
      "ĠCorrales": 6114,
      "Ġat": 6115,
      "ĠcÃ¡l": 6116,
      "Ġescal": 6117,
      "Ġsindica": 6118,
      "Ġrealiza": 6119,
      "Ġdinam": 6120,
      "Ġfide": 6121,
      "AMENTO": 6122,
      "ĠÃģrea": 6123,
      "Ġalternativa": 6124,
      "Ġelectricidad": 6125,
      "Ġcubrir": 6126,
      "ĠRec": 6127,
      "Ġdespe": 6128,
      "Ġ44": 6129,
      "Ġcerc": 6130,
      "Ġregional": 6131,
      "ance": 6132,
      "ranza": 6133,
      "bilizar": 6134,
      "Ġcultural": 6135,
      "ĠdeclaraciÃ³n": 6136,
      "Ġhablaba": 6137,
      "Ġargumento": 6138,
      "Ġprivilegios": 6139,
      "Realmente": 6140,
      "Ġedificio": 6141,
      "ĠÃī": 6142,
      "Ġlib": 6143,
      "chas": 6144,
      "Ġejecutivo": 6145,
      "Ġincerti": 6146,
      "ĠfiscalizaciÃ³n": 6147,
      "Ġtraslado": 6148,
      "Ġpide": 6149,
      "Ġequidad": 6150,
      "ĠlÃŃder": 6151,
      "Ġinformalidad": 6152,
      "cemos": 6153,
      "Ġmos": 6154,
      "icom": 6155,
      "ĠSmi": 6156,
      "ĠMig": 6157,
      "Ġ2014": 6158,
      "ORES": 6159,
      "Ġestaremos": 6160,
      "Ġbandera": 6161,
      "Ġjuz": 6162,
      "ĠcuÃ¡ntos": 6163,
      "Ġrenuncia": 6164,
      "ĠMideplÃ¡n": 6165,
      "Ġsirve": 6166,
      "Ġtrazabilidad": 6167,
      "ĠSmith": 6168,
      "57": 6169,
      "arle": 6170,
      "Ġsien": 6171,
      "Ġnoche": 6172,
      "olan": 6173,
      "diputa": 6174,
      "ĠDICI": 6175,
      "Ġmotivo": 6176,
      "Ġrom": 6177,
      "arapi": 6178,
      "tillos": 6179,
      "Ġdejan": 6180,
      "Ġambientales": 6181,
      "Ġjusta": 6182,
      "Ġamigos": 6183,
      "Ġconvoca": 6184,
      "Ġdiversos": 6185,
      "ĠAsociaciÃ³n": 6186,
      "ĠDICIEMBRE": 6187,
      "Ġdom": 6188,
      "Ġcel": 6189,
      "daÃ±o": 6190,
      "Ġreba": 6191,
      "bidad": 6192,
      "Ġocul": 6193,
      "ĠIngreso": 6194,
      "Ġpension": 6195,
      "ĠCarranza": 6196,
      "Ġpresentada": 6197,
      "Ġdirecto": 6198,
      "ĠjustificaciÃ³n": 6199,
      "Ġconvic": 6200,
      "Ġpresentan": 6201,
      "Ġreuniones": 6202,
      "iom": 6203,
      "ĠdirÃŃa": 6204,
      "Ġmetodo": 6205,
      "CIMIENTO": 6206,
      "zamos": 6207,
      "fectivamente": 6208,
      "Ġexpresamente": 6209,
      "Ġhere": 6210,
      "ĠFinanci": 6211,
      "ĠCerdas": 6212,
      "ile": 6213,
      "ĠcÃ¡r": 6214,
      "usiones": 6215,
      "Ġtrato": 6216,
      "Ġrato": 6217,
      "ĠCarballo": 6218,
      "Ġrepresentar": 6219,
      "ĠAlberto": 6220,
      "ĠseÃ±alando": 6221,
      "ĠsanciÃ³n": 6222,
      "Ġpropias": 6223,
      "Ġaudiencia": 6224,
      "Ġindustria": 6225,
      "523": 6226,
      "80": 6227,
      "escu": 6228,
      "Ġpros": 6229,
      "Ġdivi": 6230,
      "ĠcafÃ©": 6231,
      "ICOS": 6232,
      "Ġpongan": 6233,
      "Ġllevado": 6234,
      "ĠAPO": 6235,
      "ĠcoordinaciÃ³n": 6236,
      "Ġobservaciones": 6237,
      "ĠOtto": 6238,
      "ĠelusiÃ³n": 6239,
      "Ġalimen": 6240,
      "Ġarri": 6241,
      "Ġinformar": 6242,
      "Ġmontos": 6243,
      "Ġadultas": 6244,
      "Ġdim": 6245,
      "ĠDI": 6246,
      "ĠAven": 6247,
      "Ġmemor": 6248,
      "ivo": 6249,
      "Ġinstal": 6250,
      "verde": 6251,
      "Ġcobertura": 6252,
      "ĠampliaciÃ³n": 6253,
      "Ġindependientemente": 6254,
      "ĠagrÃŃcola": 6255,
      "ĠÃ³": 6256,
      "Ġunir": 6257,
      "Ġexcesi": 6258,
      "Ġtren": 6259,
      "Ġsalida": 6260,
      "ĠComer": 6261,
      "Ġdecre": 6262,
      "Ġreformar": 6263,
      "ISC": 6264,
      "ĠINV": 6265,
      "ĠbÃ¡sicos": 6266,
      "Ġempieza": 6267,
      "Ġreservo": 6268,
      "Ġabre": 6269,
      "ÃŃr": 6270,
      "ĠFigu": 6271,
      "Ġinsta": 6272,
      "Ġartes": 6273,
      "Ġentregar": 6274,
      "Ġlimp": 6275,
      "Ġbuscan": 6276,
      "Ġnaturales": 6277,
      "Ġexistencia": 6278,
      "ĠdesempeÃ±o": 6279,
      "Ġsorpren": 6280,
      "tienen": 6281,
      "ĠparÃ¡": 6282,
      "Ġintelig": 6283,
      "Ġresol": 6284,
      "Ġdiscipl": 6285,
      "Ġpositivamente": 6286,
      "aragua": 6287,
      "Ġdato": 6288,
      "Ġ53": 6289,
      "Ġobjeto": 6290,
      "Ġalcance": 6291,
      "Ġconfidencial": 6292,
      "Ġcomenzar": 6293,
      "Ġlicencias": 6294,
      "926": 6295,
      "urante": 6296,
      "yer": 6297,
      "aridades": 6298,
      "erado": 6299,
      "duras": 6300,
      "Ġinstancia": 6301,
      "turaciÃ³n": 6302,
      "Ġ50": 6303,
      "ĠCastillo": 6304,
      "Ġmanifestar": 6305,
      "dÃ³s": 6306,
      "Ġresuelve": 6307,
      "Ġprovoc": 6308,
      "ĠmÃ¡ximo": 6309,
      "enciano": 6310,
      "Ġente": 6311,
      "ĠPr": 6312,
      "Ġsigamos": 6313,
      "eropu": 6314,
      "Ġusura": 6315,
      "cisÃ©is": 6316,
      "Ġdestinos": 6317,
      "posiciones": 6318,
      "Ġrealizan": 6319,
      "ĠValenciano": 6320,
      "Ġimagen": 6321,
      "ĠhistÃ³rica": 6322,
      "Ġrespaldo": 6323,
      "brado": 6324,
      "cro": 6325,
      "jero": 6326,
      "Ġcientos": 6327,
      "Ġrecibe": 6328,
      "ĠLucÃŃa": 6329,
      "ĠPOLÃįTICODiputada": 6330,
      "Ġexigir": 6331,
      "Ġafectadas": 6332,
      "ĠautomÃ¡": 6333,
      "Ġtransferencia": 6334,
      "ĠNicaragua": 6335,
      "icepresidenta": 6336,
      "tropoli": 6337,
      "Son": 6338,
      "bus": 6339,
      "xico": 6340,
      "ĠCR": 6341,
      "Ġmod": 6342,
      "Ġmentira": 6343,
      "ĠestarÃ¡": 6344,
      "Ġfueran": 6345,
      "ĠPrograma": 6346,
      "Ġhubieran": 6347,
      "Ġanuncia": 6348,
      "ĠconclusiÃ³n": 6349,
      "Ġcurso": 6350,
      "Ġmandato": 6351,
      "Ġprobidad": 6352,
      "ĠCU": 6353,
      "Ġaler": 6354,
      "ĠROP": 6355,
      "Ġacon": 6356,
      "Ġacre": 6357,
      "Ġseres": 6358,
      "Ġaspir": 6359,
      "Ġcrecer": 6360,
      "umen": 6361,
      "Ġescuchando": 6362,
      "Ġjuntos": 6363,
      "olÃ³gicos": 6364,
      "Ġmovimiento": 6365,
      "Ġmarchamo": 6366,
      "Ġincertidumbre": 6367,
      "31": 6368,
      "QU": 6369,
      "vesti": 6370,
      "estre": 6371,
      "aso": 6372,
      "Ġcondon": 6373,
      "omas": 6374,
      "bidas": 6375,
      "Ġsil": 6376,
      "Ġsober": 6377,
      "Ġdiscul": 6378,
      "ĠinclusiÃ³n": 6379,
      "Ġvalios": 6380,
      "nadas": 6381,
      "Ġcerte": 6382,
      "ĠveintidÃ³s": 6383,
      "Ġdenunciar": 6384,
      "CuÃ¡l": 6385,
      "Ġconforme": 6386,
      "Ġasesor": 6387,
      "Ġalimentos": 6388,
      "Ġregionales": 6389,
      "ĠlÃŃmite": 6390,
      "arapiquÃŃ": 6391,
      "jen": 6392,
      "Ġdeseo": 6393,
      "Ġgastar": 6394,
      "Ġ90": 6395,
      "Ġcorrespondientes": 6396,
      "ĠacompaÃ±an": 6397,
      "TURA": 6398,
      "Ġcomedores": 6399,
      "Ġcolegio": 6400,
      "CH": 6401,
      "ĠvÃ¡l": 6402,
      "Ġinn": 6403,
      "amÃ¡s": 6404,
      "ĠRes": 6405,
      "Ġprem": 6406,
      "Ġdual": 6407,
      "Ġactuales": 6408,
      "Ġurge": 6409,
      "Ġluchar": 6410,
      "Ġvuelvo": 6411,
      "Ġolvidar": 6412,
      "ĠalimentaciÃ³n": 6413,
      "Ġsensible": 6414,
      "GRAMA": 6415,
      "ĠAvendaÃ±o": 6416,
      "VID": 6417,
      "tenciÃ³n": 6418,
      "ĠMINIS": 6419,
      "Ġmani": 6420,
      "ĠJueves": 6421,
      "abe": 6422,
      "Ġefectiva": 6423,
      "TRO": 6424,
      "Ġcorrespondiente": 6425,
      "tistas": 6426,
      "Ġpedirle": 6427,
      "Ġrepresentante": 6428,
      "ĠPROGRAMA": 6429,
      "Ġcorrientes": 6430,
      "ĠDeclar": 6431,
      "ĠFigueres": 6432,
      "BAJ": 6433,
      "GA": 6434,
      "gin": 6435,
      "quemos": 6436,
      "ĠCreo": 6437,
      "Ġinscri": 6438,
      "Ġnegociar": 6439,
      "Ġadministrativas": 6440,
      "Ġlimon": 6441,
      "Ġjefe": 6442,
      "ĠexplicaciÃ³n": 6443,
      "Ġconversar": 6444,
      "ĠdiecisÃ©is": 6445,
      "Ġpopul": 6446,
      "ĠCaribe": 6447,
      "LI": 6448,
      "Ġperf": 6449,
      "ĠSarapiquÃŃ": 6450,
      "ERG": 6451,
      "Ġsalariales": 6452,
      "Ġcontrabando": 6453,
      "Ġnombres": 6454,
      "Ġciencia": 6455,
      "Ġcapacidades": 6456,
      "iomara": 6457,
      "vieran": 6458,
      "Ġpymes": 6459,
      "Ġbasta": 6460,
      "ĠMartes": 6461,
      "Ġabuso": 6462,
      "Ġcobrar": 6463,
      "Ġobli": 6464,
      "ĠSanta": 6465,
      "ĠZÃºÃ±": 6466,
      "Ġrecuer": 6467,
      "ĠdifÃŃciles": 6468,
      "Ġllevando": 6469,
      "Ġequival": 6470,
      "Ġabandon": 6471,
      "ĠCOMO": 6472,
      "ĠXiomara": 6473,
      "Ġrazonable": 6474,
      "ĠraÃŃz": 6475,
      "ĠZÃºÃ±iga": 6476,
      "anal": 6477,
      "ticip": 6478,
      "tentes": 6479,
      "Ġcompro": 6480,
      "ONE": 6481,
      "Ġlegislativas": 6482,
      "ALES": 6483,
      "ĠtÃ©cnicas": 6484,
      "Ġdocumentos": 6485,
      "Ġpermiso": 6486,
      "ĠcrÃŃtica": 6487,
      "Ġagropecuario": 6488,
      "ĠcategorÃŃa": 6489,
      ").": 6490,
      "40": 6491,
      "66": 6492,
      "tificaciÃ³n": 6493,
      "ÃŃda": 6494,
      "algo": 6495,
      "trÃ©s": 6496,
      "Ġcumpla": 6497,
      "dura": 6498,
      "Ġ33": 6499,
      "Ġexpertos": 6500,
      "Ġestructural": 6501,
      "ĠturÃŃstico": 6502,
      "Ġfideicom": 6503,
      "Dice": 6504,
      "cidos": 6505,
      "Ġplas": 6506,
      "rial": 6507,
      "Ġintermedi": 6508,
      "Ġrum": 6509,
      "ĠHA": 6510,
      "Ġmediano": 6511,
      "Ġposibles": 6512,
      "ĠBAN": 6513,
      "Ġreconoc": 6514,
      "Ġ48": 6515,
      "Ġconstitucionalidad": 6516,
      "Ġencontr": 6517,
      "ĠpromociÃ³n": 6518,
      "ozca": 6519,
      "ĠConavi": 6520,
      "ĠhistÃ³ricamente": 6521,
      "Ġsustento": 6522,
      "dizaje": 6523,
      "Ġati": 6524,
      "Ġmotiv": 6525,
      "Ġarm": 6526,
      "ĠSuper": 6527,
      "Ġsufren": 6528,
      "ĠMEDI": 6529,
      "ĠrecomendaciÃ³n": 6530,
      "Ministra": 6531,
      "Ġtarifa": 6532,
      "ĠMÃ©xico": 6533,
      "ĠvalentÃŃa": 6534,
      "tropolitana": 6535,
      "Igualmente": 6536,
      "Ġreti": 6537,
      "dimientos": 6538,
      "Ġtoman": 6539,
      "ĠDra": 6540,
      "Ġactivos": 6541,
      "ĠIV": 6542,
      "ciona": 6543,
      "Ġpele": 6544,
      "ĠregÃŃmenes": 6545,
      "Ġciertos": 6546,
      "tismo": 6547,
      "ĠaclaraciÃ³n": 6548,
      "Ġentiende": 6549,
      "ĠOrd": 6550,
      "Ġdefensor": 6551,
      "Ġinmediata": 6552,
      "Ġaprueba": 6553,
      "Ġperjud": 6554,
      "icenten": 6555,
      "ĠexplotaciÃ³n": 6556,
      "Ġalegra": 6557,
      "ĠHidalgo": 6558,
      "Res": 6559,
      "ĠÃ©n": 6560,
      "Ġpuentes": 6561,
      "Ġmir": 6562,
      "ĠpodÃŃan": 6563,
      "ĠrÃŃo": 6564,
      "ferencia": 6565,
      "Ġtarje": 6566,
      "Ġinvestigaciones": 6567,
      "ĠrecuperaciÃ³n": 6568,
      "580": 6569,
      "Ġpreval": 6570,
      "Ġajuste": 6571,
      "Ġvirtud": 6572,
      "Ġlectura": 6573,
      "Ġuniversitaria": 6574,
      "Ġcontundente": 6575,
      "ĠAguilar": 6576,
      "elo": 6577,
      "Ġprotes": 6578,
      "ĠCÃĵ": 6579,
      "Ġaliv": 6580,
      "Ġcuri": 6581,
      "Ġpocas": 6582,
      "Ġpaque": 6583,
      "Ġsusp": 6584,
      "Ġarch": 6585,
      "DIGO": 6586,
      "Ġvendr": 6587,
      "ĠseÃ±alÃ³": 6588,
      "Ġamplio": 6589,
      "Ġlimitar": 6590,
      "Ġpolici": 6591,
      "ĠdebiÃ³": 6592,
      "Ġdigna": 6593,
      "fasis": 6594,
      "Ġadop": 6595,
      "ĠexoneraciÃ³n": 6596,
      "ĠREGLAMENTO": 6597,
      "ĠCÃĵDIGO": 6598,
      "adores": 6599,
      "bon": 6600,
      "bara": 6601,
      "cambi": 6602,
      "su": 6603,
      "Ġescon": 6604,
      "taba": 6605,
      "Ġperdiendo": 6606,
      "ĠApro": 6607,
      "Ġacel": 6608,
      "ĠPAR": 6609,
      "Ġ2015": 6610,
      "bilidades": 6611,
      "Ġcabe": 6612,
      "Ġhablemos": 6613,
      "Ġcorre": 6614,
      "Ġcaro": 6615,
      "ĠconsideraciÃ³n": 6616,
      "ĠMej": 6617,
      "ĠSOBRE": 6618,
      "Ġconscientes": 6619,
      "ustavo": 6620,
      "Ġrecinto": 6621,
      "ĠÃ©nfasis": 6622,
      "iera": 6623,
      "lÃŃ": 6624,
      "otras": 6625,
      "Ġagar": 6626,
      "unales": 6627,
      "isa": 6628,
      "Ġmeta": 6629,
      "ĠGustavo": 6630,
      "Ġinsisto": 6631,
      "Ġhablo": 6632,
      "Ġentrega": 6633,
      "Ġfraude": 6634,
      "ĠSegunda": 6635,
      "Ġ40": 6636,
      "Ġadministr": 6637,
      "Ġaplicando": 6638,
      "ologÃŃas": 6639,
      "Ġirrespe": 6640,
      "Ġreflexionar": 6641,
      "ĠsucediÃ³": 6642,
      "Ġcombustibles": 6643,
      "Ġjoven": 6644,
      "ĠmetodologÃŃa": 6645,
      "ĠÃŃ": 6646,
      "ĠPac": 6647,
      "Ġquis": 6648,
      "Ġpresidencial": 6649,
      "Ġ37": 6650,
      "ĠDepartamento": 6651,
      "ĠpolÃŃticoDiputada": 6652,
      "Ġsufriendo": 6653,
      "ĠOrgÃ¡nica": 6654,
      "Ġacerca": 6655,
      "ĠclimÃ¡tico": 6656,
      "Ġcoyuntura": 6657,
      "ĠGENERAL": 6658,
      "Ġasocia": 6659,
      "Ġcerteza": 6660,
      "IT": 6661,
      "oto": 6662,
      "sis": 6663,
      "Ġflex": 6664,
      "ĠAhÃŃ": 6665,
      "ĠNe": 6666,
      "imismo": 6667,
      "Ġcompor": 6668,
      "Ġabusiv": 6669,
      "Ġcargos": 6670,
      "idy": 6671,
      "Ġponerle": 6672,
      "Ġrefleja": 6673,
      "Ġproponer": 6674,
      "ĠrealizÃ³": 6675,
      "ĠPlanificaciÃ³n": 6676,
      "Ġexclusivamente": 6677,
      "Ġperiod": 6678,
      "Ġresguardar": 6679,
      "Ġelegir": 6680,
      "Ġrepetir": 6681,
      "Ġeva": 6682,
      "ĠSon": 6683,
      "icidio": 6684,
      "Ġapara": 6685,
      "ĠprestaciÃ³n": 6686,
      "Ġadmi": 6687,
      "Ġreciente": 6688,
      "Ġhumil": 6689,
      "ĠPersonas": 6690,
      "Ġdimos": 6691,
      "leidy": 6692,
      "Ġcompens": 6693,
      "sion": 6694,
      "Ġ39": 6695,
      "ADA": 6696,
      "ĠINEC": 6697,
      "Ġsignificativo": 6698,
      "TORIO": 6699,
      "Ġoferta": 6700,
      "ĠAPROBACIÃĵN": 6701,
      "Ġreceso": 6702,
      "ĠLunes": 6703,
      "ĠAp": 6704,
      "Ġnosotras": 6705,
      "Ġeconom": 6706,
      "Ġoportuno": 6707,
      "Ġsaca": 6708,
      "Ġjueces": 6709,
      "Ġtrabajan": 6710,
      "Ġpoliti": 6711,
      "Ġamigo": 6712,
      "Ġdificultades": 6713,
      "VI": 6714,
      "ĠvÃŃas": 6715,
      "amÃ©rica": 6716,
      "echo": 6717,
      "Ġfuimos": 6718,
      "ĠÃ©x": 6719,
      "ĠreiteraciÃ³n": 6720,
      "ECCIÃĵN": 6721,
      "Ġvuelve": 6722,
      "Ġhuelgas": 6723,
      "Ġtramitar": 6724,
      "Ġilegales": 6725,
      "ĠAgricul": 6726,
      "Ã¡ndonos": 6727,
      "CR": 6728,
      "ad": 6729,
      "esas": 6730,
      "ĠcÃ¡n": 6731,
      "ĠPol": 6732,
      "Ġgir": 6733,
      "Estos": 6734,
      "elle": 6735,
      "SegÃºn": 6736,
      "Ġfinancieras": 6737,
      "Ġjurisp": 6738,
      "Ġrendir": 6739,
      "Ġsurg": 6740,
      "Ġpusieron": 6741,
      "ĠPERSONAS": 6742,
      "Ġparcial": 6743,
      "Ġdelin": 6744,
      "Ġalcoh": 6745,
      "ĠRos": 6746,
      "Ġpoca": 6747,
      "ensiones": 6748,
      "Ġcostu": 6749,
      "ĠJur": 6750,
      "Ġabsur": 6751,
      "Ġterritorial": 6752,
      "ĠPRESID": 6753,
      "ĠDelgado": 6754,
      "Ġaguas": 6755,
      "ĠFiscalÃŃa": 6756,
      "Ġamenaza": 6757,
      "oro": 6758,
      "icÃ³": 6759,
      "Ġrepor": 6760,
      "Ġproceder": 6761,
      "Ġperci": 6762,
      "Ġcuento": 6763,
      "Ġdesper": 6764,
      "Ġrin": 6765,
      "Ġestudiante": 6766,
      "Ġrecibimos": 6767,
      "Ġdejen": 6768,
      "ĠprÃ³xima": 6769,
      "Ġmuchachos": 6770,
      "ĠtÃ©rmino": 6771,
      "Ġagregado": 6772,
      "Ġconflictos": 6773,
      "Nues": 6774,
      "UM": 6775,
      "nueve": 6776,
      "yas": 6777,
      "acio": 6778,
      "ĠperiÃ³": 6779,
      "ĠSU": 6780,
      "Ġtales": 6781,
      "Ġpedimos": 6782,
      "Ġdesemple": 6783,
      "Ġpretenden": 6784,
      "Ġambos": 6785,
      "Ġcausas": 6786,
      "Ġvuelva": 6787,
      "ĠprohibiciÃ³n": 6788,
      "Ġextender": 6789,
      "Ġoperaciones": 6790,
      "Ġmovilidad": 6791,
      "Ġproporcional": 6792,
      "Ġcabeza": 6793,
      "TES": 6794,
      "cida": 6795,
      "una": 6796,
      "puso": 6797,
      "Ġresal": 6798,
      "ĠdiseÃ±o": 6799,
      "Ġdefien": 6800,
      "Ġespeciales": 6801,
      "Ġ121": 6802,
      "Ġotorgar": 6803,
      "ĠESPE": 6804,
      "Ġorgullo": 6805,
      "Ġperju": 6806,
      "Ġmemoria": 6807,
      "itÃ©": 6808,
      "laciones": 6809,
      "Ġdeterior": 6810,
      "rogas": 6811,
      "ĠTambiÃ©n": 6812,
      "Ġras": 6813,
      "Ġavanzado": 6814,
      "Ġ51": 6815,
      "Ġmonop": 6816,
      "Ġadelan": 6817,
      "Ġolvida": 6818,
      "Ġindicar": 6819,
      "Ġdesastre": 6820,
      "icentenario": 6821,
      "470": 6822,
      "nis": 6823,
      "Ġesque": 6824,
      "Ġvari": 6825,
      "Ġremo": 6826,
      "Ġreserv": 6827,
      "Ġaras": 6828,
      "cionado": 6829,
      "Ġnegl": 6830,
      "Quisiera": 6831,
      "Ġ137": 6832,
      "Ġincorpora": 6833,
      "SeÃ±ores": 6834,
      "Ġpermisos": 6835,
      "Ġpacientes": 6836,
      "ĠquizÃ¡s": 6837,
      "Ġdemasiado": 6838,
      "Ġarbitr": 6839,
      "Ġneglig": 6840,
      "TARIO": 6841,
      "idez": 6842,
      "engo": 6843,
      "ĠDiputa": 6844,
      "bilita": 6845,
      "Ġrefir": 6846,
      "ĠinflaciÃ³n": 6847,
      "Ġcomparto": 6848,
      "Ġexige": 6849,
      "antil": 6850,
      "ÃŃfico": 6851,
      "oma": 6852,
      "Ġinven": 6853,
      "Ġcomida": 6854,
      "Ġconseguir": 6855,
      "Ġpeso": 6856,
      "Ġ54": 6857,
      "Ġdocentes": 6858,
      "ĠMetropolitana": 6859,
      "Ġbarb": 6860,
      "Ġsanitarias": 6861,
      "Ġhospitales": 6862,
      "Ġsensibles": 6863,
      "Ġfronteras": 6864,
      "ĠComercio": 6865,
      "Ġobligar": 6866,
      "tiera": 6867,
      "Ġdiario": 6868,
      "ĠEM": 6869,
      "Ġbono": 6870,
      "ĠFON": 6871,
      "Ġatendiendo": 6872,
      "ĠInvesti": 6873,
      "Ġ34": 6874,
      "ĠsabÃŃa": 6875,
      "ĠmencionÃ³": 6876,
      "CuÃ¡n": 6877,
      "ĠNidia": 6878,
      "Ġganar": 6879,
      "ĠllevÃ³": 6880,
      "Ġcarreteras": 6881,
      "ĠSEGUR": 6882,
      "ĠrestricciÃ³n": 6883,
      "ĠDragos": 6884,
      "tativas": 6885,
      "dificaciÃ³n": 6886,
      "Ġacos": 6887,
      "Ġintercambi": 6888,
      "uerra": 6889,
      "Ġgenere": 6890,
      "ĠgenerÃ³": 6891,
      "oluciones": 6892,
      "ÃŃnense": 6893,
      "Ġ45": 6894,
      "Ġ49": 6895,
      "ĠdeberÃ¡": 6896,
      "Ġoficina": 6897,
      "Ġdistrito": 6898,
      "Ġnegociaciones": 6899,
      "Ġsolidario": 6900,
      "Ġreconocido": 6901,
      "Ġcifra": 6902,
      "Ġregistro": 6903,
      "Ġmicro": 6904,
      "olanescu": 6905,
      "35": 6906,
      "Ã¡mos": 6907,
      "Ġpropuesto": 6908,
      "Ġtomen": 6909,
      "cedentes": 6910,
      "Ġsegui": 6911,
      "Ġactuaciones": 6912,
      "Ġplanteamiento": 6913,
      "Ġ73": 6914,
      "Ġconsiderando": 6915,
      "ĠTRABAJ": 6916,
      "Ġapruebe": 6917,
      "ĠpÃ©rdidas": 6918,
      "Ġeventualmente": 6919,
      "548": 6920,
      "Efectivamente": 6921,
      "iales": 6922,
      "Ġran": 6923,
      "Ġatro": 6924,
      "Ġcrimin": 6925,
      "ĠRa": 6926,
      "Ġsupera": 6927,
      "icidios": 6928,
      "ERV": 6929,
      "Ġveamos": 6930,
      "Ġestuvieron": 6931,
      "Ġllamada": 6932,
      "ĠexclusiÃ³n": 6933,
      "Ġtesti": 6934,
      "Ġlicencia": 6935,
      "129": 6936,
      "Ġretr": 6937,
      "amen": 6938,
      "Ġregres": 6939,
      "ĠRodri": 6940,
      "Ġutilizado": 6941,
      "Ġcorresponden": 6942,
      "Ġmodifica": 6943,
      "ĠPOLÃįTICA": 6944,
      "tista": 6945,
      "Ġconcluy": 6946,
      "ĠPrimer": 6947,
      "dra": 6948,
      "nada": 6949,
      "Ġos": 6950,
      "arro": 6951,
      "Ġcontral": 6952,
      "bia": 6953,
      "tarnos": 6954,
      "Ġbom": 6955,
      "migo": 6956,
      "ORA": 6957,
      "Ġvengo": 6958,
      "uerza": 6959,
      "ĠestarÃŃan": 6960,
      "Ġpensamiento": 6961,
      "ĠChinch": 6962,
      "Ġintenciones": 6963,
      "ĠprÃ³ximas": 6964,
      "Ġadicionales": 6965,
      "Ġestuvimos": 6966,
      "ĠCOVID": 6967,
      "Ġcuentan": 6968,
      "nidad": 6969,
      "ocho": 6970,
      "Ġdero": 6971,
      "Ġsedes": 6972,
      "Ġsecun": 6973,
      "ĠCAR": 6974,
      "Ġbra": 6975,
      "izÃ³": 6976,
      "Ġdisposiciones": 6977,
      "Ġarte": 6978,
      "tonio": 6979,
      "Ġefectivo": 6980,
      "Ġviolenta": 6981,
      "Ġescuchan": 6982,
      "Ġentendemos": 6983,
      "Ġdistinto": 6984,
      "Ġacabar": 6985,
      "ĠSalas": 6986,
      "Ġcandidatos": 6987,
      "Ġinsumos": 6988,
      "ĠOrdinario": 6989,
      "ĠChinchilla": 6990,
      "Dic": 6991,
      "Ġalquil": 6992,
      "Ġgenerales": 6993,
      "ĠRoja": 6994,
      "Ġ96": 6995,
      "Ġprofundo": 6996,
      "ĠAntonio": 6997,
      "Ġbenem": 6998,
      "Ġganancias": 6999,
      "ĠdinÃ¡mica": 7000,
      "Ġinneces": 7001,
      "ĠESPECIAL": 7002,
      "daria": 7003,
      "rudencia": 7004,
      "Ġlici": 7005,
      "ĠvotÃ³": 7006,
      "Ġllegando": 7007,
      "ĠGuar": 7008,
      "ĠmuchÃŃsima": 7009,
      "Ġ2008": 7010,
      "Ġgobernar": 7011,
      "âĢĿ,": 7012,
      "ĠTercera": 7013,
      "Ġjuez": 7014,
      "ĠOttÃ³n": 7015,
      "Ġcadena": 7016,
      "rialba": 7017,
      "ĠRodrigo": 7018,
      "416": 7019,
      "EP": 7020,
      "Ġenv": 7021,
      "ecesi": 7022,
      "Ġburo": 7023,
      "Ġpadre": 7024,
      "torno": 7025,
      "Ġmadres": 7026,
      "ORTAL": 7027,
      "ĠControl": 7028,
      "Ġinvir": 7029,
      "cluso": 7030,
      "Ġturistas": 7031,
      "Ã¡ndoles": 7032,
      "Ġquedaron": 7033,
      "ĠdefiniciÃ³n": 7034,
      "ĠNicol": 7035,
      "Ġrelevante": 7036,
      "ĠilÃŃ": 7037,
      "Ġdiecinueve": 7038,
      "ĠlÃŃmites": 7039,
      "Ġtrascend": 7040,
      "ĠMujeres": 7041,
      "ĠdomÃ©s": 7042,
      "Ġrumbo": 7043,
      "Ġburoc": 7044,
      "CA": 7045,
      "tÃº": 7046,
      "cimientos": 7047,
      "quez": 7048,
      "dap": 7049,
      "amenta": 7050,
      "ĠCI": 7051,
      "Ġcuyo": 7052,
      "ÃŃso": 7053,
      "Ġanex": 7054,
      "ĠConven": 7055,
      "denes": 7056,
      "Ġmarca": 7057,
      "ĠBol": 7058,
      "Ġpongamos": 7059,
      "200": 7060,
      "Ġcompleta": 7061,
      "Ġmodific": 7062,
      "Ġinconstitucionalidad": 7063,
      "Ġenfermedades": 7064,
      "Ġexoneraciones": 7065,
      "ĠNosotros": 7066,
      "Ġasumi": 7067,
      "10450": 7068,
      "Ġofrecer": 7069,
      "ĠkilÃ³": 7070,
      "ĠNicolÃ¡s": 7071,
      "Ġmetros": 7072,
      "ĠseÃ±ales": 7073,
      "gistrada": 7074,
      "rito": 7075,
      "Ġdesarrollado": 7076,
      "Ġpreocupado": 7077,
      "Ġafectan": 7078,
      "Ġrigu": 7079,
      "TIV": 7080,
      "Ġutilidades": 7081,
      "Ġgarantiza": 7082,
      "Ġamnis": 7083,
      "Ġexpresar": 7084,
      "Ġrealizando": 7085,
      "Ġocurre": 7086,
      "Ġinmediato": 7087,
      "Ġdiversas": 7088,
      "ĠrÃ¡pidamente": 7089,
      "Ġdemuestra": 7090,
      "Ġtribunales": 7091,
      "eductos": 7092,
      "ĠINCISO": 7093,
      "ĠAgricultura": 7094,
      "iÃ©n": 7095,
      "dados": 7096,
      "ĠEuro": 7097,
      "ÃŃsima": 7098,
      "ĠMUN": 7099,
      "Ġsocio": 7100,
      "ĠFORTAL": 7101,
      "ĠbÃ¡sicas": 7102,
      "Ġalcances": 7103,
      "ĠacompaÃ±ar": 7104,
      "Ġcontribuyentes": 7105,
      "ĠTurrialba": 7106,
      "ĠÃŃndices": 7107,
      "ĠSeÃ±or": 7108,
      "Ġescolares": 7109,
      "ECIMIENTO": 7110,
      "Ġexpon": 7111,
      "ĠDEF": 7112,
      "ĠcreÃ³": 7113,
      "Ġpasos": 7114,
      "Ġdarnos": 7115,
      "Ġmejoras": 7116,
      "Ġterminan": 7117,
      "Ġrecibiendo": 7118,
      "Ġconvocar": 7119,
      "Ġprofunda": 7120,
      "Ġaceptar": 7121,
      "Ġdictaminado": 7122,
      "Ġrescatar": 7123,
      "triz": 7124,
      "ĠMay": 7125,
      "Ġmargen": 7126,
      "Ġmunicipalidad": 7127,
      "Ġutilizan": 7128,
      "ĠMileidy": 7129,
      "ĠModificaciÃ³n": 7130,
      "Ġfavorable": 7131,
      "Ġimpedir": 7132,
      "Ġretirar": 7133,
      "ĠBANCO": 7134,
      "Ġaparato": 7135,
      "Ġjurisprudencia": 7136,
      "II": 7137,
      "Presidenta": 7138,
      "Ġerra": 7139,
      "isdic": 7140,
      "ĠCultura": 7141,
      "ĠAdu": 7142,
      "Ġdeses": 7143,
      "Ġformar": 7144,
      "Ġplataforma": 7145,
      "ICIP": 7146,
      "Ġfactores": 7147,
      "Ġbancada": 7148,
      "Ġorigen": 7149,
      "Ġjudiciales": 7150,
      "Ġcircunstancia": 7151,
      "Ġparlamentaria": 7152,
      "Ġextranjer": 7153,
      "ĠinnovaciÃ³n": 7154,
      "ĠMUNICIP": 7155,
      "emente": 7156,
      "gio": 7157,
      "Ġlen": 7158,
      "onÃŃa": 7159,
      "culares": 7160,
      "ĠSÃŃ": 7161,
      "ricos": 7162,
      "Ġmedicin": 7163,
      "Ġciertas": 7164,
      "ĠplanteÃ³": 7165,
      "Ġfuertes": 7166,
      "Ġmalas": 7167,
      "Ġjugar": 7168,
      "Ġexclu": 7169,
      "Ġpresentaron": 7170,
      "Ġprofundamente": 7171,
      "788": 7172,
      "Ġtuviera": 7173,
      "Ġconducta": 7174,
      "Usted": 7175,
      "Ġsindicatos": 7176,
      "Ġdelincu": 7177,
      "AhÃŃ": 7178,
      "nab": 7179,
      "Ġatre": 7180,
      "Ġlan": 7181,
      "Ġreper": 7182,
      "chan": 7183,
      "ĠjamÃ¡s": 7184,
      "ivos": 7185,
      "iertamente": 7186,
      "ulaciÃ³n": 7187,
      "gares": 7188,
      "ĠViv": 7189,
      "Ġcamin": 7190,
      "Ġ41": 7191,
      "Ġbajos": 7192,
      "Ġescucha": 7193,
      "Ġ86": 7194,
      "ĠORG": 7195,
      "ĠestableciÃ³": 7196,
      "Ġconcluir": 7197,
      "Ġdigno": 7198,
      "Ġmantenimiento": 7199,
      "pesca": 7200,
      "Ġcuotas": 7201,
      "ĠFORTALECIMIENTO": 7202,
      "mante": 7203,
      "val": 7204,
      "Ġquedando": 7205,
      "Ġinca": 7206,
      "Ġincur": 7207,
      "ĠCam": 7208,
      "ilf": 7209,
      "Ġresoluciones": 7210,
      "Ġllegamos": 7211,
      "Ġvelar": 7212,
      "Ġdiscutimos": 7213,
      "Ġtrabajadora": 7214,
      "ĠAdministra": 7215,
      "Ġdestinar": 7216,
      "Ġemergencias": 7217,
      "ĠdesafÃŃ": 7218,
      "Ġajustes": 7219,
      "Ġretomar": 7220,
      "Ġintegrantes": 7221,
      "ĠSEGUN": 7222,
      "Ġinacep": 7223,
      "Ġmentiras": 7224,
      "Particip": 7225,
      "Mo": 7226,
      "Ġlig": 7227,
      "Ġsenta": 7228,
      "Ġprocur": 7229,
      "Ġsupl": 7230,
      "Ġtradicional": 7231,
      "ERA": 7232,
      "Ġcreciendo": 7233,
      "Ġcaja": 7234,
      "Ġdoscientas": 7235,
      "ĠBIS": 7236,
      "Ġ38": 7237,
      "Ġtercera": 7238,
      "Ġmesas": 7239,
      "Ġvotaron": 7240,
      "Ġcontrolar": 7241,
      "Ġlogros": 7242,
      "Ġluchas": 7243,
      "Ġpudieron": 7244,
      "Ġequivoca": 7245,
      "Ġprotocolos": 7246,
      "Ġsabiendo": 7247,
      "Ġexpectativa": 7248,
      "ĠdesafÃŃos": 7249,
      "116": 7250,
      "rando": 7251,
      "eso": 7252,
      "Ġadap": 7253,
      "Ġclam": 7254,
      "Ġodio": 7255,
      "ĠCREACIÃĵN": 7256,
      "Ġpac": 7257,
      "Ġdesen": 7258,
      "copesca": 7259,
      "Ġ47": 7260,
      "ĠveintitrÃ©s": 7261,
      "Ġllena": 7262,
      "Ġincentivos": 7263,
      "ĠXX": 7264,
      "Ġperiodo": 7265,
      "CRI": 7266,
      "vos": 7267,
      "Ã¡bado": 7268,
      "irse": 7269,
      "torÃŃa": 7270,
      "ritos": 7271,
      "Ġasf": 7272,
      "Ġplena": 7273,
      "ĠHu": 7274,
      "Ġponernos": 7275,
      "Ġfinancia": 7276,
      "quiÃ©n": 7277,
      "Ġhijo": 7278,
      "Ġestablecidos": 7279,
      "Ġpromesas": 7280,
      "Ġpudieran": 7281,
      "Ġdisminuy": 7282,
      "ĠtransformaciÃ³n": 7283,
      "nabis": 7284,
      "43": 7285,
      "Otro": 7286,
      "bramos": 7287,
      "Ġelig": 7288,
      "Ġconex": 7289,
      "ame": 7290,
      "ĠNaciones": 7291,
      "Ġexterior": 7292,
      "Ġprestar": 7293,
      "Ġsindic": 7294,
      "ĠTE": 7295,
      "Ġron": 7296,
      "Ġinforma": 7297,
      "Ġdenomin": 7298,
      "Ġoportuna": 7299,
      "Ġ1995": 7300,
      "Ġcumplido": 7301,
      "Ġmalo": 7302,
      "Ġjuventud": 7303,
      "ĠhubiÃ©ramos": 7304,
      "Ġmanejar": 7305,
      "ĠempezÃ³": 7306,
      "Ġadecuadamente": 7307,
      "ĠTribu": 7308,
      "Ġincremento": 7309,
      "Ġdespilf": 7310,
      "ĠINTERN": 7311,
      "ĠNew": 7312,
      "ĠkilÃ³metros": 7313,
      "Ġrepercu": 7314,
      "61": 7315,
      "Vean": 7316,
      "Ġago": 7317,
      "Ġrees": 7318,
      "Ġbicentenario": 7319,
      "Ġcosteras": 7320,
      "Ġcontratar": 7321,
      "Ġproductor": 7322,
      "ÃģL": 7323,
      "Ġinterpretar": 7324,
      "Ġdesapar": 7325,
      "Ġadquisi": 7326,
      "Ġduele": 7327,
      "ĠperiÃ³d": 7328,
      "amentablemente": 7329,
      "OjalÃ¡": 7330,
      "Rec": 7331,
      "ĠdÃ¡ndole": 7332,
      "Ġreza": 7333,
      "ĠPre": 7334,
      "Ġprove": 7335,
      "ĠCOR": 7336,
      "ienen": 7337,
      "Ġmagistrada": 7338,
      "Ġ2012": 7339,
      "Ġsalga": 7340,
      "âĢĻ": 7341,
      "Ġmillon": 7342,
      "Ġcance": 7343,
      "ISIS": 7344,
      "Ġconvenciones": 7345,
      "Ġconviv": 7346,
      "Ġpersonales": 7347,
      "Ġadministrativos": 7348,
      "Ġtributario": 7349,
      "Ġindicadores": 7350,
      "Ġcoincido": 7351,
      "Ġidentidad": 7352,
      "Ġprivilegio": 7353,
      "Ġprevenir": 7354,
      "ago": 7355,
      "rÃ³": 7356,
      "sÃ©is": 7357,
      "Ġdeje": 7358,
      "ĠunÃ¡n": 7359,
      "resa": 7360,
      "Ġtratados": 7361,
      "Ġmodo": 7362,
      "ĠEscu": 7363,
      "ĠUnidas": 7364,
      "Ġvolv": 7365,
      "Ġafro": 7366,
      "ĠveintisÃ©is": 7367,
      "ĠFlores": 7368,
      "Ġdemandas": 7369,
      "done": 7370,
      "Ġemitir": 7371,
      "Ġaprendizaje": 7372,
      "Ġtempor": 7373,
      "ĠTransportes": 7374,
      "Pro": 7375,
      "Ã³lo": 7376,
      "amento": 7377,
      "Ã¡stima": 7378,
      "Ġseria": 7379,
      "Ġrealidades": 7380,
      "Ġautorizar": 7381,
      "Ġutiliza": 7382,
      "Ġmone": 7383,
      "ĠDesde": 7384,
      "ĠSUSCRI": 7385,
      "Ġprevio": 7386,
      "Ġcombate": 7387,
      "Ġfactura": 7388,
      "Ġcontinuidad": 7389,
      "Ġcuatr": 7390,
      "Ġvehemente": 7391,
      "ĠAPOYO": 7392,
      "419": 7393,
      "odes": 7394,
      "erita": 7395,
      "ĠsÃ³l": 7396,
      "izan": 7397,
      "descen": 7398,
      "abora": 7399,
      "Ġcita": 7400,
      "ĠpermitiÃ³": 7401,
      "Ġreconozco": 7402,
      "Ġgradu": 7403,
      "Ġdirectriz": 7404,
      "Ġcuarto": 7405,
      "olÃ³gicas": 7406,
      "Ġdepende": 7407,
      "Ġequilib": 7408,
      "Ġrelevancia": 7409,
      "ĠÃītica": 7410,
      "Ġcostumbre": 7411,
      "ĠMUNICIPAL": 7412,
      "Ayer": 7413,
      "Ġmens": 7414,
      "ĠconservaciÃ³n": 7415,
      "ficiencias": 7416,
      "ONES": 7417,
      "sitos": 7418,
      "Ġponerse": 7419,
      "ĠminorÃŃa": 7420,
      "ĠFlor": 7421,
      "ĠtendrÃŃamos": 7422,
      "ĠcuestiÃ³n": 7423,
      "Ġcarreras": 7424,
      "Ġpeligroso": 7425,
      "Ġemprende": 7426,
      "Ġterrenos": 7427,
      "Ġpuntual": 7428,
      "Ġimponer": 7429,
      "Ġexpedientes": 7430,
      "Ġhermanos": 7431,
      "ĠFONDO": 7432,
      "odesaf": 7433,
      "Japdeva": 7434,
      "mÃ³": 7435,
      "Ġproduci": 7436,
      "Ġestre": 7437,
      "Ġexminis": 7438,
      "Ġrestr": 7439,
      "Ġros": 7440,
      "izarse": 7441,
      "Ġpermitiendo": 7442,
      "Ġconcreto": 7443,
      "Ġuniversal": 7444,
      "ĠrecibiÃ³": 7445,
      "Ġcomparec": 7446,
      "Ġconvir": 7447,
      "Ġjefas": 7448,
      "Ġconclusiones": 7449,
      "Ġinsistir": 7450,
      "Ġbols": 7451,
      "Ġprovoca": 7452,
      "itaria": 7453,
      "jimos": 7454,
      "Ġopon": 7455,
      "ches": 7456,
      "ĠEchan": 7457,
      "Ġexitos": 7458,
      "Ġdesorden": 7459,
      "Ġdispuesto": 7460,
      "gunos": 7461,
      "Ġabaste": 7462,
      "ĠUste": 7463,
      "Ġdebatir": 7464,
      "Ġfalso": 7465,
      "ĠÃ³rdenes": 7466,
      "Ġviabilidad": 7467,
      "ĠfÃŃsica": 7468,
      "Ġjornadas": 7469,
      "ĠRosado": 7470,
      "Ġperjuicio": 7471,
      "ĠEMERG": 7472,
      "ĠEchandi": 7473,
      "orÃŃas": 7474,
      "ĠAy": 7475,
      "Ġaccesi": 7476,
      "Ġdispuestos": 7477,
      "ĠtrÃ¡nsito": 7478,
      "ezuela": 7479,
      "Ġtrabajos": 7480,
      "RAN": 7481,
      "Ġponemos": 7482,
      "Ġembara": 7483,
      "tructuraciÃ³n": 7484,
      "ĠseÃ±alan": 7485,
      "Ġhaberse": 7486,
      "Ġmaltra": 7487,
      "Ġaprobaron": 7488,
      "Ġceder": 7489,
      "Ġtomamos": 7490,
      "Ġconsideran": 7491,
      "Ġprofundizar": 7492,
      "Ġinjusticia": 7493,
      "Ġfideicomiso": 7494,
      "Ġai": 7495,
      "Ġsegun": 7496,
      "Ġconozco": 7497,
      "Ã¡us": 7498,
      "omun": 7499,
      "Ġparques": 7500,
      "Ġexdiputa": 7501,
      "Estas": 7502,
      "Ġtareas": 7503,
      "ĠCarmen": 7504,
      "ĠmanifestaciÃ³n": 7505,
      "LEY": 7506,
      "ĠArtÃŃculos": 7507,
      "Ġcomerciales": 7508,
      "Ġrestricciones": 7509,
      "Ġconsumidor": 7510,
      "ĠcientÃŃfic": 7511,
      "Ġinjusti": 7512,
      "ecesitamos": 7513,
      "TARR": 7514,
      "viv": 7515,
      "Ġdoy": 7516,
      "erva": 7517,
      "Ġretro": 7518,
      "bido": 7519,
      "Ġsup": 7520,
      "derÃ³n": 7521,
      "Ġmarcha": 7522,
      "ICENS": 7523,
      "Ġplaza": 7524,
      "Ġdebajo": 7525,
      "Ġinversion": 7526,
      "ĠRELACIÃĵN": 7527,
      "Ġsancionar": 7528,
      "Ġfundamentalmente": 7529,
      "Ġhubiese": 7530,
      "ĠCOSTARR": 7531,
      "Ġcomprometido": 7532,
      "Ġampliamente": 7533,
      "Ġcandidato": 7534,
      "Todos": 7535,
      "ĠFINANCIAMIENTO": 7536,
      "Ġmanifies": 7537,
      "ampoco": 7538,
      "ĠestadÃŃsticas": 7539,
      "ĠVenezuela": 7540,
      "ĠunÃ¡nime": 7541,
      "ĠCOSTARRICENS": 7542,
      "Ġvaria": 7543,
      "culado": 7544,
      "derÃŃa": 7545,
      "Ġaco": 7546,
      "Ġacci": 7547,
      "Ġtri": 7548,
      "Ġpresta": 7549,
      "Ġsalido": 7550,
      "Ġresi": 7551,
      "Ġfinales": 7552,
      "ĠcooperaciÃ³n": 7553,
      "Ġplantas": 7554,
      "Ġafectado": 7555,
      "Ġconcesiones": 7556,
      "Ġ80": 7557,
      "Ġpostu": 7558,
      "ĠZele": 7559,
      "Ġurgentes": 7560,
      "Ġvalorar": 7561,
      "Ġindirec": 7562,
      "ĠBuenas": 7563,
      "Ġrenunciar": 7564,
      "ĠINSTITU": 7565,
      "Ġprofesores": 7566,
      "Ġmoratoria": 7567,
      "Ġadministraciones": 7568,
      "Ġresaltar": 7569,
      "ĠZeledÃ³n": 7570,
      "25": 7571,
      "mando": 7572,
      "Ġinmun": 7573,
      "Ġaltamente": 7574,
      "ĠDon": 7575,
      "ĠSec": 7576,
      "gadas": 7577,
      "Ġ2013": 7578,
      "Ġfinalidad": 7579,
      "Ġdejemos": 7580,
      "ĠLiberia": 7581,
      "Ġimpulso": 7582,
      "Ġequipos": 7583,
      "Ġdependen": 7584,
      "Ġconsecuente": 7585,
      "Ġincentivar": 7586,
      "ĠasociaciÃ³n": 7587,
      "Ġguanacaste": 7588,
      "ĠcaracterÃŃsticas": 7589,
      "ĠCalderÃ³n": 7590,
      "Ustedes": 7591,
      "Ġjornada": 7592,
      "Ġreligios": 7593,
      "Ġimpunidad": 7594,
      "ĠparÃ¡metros": 7595,
      "Vicepresidenta": 7596,
      "ggi": 7597,
      "igan": 7598,
      "trucciÃ³n": 7599,
      "Ġmarav": 7600,
      "ESTI": 7601,
      "Ġpongo": 7602,
      "ĠInfor": 7603,
      "teger": 7604,
      "Debemos": 7605,
      "ĠclÃ¡us": 7606,
      "Ġluchando": 7607,
      "Ġpudimos": 7608,
      "791": 7609,
      "Ġdiscre": 7610,
      "Ġaparte": 7611,
      "Ġmateriales": 7612,
      "Ġrelacionados": 7613,
      "Ġcuidados": 7614,
      "Ġarriba": 7615,
      "ĠJurÃŃd": 7616,
      "Ġinaceptable": 7617,
      "ĠNewton": 7618,
      "taril": 7619,
      "vidad": 7620,
      "Ġama": 7621,
      "Ġconcurso": 7622,
      "Ã¡ramos": 7623,
      "Ġfar": 7624,
      "Ġdelante": 7625,
      "Ġproduce": 7626,
      "Ġanda": 7627,
      "ĠFamil": 7628,
      "Ġverse": 7629,
      "Ġagrup": 7630,
      "Ġreglamen": 7631,
      "Ġproductividad": 7632,
      "dicar": 7633,
      "ĠordenDiputado": 7634,
      "Ġposici": 7635,
      "Ġdestinados": 7636,
      "Ġvoces": 7637,
      "ĠMejÃŃa": 7638,
      "ĠcÃ¡ncer": 7639,
      "Ġcuatrien": 7640,
      "endas": 7641,
      "ĠpÃ©s": 7642,
      "Ġatribu": 7643,
      "ĠCres": 7644,
      "publ": 7645,
      "gru": 7646,
      "Ġpreocupados": 7647,
      "Ġconstruido": 7648,
      "Ġingresar": 7649,
      "ĠpublicaciÃ³n": 7650,
      "Ġreconociendo": 7651,
      "Ġexcepcional": 7652,
      "Ġaudiencias": 7653,
      "glesi": 7654,
      "Ġremuneraciones": 7655,
      "Ġperfil": 7656,
      "ĠsuspensiÃ³n": 7657,
      "ĠPolicÃŃa": 7658,
      "ĠEMERGENCIA": 7659,
      "69": 7660,
      "ceros": 7661,
      "dustr": 7662,
      "Ġaeropu": 7663,
      "Ġsesionar": 7664,
      "ĠHemos": 7665,
      "ficios": 7666,
      "Ġvivido": 7667,
      "Ġ76": 7668,
      "Ġmencionaba": 7669,
      "cioso": 7670,
      "Ġlogro": 7671,
      "Ġgestiones": 7672,
      "Ġdocente": 7673,
      "Ġsencillo": 7674,
      "ĠVÃŃquez": 7675,
      "Ġrespetuoso": 7676,
      "Ġbendi": 7677,
      "Ġbancario": 7678,
      "ĠCrespo": 7679,
      "fono": 7680,
      "ĠÃ¡n": 7681,
      "tren": 7682,
      "Ġportillo": 7683,
      "ĠAida": 7684,
      "entazo": 7685,
      "Ġfracas": 7686,
      "TAN": 7687,
      "Ġadministrar": 7688,
      "Ġsolicitado": 7689,
      "Ġveintiocho": 7690,
      "ĠlegÃŃti": 7691,
      "Ġoficinas": 7692,
      "Ġobstante": 7693,
      "Ġsucedido": 7694,
      "Ġfronter": 7695,
      "cillerÃŃa": 7696,
      "ĠconvicciÃ³n": 7697,
      "Ġatropel": 7698,
      "doneidad": 7699,
      "lante": 7700,
      "Ã³nica": 7701,
      "Ġpap": 7702,
      "guales": 7703,
      "Ġtrim": 7704,
      "Ġacus": 7705,
      "ISIÃĵN": 7706,
      "ĠcuÃ¡ntas": 7707,
      "Ġredac": 7708,
      "ĠasignaciÃ³n": 7709,
      "ĠCancillerÃŃa": 7710,
      "Ġconectividad": 7711,
      "Ġarrastre": 7712,
      "Ġadjud": 7713,
      "ĠCOSTARRICENSE": 7714,
      "892": 7715,
      "Pues": 7716,
      "SOS": 7717,
      "Ġpul": 7718,
      "Ġfla": 7719,
      "ĠaltÃŃs": 7720,
      "ĠDolanescu": 7721,
      "Ġdescen": 7722,
      "Ġcompl": 7723,
      "Ġtemor": 7724,
      "ĠvotÃ©": 7725,
      "Ġcannabis": 7726,
      "Ġregal": 7727,
      "Ġdebates": 7728,
      "Ġfunciona": 7729,
      "ĠPROP": 7730,
      "Ġempezamos": 7731,
      "Ġcontributivo": 7732,
      "Ġdesign": 7733,
      "Ġconvocado": 7734,
      "ĠvehÃŃculo": 7735,
      "ĠmodernizaciÃ³n": 7736,
      "RIL": 7737,
      "at": 7738,
      "ualidad": 7739,
      "Ã¡tica": 7740,
      "mplen": 7741,
      "Ġpague": 7742,
      "ĠSAN": 7743,
      "Ġsolven": 7744,
      "ezca": 7745,
      "OSTO": 7746,
      "ĠestarÃ©": 7747,
      "Ġministerio": 7748,
      "Ġ84": 7749,
      "Ġfaltante": 7750,
      "Ġmagistradas": 7751,
      "ĠParaÃŃso": 7752,
      "ĠTrabaja": 7753,
      "Ġresponde": 7754,
      "Ġcuestionamientos": 7755,
      "ĠESTA": 7756,
      "Ġreserva": 7757,
      "ĠeliminaciÃ³n": 7758,
      "ĠenseÃ±anza": 7759,
      "ĠÃŃndice": 7760,
      "Ġblanco": 7761,
      "ĠABRIL": 7762,
      "ĠPacÃŃfico": 7763,
      "27": 7764,
      "Quer": 7765,
      "jÃ³": 7766,
      "Ġdrogas": 7767,
      "Ġidoneidad": 7768,
      "ĠRES": 7769,
      "ERO": 7770,
      "ĠFa": 7771,
      "Ġinstancias": 7772,
      "ĠTre": 7773,
      "ĠHerr": 7774,
      "ĠexpresiÃ³n": 7775,
      "Ġapoyado": 7776,
      "ĠquerÃŃan": 7777,
      "Ġproductiva": 7778,
      "Ġjunta": 7779,
      "Ġfalle": 7780,
      "Ġsolicitudes": 7781,
      "ĠmencionÃ©": 7782,
      "Ġoficiales": 7783,
      "760": 7784,
      "Ġdiscrim": 7785,
      "ĠincreÃŃ": 7786,
      "Ġinsistiendo": 7787,
      "ĠDerecho": 7788,
      "Ġ1998": 7789,
      "Ġcolectiva": 7790,
      "ĠcontradicciÃ³n": 7791,
      "Ġbalance": 7792,
      "Ġagradecimiento": 7793,
      "ĠHerrera": 7794,
      "?Â¿": 7795,
      "bÃ³": 7796,
      "Ġdeten": 7797,
      "Ġadi": 7798,
      "Ġcari": 7799,
      "Ã±amo": 7800,
      "ientas": 7801,
      "ĠAban": 7802,
      "ĠRÃŃo": 7803,
      "Ġpagamos": 7804,
      "ĠdonaciÃ³n": 7805,
      "ĠcaÃŃda": 7806,
      "ĠBID": 7807,
      "Ġllamo": 7808,
      "ĠPopular": 7809,
      "Ġirresponsables": 7810,
      "BIER": 7811,
      "Ġseguiremos": 7812,
      "pia": 7813,
      "reas": 7814,
      "ĠAhora": 7815,
      "Ġdesin": 7816,
      "ĠDECL": 7817,
      "Ġpresencial": 7818,
      "ĠVita": 7819,
      "ĠRed": 7820,
      "Ġpresupuestarias": 7821,
      "Ġcitar": 7822,
      "Ġempresarial": 7823,
      "Ġsane": 7824,
      "4450": 7825,
      "Ġrecomen": 7826,
      "Ġindicado": 7827,
      "trÃ³leo": 7828,
      "...,": 7829,
      "ĠAutorizaciÃ³n": 7830,
      "Ġamparo": 7831,
      "LOS": 7832,
      "MÃ¡s": 7833,
      "ianza": 7834,
      "dil": 7835,
      "ĠCrÃ©dito": 7836,
      "ueda": 7837,
      "ĠFuerza": 7838,
      "Ġcreando": 7839,
      "Ġsalvo": 7840,
      "Ġlleguen": 7841,
      "ecuciÃ³n": 7842,
      "abro": 7843,
      "Ġadm": 7844,
      "Ġgrado": 7845,
      "Ġentendiendo": 7846,
      "ĠintegraciÃ³n": 7847,
      "Ġdeclarar": 7848,
      "Ġdesafortun": 7849,
      "Ġalegr": 7850,
      "ĠcelebraciÃ³n": 7851,
      "Ġpolitiqu": 7852,
      "oÃ±a": 7853,
      "tible": 7854,
      "Ġfru": 7855,
      "Ġprogreso": 7856,
      "deo": 7857,
      "tum": 7858,
      "Ġguerra": 7859,
      "ĠEDUC": 7860,
      "ĠdiseÃ±": 7861,
      "rios": 7862,
      "mej": 7863,
      "Ġ74": 7864,
      "Ġproponiendo": 7865,
      "Ġllevamos": 7866,
      "Ġvacuna": 7867,
      "ĠâĢĺ": 7868,
      "Ġrural": 7869,
      "ĠAGOSTO": 7870,
      "Ġcoherencia": 7871,
      "Ġfomentar": 7872,
      "Ġvisual": 7873,
      "DecÃŃa": 7874,
      "ke": 7875,
      "ĠCreaciÃ³n": 7876,
      "resep": 7877,
      "Ġplus": 7878,
      "Ġserias": 7879,
      "Ġcay": 7880,
      "Ġventas": 7881,
      "ÃįS": 7882,
      "Ġdura": 7883,
      "Primero": 7884,
      "Ġllegaron": 7885,
      "ecope": 7886,
      "ĠPolÃŃticoDiputado": 7887,
      "Ġnegativa": 7888,
      "Ġidentifica": 7889,
      "Ã¡mara": 7890,
      "Ġdivor": 7891,
      "ĠCalvo": 7892,
      "ĠvÃŃctima": 7893,
      "Ġescasos": 7894,
      "abilidad": 7895,
      "jada": 7896,
      "unque": 7897,
      "Ġestatales": 7898,
      "Ġsimpl": 7899,
      "ĠAdemÃ¡s": 7900,
      "Ġsupone": 7901,
      "ĠMiÃ©rcoles": 7902,
      "zofe": 7903,
      "ĠPlena": 7904,
      "Ġcris": 7905,
      "ifa": 7906,
      "Ġaprobemos": 7907,
      "Ġviolen": 7908,
      "ĠPRÃīS": 7909,
      "Ġrelaci": 7910,
      "Ġanuncio": 7911,
      "Ġdirigir": 7912,
      "866": 7913,
      "Ġlleno": 7914,
      "ĠescÃ¡nd": 7915,
      "ĠdivisiÃ³n": 7916,
      "Ġirregu": 7917,
      "Ġconsumidores": 7918,
      "ĠSOCIAL": 7919,
      "ĠTRANSI": 7920,
      "Ġlimonenses": 7921,
      "ĠDECLAR": 7922,
      "ĠPRÃīSTA": 7923,
      "allas": 7924,
      "icada": 7925,
      "Ġtaba": 7926,
      "Ġarro": 7927,
      "echas": 7928,
      "Ġpositiva": 7929,
      "ĠreciÃ©n": 7930,
      "Ġgravar": 7931,
      "Ġbases": 7932,
      "Ġdejarlo": 7933,
      "ĠBanc": 7934,
      "Ġgarantice": 7935,
      "Ġveintisiete": 7936,
      "Ġconveniente": 7937,
      "ĠInteramericana": 7938,
      "Ġinstitucionales": 7939,
      "Ġdeterminado": 7940,
      "Estoy": 7941,
      "ĠtecnologÃŃas": 7942,
      "Ġdevuel": 7943,
      "Ġconstituye": 7944,
      "ĠselecciÃ³n": 7945,
      "Ġencaden": 7946,
      "Ġusuarios": 7947,
      "Ġadolescentes": 7948,
      "ISCAL": 7949,
      "ĠSuperior": 7950,
      "ĠÃ©xito": 7951,
      "zofeifa": 7952,
      "lÃ³": 7953,
      "uto": 7954,
      "Ġparidad": 7955,
      "ĠRecope": 7956,
      "Ġsubir": 7957,
      "ĠIgn": 7958,
      "Ġsalva": 7959,
      "Ġcarro": 7960,
      "Ġbeneficiarios": 7961,
      "Ġsiguiendo": 7962,
      "ĠPOLÃįTICODiputado": 7963,
      "Ġencuentro": 7964,
      "Ġ2006": 7965,
      "Ġoficialista": 7966,
      "Ġcuota": 7967,
      "ĠIVM": 7968,
      "ÃģLISIS": 7969,
      "258": 7970,
      "iores": 7971,
      "ĠsÃ¡bado": 7972,
      "Ġemo": 7973,
      "trados": 7974,
      "Ġlegado": 7975,
      "ĠSAL": 7976,
      "Ġpresupuestarios": 7977,
      "Ġespal": 7978,
      "Ġvaliente": 7979,
      "ĠcalificaciÃ³n": 7980,
      "Ġcomunal": 7981,
      "Ġ43": 7982,
      "Ġhumo": 7983,
      "Ġconstruyendo": 7984,
      "Ġmalos": 7985,
      "Ġdejaron": 7986,
      "IDO": 7987,
      "Ġpretender": 7988,
      "Ġturno": 7989,
      "Ġabierta": 7990,
      "ĠcondonaciÃ³n": 7991,
      "677": 7992,
      "bb": 7993,
      "ĠQuiero": 7994,
      "Ġdedo": 7995,
      "tez": 7996,
      "unda": 7997,
      "Ġfoto": 7998,
      "Ġportillos": 7999,
      "Ġproven": 8000,
      "Ġalma": 8001,
      "ĠAresep": 8002,
      "Ġquiso": 8003,
      "oya": 8004,
      "ĠplÃ¡s": 8005,
      "Ġmagn": 8006,
      "Ġdecidido": 8007,
      "Ġ56": 8008,
      "Ġpresentadas": 8009,
      "Ġindis": 8010,
      "Ġinfl": 8011,
      "Ġcomplejo": 8012,
      "Ġutilizados": 8013,
      "Ġsimilares": 8014,
      "Ġexcusa": 8015,
      "Ġexcelente": 8016,
      "549": 8017,
      "813": 8018,
      "quin": 8019,
      "Ġparlamento": 8020,
      "Ġprote": 8021,
      "Ġtope": 8022,
      "Ġconstruc": 8023,
      "Ġmacro": 8024,
      "Ġdesarrolla": 8025,
      "Ġpiden": 8026,
      "ĠdaÃ±os": 8027,
      "Ġconocen": 8028,
      "Ġconsecuentes": 8029,
      "Ġexpedi": 8030,
      "rozco": 8031,
      "maciones": 8032,
      "Ġenm": 8033,
      "mag": 8034,
      "ĠGO": 8035,
      "Ġcostas": 8036,
      "ĠOrozco": 8037,
      "aves": 8038,
      "Ġpriva": 8039,
      "Ġcumplan": 8040,
      "Ġpreguntar": 8041,
      "Ġfalsas": 8042,
      "Ġquinientas": 8043,
      "ÃģN": 8044,
      "Ġ148": 8045,
      "ĠlÃŃneas": 8046,
      "ĠMarco": 8047,
      "Ġliquidez": 8048,
      "ĠvacÃŃo": 8049,
      "Ġextranjera": 8050,
      "Ġanualidades": 8051,
      "Ġbarata": 8052,
      "Ġbarbaridad": 8053,
      "ĠIgnacio": 8054,
      "Ser": 8055,
      "osas": 8056,
      "Ġcic": 8057,
      "tiles": 8058,
      "Ġnum": 8059,
      "tora": 8060,
      "aÃ±os": 8061,
      "drÃŃa": 8062,
      "Ġnegar": 8063,
      "Ġfundamento": 8064,
      "ĠCONFORM": 8065,
      "ĠsupervisiÃ³n": 8066,
      "Ġlogre": 8067,
      "Ġcorrectamente": 8068,
      "Ã¡rse": 8069,
      "Ġestructuras": 8070,
      "Ġidentificar": 8071,
      "Ġvigilancia": 8072,
      "ĠEmergencia": 8073,
      "Ġacostum": 8074,
      "ĠCONFORMIDAD": 8075,
      "CES": 8076,
      "Finalmente": 8077,
      "UD": 8078,
      "cra": 8079,
      "pÃŃ": 8080,
      "rÃ¡n": 8081,
      "tilic": 8082,
      "trando": 8083,
      "Ġdeleg": 8084,
      "ĠCN": 8085,
      "Ġquie": 8086,
      "ficacia": 8087,
      "Ġnace": 8088,
      "Ġ75": 8089,
      "Ġcertifica": 8090,
      "Ġsuperar": 8091,
      "Ġintegridad": 8092,
      "Ġocupar": 8093,
      "Ġvisita": 8094,
      "IBU": 8095,
      "Ġfeliz": 8096,
      "Ġmiembro": 8097,
      "Ġagricultura": 8098,
      "Ġviable": 8099,
      "Ġbolsa": 8100,
      "Ġparlamentario": 8101,
      "Ġconsolida": 8102,
      "Ġbonito": 8103,
      "Ġaconte": 8104,
      "ĠSEGURIDAD": 8105,
      "ĠINTERNACIONAL": 8106,
      "omunicaciones": 8107,
      "ĠPRÃīSTAMO": 8108,
      "67": 8109,
      "ps": 8110,
      "Ġline": 8111,
      "Ġesca": 8112,
      "Ġlamento": 8113,
      "Ġpresiones": 8114,
      "Ġojo": 8115,
      "Ġdijimos": 8116,
      "Ġplenamente": 8117,
      "Ġcrean": 8118,
      "Ġverlo": 8119,
      "Ġlleve": 8120,
      "tinueve": 8121,
      "Ġparticulares": 8122,
      "Ġllamados": 8123,
      "Ġimpulsando": 8124,
      "Ġcarros": 8125,
      "Ġconsensu": 8126,
      "Ġequivo": 8127,
      "Ġprohibir": 8128,
      "Ġimagino": 8129,
      "ĠFranggi": 8130,
      "ĠEmergencias": 8131,
      "ĠCONSTITUCIONAL": 8132,
      "Ġreservas": 8133,
      "Ġsegundos": 8134,
      "ĠTrejos": 8135,
      "67736": 8136,
      "itud": 8137,
      "Ġpilar": 8138,
      "iencias": 8139,
      "ĠNa": 8140,
      "dum": 8141,
      "Ġsincer": 8142,
      "Ġcreado": 8143,
      "ĠversiÃ³n": 8144,
      "ĠINFORM": 8145,
      "Ġjurisdic": 8146,
      "Ġimpactos": 8147,
      "Ġaprovechamiento": 8148,
      "Ġpriorizar": 8149,
      "Ġahorros": 8150,
      "Ġexpresa": 8151,
      "ĠlÃ³gico": 8152,
      "Ġbarra": 8153,
      "Ġdesigualdades": 8154,
      "Ġfacili": 8155,
      "ĠAgro": 8156,
      "ĠelÃ©ctrico": 8157,
      "Ante": 8158,
      "Ġlimitaciones": 8159,
      "Ġcensura": 8160,
      "ĠDiscapacidad": 8161,
      "ĠcÃ¡Ã±amo": 8162,
      "Ġbebidas": 8163,
      "Ġpoliciales": 8164,
      "ĠGOBIER": 8165,
      "Uno": 8166,
      "iciÃ³n": 8167,
      "ertos": 8168,
      "Ġeficacia": 8169,
      "ecomunicaciones": 8170,
      "ĠbÃºs": 8171,
      "Ġfinca": 8172,
      "Ġcanon": 8173,
      "Ġplanta": 8174,
      "Ġlider": 8175,
      "Ġ9791": 8176,
      "ĠutilizaciÃ³n": 8177,
      "Ġterminal": 8178,
      "Ġintento": 8179,
      "Ġencontrado": 8180,
      "Ġpedirles": 8181,
      "738": 8182,
      "plom": 8183,
      "Ġendeud": 8184,
      "Ġanunci": 8185,
      "Ġmaterias": 8186,
      "Ġnormalmente": 8187,
      "ĠViol": 8188,
      "Ġintervenir": 8189,
      "Todo": 8190,
      "Ġrelacionado": 8191,
      "Ġteletra": 8192,
      "Ġechar": 8193,
      "Ġviceministro": 8194,
      "ĠcÃ¡lculo": 8195,
      "Ġmanipu": 8196,
      "Ġdesperdi": 8197,
      "Ġdescentral": 8198,
      "vas": 8199,
      "Ġnaciones": 8200,
      "cuÃ¡n": 8201,
      "Ġsigo": 8202,
      "Ġdesg": 8203,
      "Ġdestitu": 8204,
      "dujo": 8205,
      "Ġnie": 8206,
      "Ġcaminos": 8207,
      "Ġutilic": 8208,
      "Ġveintinueve": 8209,
      "Ġ89": 8210,
      "Ġterrible": 8211,
      "ĠocurriÃ³": 8212,
      "ĠcontinÃºa": 8213,
      "Ġmodalidad": 8214,
      "ĠGuardia": 8215,
      "ĠGOBIERNO": 8216,
      "Po": 8217,
      "dis": 8218,
      "Ġvesti": 8219,
      "ĠDice": 8220,
      "Ġpagado": 8221,
      "Ġexpuesto": 8222,
      "Ġexponer": 8223,
      "bert": 8224,
      "Ġcambia": 8225,
      "ĠUniÃ³n": 8226,
      "Ġ78": 8227,
      "ĠProteger": 8228,
      "Ġprocesal": 8229,
      "Ġcuestionar": 8230,
      "Ġvulnerable": 8231,
      "Habl": 8232,
      "Ġrango": 8233,
      "BRA": 8234,
      "RES": 8235,
      "pÃ³": 8236,
      "Ġcontiene": 8237,
      "Ġdiagn": 8238,
      "Ġestados": 8239,
      "ĠtocÃ³": 8240,
      "Ġtipos": 8241,
      "uesto": 8242,
      "ĠdecidiÃ³": 8243,
      "Ġinsto": 8244,
      "Ġinternos": 8245,
      "Ġgeneren": 8246,
      "Ġcobra": 8247,
      "ĠSegre": 8248,
      "Ġcompetir": 8249,
      "Ġconveniencia": 8250,
      "Ġconviene": 8251,
      "Ġtributarias": 8252,
      "Ġocupamos": 8253,
      "ĠrectorÃŃa": 8254,
      "Ġinad": 8255,
      "INISTRA": 8256,
      "ĠTurismo": 8257,
      "ostenible": 8258,
      "ĠDEFENS": 8259,
      "ĠEscuela": 8260,
      "ĠbÃºsque": 8261,
      "zgos": 8262,
      "ĠQuÃ©": 8263,
      "Ġporcen": 8264,
      "bida": 8265,
      "Ġtendencia": 8266,
      "Ġ9926": 8267,
      "Ġpanor": 8268,
      "cripciÃ³n": 8269,
      "Ġdeclaratoria": 8270,
      "Ġconsultar": 8271,
      "ĠEconÃ³mica": 8272,
      "TEGRA": 8273,
      "Ġdirigido": 8274,
      "Ġacercar": 8275,
      "Ġdenunciado": 8276,
      "Ġcartagin": 8277,
      "Ġineficiencia": 8278,
      "Ġpotestades": 8279,
      "Ġcuerpos": 8280,
      "ĠamnistÃŃa": 8281,
      "MociÃ³n": 8282,
      "Ġafrodescen": 8283,
      "ĠAbangares": 8284,
      "536": 8285,
      "UAL": 8286,
      "ador": 8287,
      "bor": 8288,
      "Ġefica": 8289,
      "Ġparecer": 8290,
      "ecos": 8291,
      "ĠperdiÃ³": 8292,
      "Ġcumplen": 8293,
      "Ġsiente": 8294,
      "ĠAra": 8295,
      "mentado": 8296,
      "ĠINTEGRA": 8297,
      "Ġnombra": 8298,
      "Ġsolicitando": 8299,
      "Ġabsoluto": 8300,
      "Ġaumenta": 8301,
      "ĠSolano": 8302,
      "Ġdefendido": 8303,
      "Ġexistentes": 8304,
      "Ġpuerto": 8305,
      "Ã©ndoles": 8306,
      "ĠindicÃ³": 8307,
      "Ġsometer": 8308,
      "Ġsubsidios": 8309,
      "Ġpierde": 8310,
      "Ġexpectativas": 8311,
      "ĠADM": 8312,
      "Ġmaestros": 8313,
      "bonizaciÃ³n": 8314,
      "Ġintercambio": 8315,
      "bby": 8316,
      "xil": 8317,
      "Ġdejo": 8318,
      "Ġatien": 8319,
      "Ġenrique": 8320,
      "isn": 8321,
      "Ġincapacidad": 8322,
      "Ġestafa": 8323,
      "Ġbola": 8324,
      "ĠRueda": 8325,
      "Ġpaguen": 8326,
      "ĠSERV": 8327,
      "Ġ208": 8328,
      "ĠIMP": 8329,
      "Ġvotemos": 8330,
      "ĠmenciÃ³n": 8331,
      "ĠIncopesca": 8332,
      "Ġdesarrollando": 8333,
      "pecciÃ³n": 8334,
      "Ġoptim": 8335,
      "Ġconfun": 8336,
      "Ġquinto": 8337,
      "mÃ¡ticas": 8338,
      "ĠCOMISIÃĵN": 8339,
      "ĠTransi": 8340,
      "Ġconvierte": 8341,
      "Ġfamoso": 8342,
      "ĠlicitaciÃ³n": 8343,
      "Ġsolventar": 8344,
      "ĠbÃºsqueda": 8345,
      "able": 8346,
      "hvi": 8347,
      "Ġnic": 8348,
      "Ġpresi": 8349,
      "Ġrecal": 8350,
      "Ã©u": 8351,
      "Ġapos": 8352,
      "Ġacomo": 8353,
      "Ġmach": 8354,
      "Ġimportar": 8355,
      "Ġruego": 8356,
      "Ġfincas": 8357,
      "Ġcartera": 8358,
      "ĠpetrÃ³leo": 8359,
      "tilla": 8360,
      "Ġ42": 8361,
      "Ġaquello": 8362,
      "Ġproponente": 8363,
      "Ġentien": 8364,
      "IDADES": 8365,
      "Ġdefinitiva": 8366,
      "Ġrequerimientos": 8367,
      "Ġescrito": 8368,
      "Ġsujetos": 8369,
      "Ġcastigar": 8370,
      "Ġimpide": 8371,
      "Ġcomplicado": 8372,
      "Ġlengua": 8373,
      "ĠincreÃŃble": 8374,
      "ĠADMINISTRA": 8375,
      "isneros": 8376,
      "37": 8377,
      "814": 8378,
      "Ġpenas": 8379,
      "tific": 8380,
      "ĠCisneros": 8381,
      "Ġaltura": 8382,
      "Ġpasaron": 8383,
      "Ġcoti": 8384,
      "ĠperÃŃodos": 8385,
      "Ġ88": 8386,
      "Ġparticipa": 8387,
      "Ã¡ndolo": 8388,
      "589": 8389,
      "Ġresuelto": 8390,
      "Ġtesis": 8391,
      "itÃ©s": 8392,
      "ĠVIH": 8393,
      "Ġcapaz": 8394,
      "ĠCuarta": 8395,
      "Dicho": 8396,
      "Agra": 8397,
      "Ġeficientes": 8398,
      "Ġsepa": 8399,
      "Ã±ez": 8400,
      "Ġgal": 8401,
      "iendas": 8402,
      "ĠAc": 8403,
      "ĠAzofeifa": 8404,
      "Ġquisi": 8405,
      "Ġasal": 8406,
      "Ġcreci": 8407,
      "Ġseguido": 8408,
      "Ġbienven": 8409,
      "delante": 8410,
      "Ġpose": 8411,
      "ĠbÃ¡sico": 8412,
      "Ġcontenidos": 8413,
      "Ġobligados": 8414,
      "Ġdiversidad": 8415,
      "Ġindustrial": 8416,
      "Ġuniversitarios": 8417,
      "Ġpienso": 8418,
      "Ġvigilantes": 8419,
      "ĠÃ³p": 8420,
      "ĠINVESTI": 8421,
      "ĠVivienda": 8422,
      "Ġaire": 8423,
      "pÃŃzar": 8424,
      "ĠINVESTIG": 8425,
      "Nada": 8426,
      "dÃ³nde": 8427,
      "gÃ¡mos": 8428,
      "zcan": 8429,
      "Ġps": 8430,
      "ĠhÃ¡": 8431,
      "Ġdelicado": 8432,
      "ĠCAN": 8433,
      "cuerdo": 8434,
      "ĠserÃŃan": 8435,
      "Esos": 8436,
      "Ġvotaciones": 8437,
      "ĠPROM": 8438,
      "ĠBanhvi": 8439,
      "ĠChan": 8440,
      "ĠtrÃ¡fico": 8441,
      "Ġmaneja": 8442,
      "Ġobligatorio": 8443,
      "Ġdejamos": 8444,
      "Ġfelicito": 8445,
      "Ġlecciones": 8446,
      "Ġimplicaciones": 8447,
      "Ġintroducir": 8448,
      "Ġcontestar": 8449,
      "Ġconductas": 8450,
      "afir": 8451,
      "ĠautÃ³nomas": 8452,
      "ĠTRANSITORIO": 8453,
      "ĠPROMO": 8454,
      "EDAD": 8455,
      "IV": 8456,
      "ifer": 8457,
      "Ġprac": 8458,
      "ariz": 8459,
      "Ġtol": 8460,
      "Ġmetieron": 8461,
      "rump": 8462,
      "Ġcambiando": 8463,
      "mentando": 8464,
      "ĠescuchÃ©": 8465,
      "Ġfaltas": 8466,
      "Ġesperan": 8467,
      "Buenos": 8468,
      "Ġplataformas": 8469,
      "Ġlarga": 8470,
      "Ġtributarios": 8471,
      "trices": 8472,
      "Ġconsensos": 8473,
      "590": 8474,
      "Ġinsuficiente": 8475,
      "Ġtempran": 8476,
      "Ġbarras": 8477,
      "ĠapelaciÃ³n": 8478,
      "Ġretiro": 8479,
      "Participaciones": 8480,
      "Ġrostro": 8481,
      "Ġcomparecencia": 8482,
      "ly": 8483,
      "pr": 8484,
      "Ġdr": 8485,
      "ĠlÃ¡stima": 8486,
      "Ġcontener": 8487,
      "Ġparecen": 8488,
      "biÃ³": 8489,
      "Ġlobby": 8490,
      "ĠAiza": 8491,
      "ulin": 8492,
      "Ġterap": 8493,
      "Ġtrescientas": 8494,
      "Ġ70": 8495,
      "cepciÃ³n": 8496,
      "Ġexplicaciones": 8497,
      "ĠanunciÃ³": 8498,
      "Ġdespido": 8499,
      "Ġservidor": 8500,
      "ianzas": 8501,
      "Ġacredi": 8502,
      "Ġcomportamiento": 8503,
      "Claro": 8504,
      "Durante": 8505,
      "TICA": 8506,
      "lle": 8507,
      "Ã¡ticos": 8508,
      "Ġreafir": 8509,
      "ĠtraÃŃdo": 8510,
      "viar": 8511,
      "Ġvergon": 8512,
      "ĠniÃ±a": 8513,
      "quitec": 8514,
      "Ġllaman": 8515,
      "QuiÃ©n": 8516,
      "Ġespecialistas": 8517,
      "Ġ60": 8518,
      "Ġfila": 8519,
      "Ġrubros": 8520,
      "Ġempezando": 8521,
      "Ġprotegidas": 8522,
      "Ġestilo": 8523,
      "ĠNiÃ±ez": 8524,
      "Ġvincula": 8525,
      "Ġconcretos": 8526,
      "Ġpeligros": 8527,
      "Ġsuficientemente": 8528,
      "ĠPROT": 8529,
      "Ġconvertido": 8530,
      "Ġagradecerle": 8531,
      "Ġaprender": 8532,
      "ĠsatisfacciÃ³n": 8533,
      "Ġestuviera": 8534,
      "Ġcontundentes": 8535,
      "Ġabrazo": 8536,
      "Ġcementazo": 8537,
      "ĠperiÃ³dico": 8538,
      "Ġinversionistas": 8539,
      "Sab": 8540,
      "ejas": 8541,
      "iaciÃ³n": 8542,
      "up": 8543,
      "Ġdetener": 8544,
      "Ġlin": 8545,
      "tori": 8546,
      "Ġaccionar": 8547,
      "Ġtej": 8548,
      "Esas": 8549,
      "vertir": 8550,
      "igna": 8551,
      "pote": 8552,
      "ĠordenDiputada": 8553,
      "TRUC": 8554,
      "Ġdirectos": 8555,
      "Ġaumentos": 8556,
      "Ġclima": 8557,
      "Ġdebidamente": 8558,
      "Ġsufrido": 8559,
      "Ġliberacion": 8560,
      "Ġconcreta": 8561,
      "Ġentrarle": 8562,
      "DespuÃ©s": 8563,
      "Ġporcentajes": 8564,
      "Ġfiguras": 8565,
      "Ġincluido": 8566,
      "Ġaumentando": 8567,
      "ĠcontaminaciÃ³n": 8568,
      "Ġnutr": 8569,
      "Ġescala": 8570,
      "ĠalcohÃ³l": 8571,
      "ĠsocioeconÃ³m": 8572,
      "ĠAdul": 8573,
      "ĠÃ¡nimo": 8574,
      "Ġtrimestre": 8575,
      "Ġvergonzos": 8576,
      "dero": 8577,
      "gil": 8578,
      "ite": 8579,
      "Ġricos": 8580,
      "Ġdetec": 8581,
      "Ġlavado": 8582,
      "uno": 8583,
      "Ġene": 8584,
      "ĠPiza": 8585,
      "Ġiguales": 8586,
      "later": 8587,
      "ĠAdo": 8588,
      "tesis": 8589,
      "Ġtama": 8590,
      "Ġconsejo": 8591,
      "Ġcosta": 8592,
      "Ġandar": 8593,
      "ĠTal": 8594,
      "Ġcau": 8595,
      "Ġdiscute": 8596,
      "pito": 8597,
      "ĠsÃŃn": 8598,
      "Ġestuve": 8599,
      "ĠUSO": 8600,
      "Ġreforzar": 8601,
      "Ġgastando": 8602,
      "Ġdeberes": 8603,
      "TAS": 8604,
      "ĠminerÃŃa": 8605,
      "Ġestablecen": 8606,
      "Ġciudadanas": 8607,
      "Ġahorrar": 8608,
      "ĠpolicÃŃa": 8609,
      "Ġocupan": 8610,
      "Ġtomemos": 8611,
      "Ġinmediatamente": 8612,
      "Ġrespetuosamente": 8613,
      "Ġsorpresa": 8614,
      "Ġsujeto": 8615,
      "ĠelÃ©ctrica": 8616,
      "Ġgerente": 8617,
      "Ġtextualmente": 8618,
      "ĠMigraciÃ³n": 8619,
      "Ġtrascendental": 8620,
      "ĠConvenio": 8621,
      "Ġmaravillos": 8622,
      "Ġcomplaci": 8623,
      "Ġdiscrimina": 8624,
      "Ġpanorama": 8625,
      "DoÃ±a": 8626,
      "Tiene": 8627,
      "tiel": 8628,
      "icÃŃas": 8629,
      "Ġrece": 8630,
      "ĠalusiÃ³n": 8631,
      "Ġalianzas": 8632,
      "Ġgasta": 8633,
      "peles": 8634,
      "Ġvej": 8635,
      "Ġauxil": 8636,
      "Ġtomaron": 8637,
      "Ġcerrado": 8638,
      "237": 8639,
      "049": 8640,
      "Ġhiciera": 8641,
      "500": 8642,
      "ĠvaloraciÃ³n": 8643,
      "Ġestableciendo": 8644,
      "ĠpermitirÃ¡": 8645,
      "OPER": 8646,
      "MPLI": 8647,
      "Ġdirectores": 8648,
      "Ġestrategias": 8649,
      "Ġlectivo": 8650,
      "Ġmigra": 8651,
      "ĠCOOPER": 8652,
      "ĠfirmÃ³": 8653,
      "ĠtelÃ©": 8654,
      "ĠcÃ¡rcel": 8655,
      "Ġanexo": 8656,
      "99": 8657,
      "BIL": 8658,
      "bu": 8659,
      "camente": 8660,
      "ĠhÃŃ": 8661,
      "Ġinqui": 8662,
      "ĠcomitÃ©s": 8663,
      "tuvo": 8664,
      "Ġdif": 8665,
      "late": 8666,
      "ĠFe": 8667,
      "ĠJUN": 8668,
      "ĠvenÃŃan": 8669,
      "Ġtercero": 8670,
      "inae": 8671,
      "Ġ52": 8672,
      "Ġlograron": 8673,
      "Ġambas": 8674,
      "ĠpolicÃŃas": 8675,
      "Ġganado": 8676,
      "ĠconformaciÃ³n": 8677,
      "ĠEconomÃŃa": 8678,
      "Ġsolidaria": 8679,
      "ĠAPM": 8680,
      "Ġsexo": 8681,
      "Ġauster": 8682,
      "ĠÃ¡mbitos": 8683,
      "Ġpiensa": 8684,
      "Ġtransformar": 8685,
      "Ġguarda": 8686,
      "Ġestando": 8687,
      "Ġjefaturas": 8688,
      "Ġnegligencia": 8689,
      "ĠRafa": 8690,
      "Ġextranjeros": 8691,
      "ĠEDUCACIÃĵN": 8692,
      "Dis": 8693,
      "Ter": 8694,
      "plica": 8695,
      "Ġaz": 8696,
      "Ġflu": 8697,
      "icados": 8698,
      "Ġexamen": 8699,
      "ieren": 8700,
      "Ġmadu": 8701,
      "ĠsalÃ³n": 8702,
      "Ġrene": 8703,
      "Ġsobreviv": 8704,
      "ĠHo": 8705,
      "Ġcolo": 8706,
      "Ġ46": 8707,
      "Ġordenar": 8708,
      "Ġpese": 8709,
      "Ġ95": 8710,
      "Ġbach": 8711,
      "ADAS": 8712,
      "Ġfuncionar": 8713,
      "Ġregulaciones": 8714,
      "ĠiniciÃ³": 8715,
      "Ġexcluir": 8716,
      "Ġpronta": 8717,
      "Ġincrementar": 8718,
      "ĠCentroamÃ©rica": 8719,
      "ĠContrataciÃ³n": 8720,
      "Ġacorde": 8721,
      "Ġdespropor": 8722,
      "Ġagilizar": 8723,
      "ĠPÃļBLICAS": 8724,
      "Ġvestiduras": 8725,
      "Ciertamente": 8726,
      "ju": 8727,
      "Ġer": 8728,
      "Ġabajo": 8729,
      "Ġqueden": 8730,
      "Ġlatino": 8731,
      "ticiÃ³n": 8732,
      "Ġconme": 8733,
      "Ġvicios": 8734,
      "Ġdiera": 8735,
      "mamos": 8736,
      "ĠDIS": 8737,
      "Ġaplique": 8738,
      "Ġarran": 8739,
      "Ġforman": 8740,
      "Ġgenu": 8741,
      "Ġpuesta": 8742,
      "Ġ72": 8743,
      "ĠvotarÃ©": 8744,
      "Ġautoriza": 8745,
      "TIR": 8746,
      "Ġexistido": 8747,
      "ĠexistÃŃa": 8748,
      "Ġsupervis": 8749,
      "ĠjurÃŃdicos": 8750,
      "Ġpropiamente": 8751,
      "Ġ2002": 8752,
      "Ġenormes": 8753,
      "tigamiento": 8754,
      "Ġmultas": 8755,
      "Ġsienten": 8756,
      "ts": 8757,
      "Ġsano": 8758,
      "Ġvio": 8759,
      "Ġinex": 8760,
      "Ġcubier": 8761,
      "Ġtierr": 8762,
      "aÃ±a": 8763,
      "minal": 8764,
      "ĠUlate": 8765,
      "Ġrespetando": 8766,
      "Ġescuchamos": 8767,
      "ĠdÃ©bil": 8768,
      "Ġpatronos": 8769,
      "Ġanalizando": 8770,
      "Ġinterpretaciones": 8771,
      "Ġevasores": 8772,
      "Ġdesconfi": 8773,
      "Ġmensajes": 8774,
      "Ġ2009": 8775,
      "Ġaleja": 8776,
      "habili": 8777,
      "Ġmodernizar": 8778,
      "ĠCONSTITUCIÃĵN": 8779,
      "Ġesquema": 8780,
      "ĠCNP": 8781,
      "Adelante": 8782,
      "Sobre": 8783,
      "sar": 8784,
      "Ġza": 8785,
      "Ġamar": 8786,
      "Ġconmigo": 8787,
      "omos": 8788,
      "Ġape": 8789,
      "izaciones": 8790,
      "Ġmilitar": 8791,
      "Ġarroz": 8792,
      "ĠRegu": 8793,
      "Ġfuego": 8794,
      "Ġcanal": 8795,
      "ĠInciso": 8796,
      "Ġhacienda": 8797,
      "Ġmejoramiento": 8798,
      "Ġayudas": 8799,
      "Ġvotarlo": 8800,
      "Ġdirectiva": 8801,
      "ĠMontiel": 8802,
      "Ġlogremos": 8803,
      "Ġconvoc": 8804,
      "ĠPepe": 8805,
      "Ġaplicado": 8806,
      "Ġconversado": 8807,
      "Ġregulador": 8808,
      "5228": 8809,
      "Ġextern": 8810,
      "Ġinmue": 8811,
      "Ġinstalaciones": 8812,
      "ĠViolencia": 8813,
      "Ġtierras": 8814,
      "itarios": 8815,
      "onamiento": 8816,
      "ticar": 8817,
      "ĠharÃŃa": 8818,
      "bla": 8819,
      "Ġperifer": 8820,
      "gable": 8821,
      "ĠdebÃŃa": 8822,
      "Ġciudades": 8823,
      "ctualmente": 8824,
      "Ġpude": 8825,
      "Ġposter": 8826,
      "ĠpidiÃ³": 8827,
      "Ġlegiti": 8828,
      "ĠnaciÃ³": 8829,
      "ĠagrÃŃcolas": 8830,
      "Ġmanifiesta": 8831,
      "ĠINSTITUTO": 8832,
      "public": 8833,
      "Ġpluses": 8834,
      "Pre": 8835,
      "itivamente": 8836,
      "oper": 8837,
      "tÃ©n": 8838,
      "Ġdeficiencias": 8839,
      "inten": 8840,
      "Ġhero": 8841,
      "Ġsiti": 8842,
      "ĠMinae": 8843,
      "Ġimpr": 8844,
      "rita": 8845,
      "Ġanim": 8846,
      "Ġveto": 8847,
      "Ġcomunicado": 8848,
      "Ġ65": 8849,
      "Ġsangre": 8850,
      "Ġrendimiento": 8851,
      "Ġfijar": 8852,
      "crito": 8853,
      "Ġconcretar": 8854,
      "Ġprofundidad": 8855,
      "Ġdeposi": 8856,
      "ĠelaboraciÃ³n": 8857,
      "Ġcurules": 8858,
      "ĠÃŃbamos": 8859,
      "ĠreestructuraciÃ³n": 8860,
      "ĠcariÃ±o": 8861,
      "Ġlineamientos": 8862,
      "Ġinquie": 8863,
      "cr": 8864,
      "cor": 8865,
      "ĠactÃº": 8866,
      "Ġdecirnos": 8867,
      "talla": 8868,
      "ĠBa": 8869,
      "Ġsentimos": 8870,
      "Ġreplante": 8871,
      "Ġliter": 8872,
      "ĠEjÃ©rcito": 8873,
      "Ġinicial": 8874,
      "Ġpatrimon": 8875,
      "ĠacompaÃ±a": 8876,
      "Ġdebiendo": 8877,
      "Ġobligatoria": 8878,
      "Ġvincul": 8879,
      "Ġsirva": 8880,
      "Ġcolectivas": 8881,
      "ĠturÃŃstica": 8882,
      "Ġconvierta": 8883,
      "Ġconvertirse": 8884,
      "Ġhumanidad": 8885,
      "ĠintermediaciÃ³n": 8886,
      "Resulta": 8887,
      "ĠXXI": 8888,
      "ĠSERVICI": 8889,
      "cla": 8890,
      "vier": 8891,
      "teles": 8892,
      "Ġgracia": 8893,
      "resas": 8894,
      "ĠLor": 8895,
      "Ġdesem": 8896,
      "pelaciÃ³n": 8897,
      "ĠFallas": 8898,
      "Ġmedicina": 8899,
      "ĠCompaÃ±": 8900,
      "Ġlabora": 8901,
      "Ġfiesta": 8902,
      "Ġdefine": 8903,
      "Ġpropie": 8904,
      "Ġsignificativa": 8905,
      "Ġtributos": 8906,
      "ĠmÃŃnima": 8907,
      "ĠcrÃŃticas": 8908,
      "Ġconsolidar": 8909,
      "Ġcombustible": 8910,
      "Ġcomprender": 8911,
      "Ġdisfrutar": 8912,
      "Ġgira": 8913,
      "Ġcemento": 8914,
      "Ġisla": 8915,
      "Ġcontralora": 8916,
      "Ġrestring": 8917,
      "Ġvejez": 8918,
      "47": 8919,
      "Ġces": 8920,
      "ĠmisiÃ³n": 8921,
      "ĠmÃŃo": 8922,
      "daje": 8923,
      "Ġconcil": 8924,
      "Ġfre": 8925,
      "Ġcomputa": 8926,
      "ĠPris": 8927,
      "ĠCENT": 8928,
      "Ġalber": 8929,
      "Ġdespi": 8930,
      "Ġhayamos": 8931,
      "Ġrealice": 8932,
      "beros": 8933,
      "tÃŃn": 8934,
      "ĠdeberÃ¡n": 8935,
      "Ġexistente": 8936,
      "786": 8937,
      "TUBRE": 8938,
      "ĠOCTUBRE": 8939,
      "Ġadulto": 8940,
      "Ġrecordarles": 8941,
      "ĠElectr": 8942,
      "Ġrectores": 8943,
      "Ġvayamos": 8944,
      "Ġcorrer": 8945,
      "ĠdepÃ³": 8946,
[...]
